<?xml version="1.0"?>
<MethodSetup Method="BDT::BDTG">
  <GeneralInfo>
    <Info name="TMVA Release" value="4.2.1 [262657]"/>
    <Info name="ROOT Release" value="6.04/16 [394256]"/>
    <Info name="Training events" value="18806"/>
    <Info name="AnalysisType" value="Classification"/>
  </GeneralInfo>
  <Options>
    <Option name="V" modified="Yes">False</Option>
    <Option name="VerbosityLevel" modified="No">Default</Option>
    <Option name="VarTransform" modified="No">None</Option>
    <Option name="H" modified="Yes">False</Option>
    <Option name="CreateMVAPdfs" modified="No">False</Option>
    <Option name="IgnoreNegWeightsInTraining" modified="No">False</Option>
    <Option name="NTrees" modified="Yes">200</Option>
    <Option name="MaxDepth" modified="Yes">4</Option>
    <Option name="MinNodeSize" modified="Yes">10%</Option>
    <Option name="nCuts" modified="No">20</Option>
    <Option name="BoostType" modified="Yes">Grad</Option>
    <Option name="AdaBoostR2Loss" modified="No">quadratic</Option>
    <Option name="UseBaggedBoost" modified="Yes">True</Option>
    <Option name="Shrinkage" modified="Yes">2.000000e-01</Option>
    <Option name="AdaBoostBeta" modified="No">5.000000e-01</Option>
    <Option name="UseRandomisedTrees" modified="Yes">True</Option>
    <Option name="UseNvars" modified="Yes">10</Option>
    <Option name="UsePoissonNvars" modified="No">True</Option>
    <Option name="BaggedSampleFraction" modified="Yes">6.000000e-01</Option>
    <Option name="UseYesNoLeaf" modified="No">True</Option>
    <Option name="NegWeightTreatment" modified="No">ignorenegweightsintraining</Option>
    <Option name="Css" modified="No">1.000000e+00</Option>
    <Option name="Cts_sb" modified="No">1.000000e+00</Option>
    <Option name="Ctb_ss" modified="No">1.000000e+00</Option>
    <Option name="Cbb" modified="No">1.000000e+00</Option>
    <Option name="NodePurityLimit" modified="No">5.000000e-01</Option>
    <Option name="SeparationType" modified="No">giniindex</Option>
    <Option name="DoBoostMonitor" modified="No">False</Option>
    <Option name="UseFisherCuts" modified="No">False</Option>
    <Option name="MinLinCorrForFisher" modified="No">8.000000e-01</Option>
    <Option name="UseExclusiveVars" modified="No">False</Option>
    <Option name="DoPreselection" modified="No">False</Option>
    <Option name="SigToBkgFraction" modified="No">1.000000e+00</Option>
    <Option name="PruneMethod" modified="No">nopruning</Option>
    <Option name="PruneStrength" modified="No">0.000000e+00</Option>
    <Option name="PruningValFraction" modified="No">5.000000e-01</Option>
    <Option name="nEventsMin" modified="No">0</Option>
    <Option name="UseBaggedGrad" modified="No">False</Option>
    <Option name="GradBaggingFraction" modified="No">6.000000e-01</Option>
    <Option name="UseNTrainEvents" modified="No">0</Option>
    <Option name="NNodesMax" modified="No">0</Option>
  </Options>
  <Variables NVar="10">
    <Variable VarIndex="0" Expression="mt" Label="mt" Title="m_{T}" Unit="GeV" Internal="mt" Type="F" Min="1.20005375e+05" Max="6.39380800e+06"/>
    <Variable VarIndex="1" Expression="dphi_ttbar" Label="dphi_ttbar" Title="dphi_ttbar" Unit="" Internal="dphi_ttbar" Type="F" Min="-3.14156675e+00" Max="3.14146376e+00"/>
    <Variable VarIndex="2" Expression="dr_bjet_lep" Label="dr_bjet_lep" Title="dr_bjet_lep" Unit="" Internal="dr_bjet_lep" Type="F" Min="7.09228516e-02" Max="5.64179468e+00"/>
    <Variable VarIndex="3" Expression="jetPt3" Label="jetPt3" Title="jet3Pt" Unit="" Internal="jetPt3" Type="F" Min="2.56397480e+04" Max="7.15013562e+05"/>
    <Variable VarIndex="4" Expression="jetPt4" Label="jetPt4" Title="jet4Pt" Unit="" Internal="jetPt4" Type="F" Min="2.52210352e+04" Max="3.88424875e+05"/>
    <Variable VarIndex="5" Expression="m_top_chi2" Label="m_top_chi2" Title="m_top_chi2" Unit="" Internal="m_top_chi2" Type="F" Min="7.81258774e+01" Max="1.61035596e+03"/>
    <Variable VarIndex="6" Expression="RJR_RISR" Label="RJR_RISR" Title="R_{ISR}" Unit="" Internal="RJR_RISR" Type="F" Min="4.00179565e-01" Max="9.93638515e-01"/>
    <Variable VarIndex="7" Expression="RJR_MS" Label="RJR_MS" Title="M_{T}^{S}" Unit="GeV" Internal="RJR_MS" Type="F" Min="5.48191071e+00" Max="1.95163574e+03"/>
    <Variable VarIndex="8" Expression="RJR_dphiISRI" Label="RJR_dphiISRI" Title="|#Delta#phi(ISR,I)|" Unit="" Internal="RJR_dphiISRI" Type="F" Min="2.10001469e+00" Max="3.14158082e+00"/>
    <Variable VarIndex="9" Expression="RJR_NjV" Label="RJR_NjV" Title="NjV" Unit="" Internal="RJR_NjV" Type="I" Min="1.00000000e+00" Max="9.00000000e+00"/>
  </Variables>
  <Spectators NSpec="0"/>
  <Classes NClass="2">
    <Class Name="Signal" Index="0"/>
    <Class Name="Background" Index="1"/>
  </Classes>
  <Transformations NTransformations="0"/>
  <MVAPdfs/>
  <Weights NTrees="200" AnalysisType="1">
    <BinaryTree type="DecisionTree" boostWeight="1.0000000000000000e+00" itree="0">
      <Node pos="s" depth="0" NCoef="0" IVar="0" Cut="3.0076384375000000e+05" cType="1" res="-1.0685946792364120e-02" rms="4.9988579750061035e-01" purity="4.8931404948234558e-01" nType="0">
        <Node pos="l" depth="1" NCoef="0" IVar="7" Cut="1.6998329162597656e+02" cType="1" res="6.1292000114917755e-02" rms="4.9622908234596252e-01" purity="5.6129199266433716e-01" nType="0">
          <Node pos="l" depth="2" NCoef="0" IVar="-1" Cut="0.0000000000000000e+00" cType="1" res="-2.1873975172638893e-02" rms="4.8590141534805298e-01" purity="3.8210257887840271e-01" nType="-99"/>
          <Node pos="r" depth="2" NCoef="0" IVar="6" Cut="5.9575963020324707e-01" cType="1" res="1.1305437982082367e-01" rms="4.8705103993415833e-01" purity="6.1305439472198486e-01" nType="0">
            <Node pos="l" depth="3" NCoef="0" IVar="6" Cut="5.0264161825180054e-01" cType="1" res="-1.2403542641550303e-03" rms="4.9999845027923584e-01" purity="4.9875962734222412e-01" nType="0">
              <Node pos="l" depth="4" NCoef="0" IVar="-1" Cut="0.0000000000000000e+00" cType="1" res="-1.9844634458422661e-02" rms="4.8754778504371643e-01" purity="3.8910749554634094e-01" nType="-99"/>
              <Node pos="r" depth="4" NCoef="0" IVar="-1" Cut="0.0000000000000000e+00" cType="1" res="1.8356582149863243e-02" rms="4.9484267830848694e-01" purity="5.7162910699844360e-01" nType="-99"/>
            </Node>
            <Node pos="r" depth="3" NCoef="0" IVar="7" Cut="3.1922030639648438e+02" cType="1" res="1.8979743123054504e-01" rms="4.6257641911506653e-01" purity="6.8979746103286743e-01" nType="0">
              <Node pos="l" depth="4" NCoef="0" IVar="-1" Cut="0.0000000000000000e+00" cType="1" res="2.8730977326631546e-02" rms="4.8243987560272217e-01" purity="6.3134598731994629e-01" nType="-99"/>
              <Node pos="r" depth="4" NCoef="0" IVar="-1" Cut="0.0000000000000000e+00" cType="1" res="7.1836128830909729e-02" rms="3.8352981209754944e-01" purity="8.2078796625137329e-01" nType="-99"/>
            </Node>
          </Node>
        </Node>
        <Node pos="r" depth="1" NCoef="0" IVar="-1" Cut="0.0000000000000000e+00" cType="1" res="-7.5501404702663422e-02" rms="3.5675650835037231e-01" purity="1.4967902004718781e-01" nType="-99"/>
      </Node>
    </BinaryTree>
    <BinaryTree type="DecisionTree" boostWeight="1.0000000000000000e+00" itree="1">
      <Node pos="s" depth="0" NCoef="0" IVar="2" Cut="8.6676168441772461e-01" cType="1" res="0.0000000000000000e+00" rms="0.0000000000000000e+00" purity="4.9658557772636414e-01" nType="0">
        <Node pos="l" depth="1" NCoef="0" IVar="-1" Cut="0.0000000000000000e+00" cType="1" res="-6.7592553794384003e-02" rms="4.1427531838417053e-01" purity="2.3484303057193756e-01" nType="-99"/>
        <Node pos="r" depth="1" NCoef="0" IVar="7" Cut="2.2790785217285156e+02" cType="1" res="4.6202808618545532e-02" rms="4.9064442515373230e-01" purity="5.4755890369415283e-01" nType="0">
          <Node pos="l" depth="2" NCoef="0" IVar="0" Cut="2.4044503125000000e+05" cType="1" res="-6.3765212893486023e-02" rms="4.8962637782096863e-01" purity="4.2823812365531921e-01" nType="0">
            <Node pos="l" depth="3" NCoef="0" IVar="7" Cut="1.5531414794921875e+02" cType="1" res="3.9659686386585236e-02" rms="4.9720081686973572e-01" purity="5.3864145278930664e-01" nType="0">
              <Node pos="l" depth="4" NCoef="0" IVar="-1" Cut="0.0000000000000000e+00" cType="1" res="-5.4065324366092682e-03" rms="4.9856722354888916e-01" purity="4.6217498183250427e-01" nType="-99"/>
              <Node pos="r" depth="4" NCoef="0" IVar="-1" Cut="0.0000000000000000e+00" cType="1" res="2.5397805497050285e-02" rms="4.8934540152549744e-01" purity="6.0148698091506958e-01" nType="-99"/>
            </Node>
            <Node pos="r" depth="3" NCoef="0" IVar="-1" Cut="0.0000000000000000e+00" cType="1" res="-6.1853490769863129e-02" rms="3.9873993396759033e-01" purity="2.0452727377414703e-01" nType="-99"/>
          </Node>
          <Node pos="r" depth="2" NCoef="0" IVar="6" Cut="5.3804045915603638e-01" cType="1" res="1.3444641232490540e-01" rms="4.7333058714866638e-01" purity="6.4330750703811646e-01" nType="0">
            <Node pos="l" depth="3" NCoef="0" IVar="-1" Cut="0.0000000000000000e+00" cType="1" res="1.0379677405580878e-03" rms="4.9838396906852722e-01" purity="4.9753305315971375e-01" nType="-99"/>
            <Node pos="r" depth="3" NCoef="0" IVar="8" Cut="2.9740483760833740e+00" cType="1" res="1.8589884042739868e-01" rms="4.5279207825660706e-01" purity="7.0194166898727417e-01" nType="0">
              <Node pos="l" depth="4" NCoef="0" IVar="-1" Cut="0.0000000000000000e+00" cType="1" res="2.2364122793078423e-02" rms="4.8411631584167480e-01" purity="6.0650539398193359e-01" nType="-99"/>
              <Node pos="r" depth="4" NCoef="0" IVar="-1" Cut="0.0000000000000000e+00" cType="1" res="6.1750523746013641e-02" rms="4.1368308663368225e-01" purity="7.7442371845245361e-01" nType="-99"/>
            </Node>
          </Node>
        </Node>
      </Node>
    </BinaryTree>
    <BinaryTree type="DecisionTree" boostWeight="1.0000000000000000e+00" itree="2">
      <Node pos="s" depth="0" NCoef="0" IVar="7" Cut="1.9082989501953125e+02" cType="1" res="6.3735633157193661e-03" rms="4.8409423232078552e-01" purity="5.0587350130081177e-01" nType="0">
        <Node pos="l" depth="1" NCoef="0" IVar="0" Cut="2.4574215625000000e+05" cType="1" res="-1.2813927233219147e-01" rms="4.6342077851295471e-01" purity="3.4462261199951172e-01" nType="0">
          <Node pos="l" depth="2" NCoef="0" IVar="-1" Cut="0.0000000000000000e+00" cType="1" res="7.1682233829051256e-04" rms="4.9758452177047729e-01" purity="4.9767401814460754e-01" nType="-99"/>
          <Node pos="r" depth="2" NCoef="0" IVar="-1" Cut="0.0000000000000000e+00" cType="1" res="-8.2708321511745453e-02" rms="3.0987468361854553e-01" purity="1.0944223403930664e-01" nType="-99"/>
        </Node>
        <Node pos="r" depth="1" NCoef="0" IVar="2" Cut="1.0445101261138916e+00" cType="1" res="0.0000000000000000e+00" rms="0.0000000000000000e+00" purity="5.8686894178390503e-01" nType="0">
          <Node pos="l" depth="2" NCoef="0" IVar="-1" Cut="0.0000000000000000e+00" cType="1" res="-1.7252946272492409e-02" rms="4.7744143009185791e-01" purity="4.0781235694885254e-01" nType="-99"/>
          <Node pos="r" depth="2" NCoef="0" IVar="6" Cut="5.4122161865234375e-01" cType="1" res="1.1224964261054993e-01" rms="4.7345507144927979e-01" purity="6.3393056392669678e-01" nType="0">
            <Node pos="l" depth="3" NCoef="0" IVar="-1" Cut="0.0000000000000000e+00" cType="1" res="9.4061729032546282e-04" rms="4.9865049123764038e-01" purity="4.9799469113349915e-01" nType="-99"/>
            <Node pos="r" depth="3" NCoef="0" IVar="8" Cut="2.9714374542236328e+00" cType="1" res="1.5206772089004517e-01" rms="4.5739731192588806e-01" purity="6.8437993526458740e-01" nType="0">
              <Node pos="l" depth="4" NCoef="0" IVar="-1" Cut="0.0000000000000000e+00" cType="1" res="1.8053708598017693e-02" rms="4.8660734295845032e-01" purity="5.9186714887619019e-01" nType="-99"/>
              <Node pos="r" depth="4" NCoef="0" IVar="-1" Cut="0.0000000000000000e+00" cType="1" res="5.3604230284690857e-02" rms="4.2415034770965576e-01" purity="7.5346499681472778e-01" nType="-99"/>
            </Node>
          </Node>
        </Node>
      </Node>
    </BinaryTree>
    <BinaryTree type="DecisionTree" boostWeight="1.0000000000000000e+00" itree="3">
      <Node pos="s" depth="0" NCoef="0" IVar="0" Cut="3.6247400000000000e+05" cType="1" res="-1.0678320191800594e-02" rms="4.7799196839332581e-01" purity="4.8947048187255859e-01" nType="0">
        <Node pos="l" depth="1" NCoef="0" IVar="3" Cut="7.4776968750000000e+04" cType="1" res="2.2543663159012794e-02" rms="4.8220798373222351e-01" purity="5.3151762485504150e-01" nType="0">
          <Node pos="l" depth="2" NCoef="0" IVar="0" Cut="2.2387037500000000e+05" cType="1" res="-7.7753700315952301e-02" rms="4.7533693909645081e-01" purity="4.2430818080902100e-01" nType="0">
            <Node pos="l" depth="3" NCoef="0" IVar="8" Cut="2.9815599918365479e+00" cType="1" res="-3.7052638363093138e-03" rms="4.9122714996337891e-01" purity="5.1787602901458740e-01" nType="0">
              <Node pos="l" depth="4" NCoef="0" IVar="-1" Cut="0.0000000000000000e+00" cType="1" res="-2.2565461695194244e-02" rms="4.9036985635757446e-01" purity="4.3512254953384399e-01" nType="-99"/>
              <Node pos="r" depth="4" NCoef="0" IVar="-1" Cut="0.0000000000000000e+00" cType="1" res="1.3371250592172146e-02" rms="4.8290911316871643e-01" purity="5.8373934030532837e-01" nType="-99"/>
            </Node>
            <Node pos="r" depth="3" NCoef="0" IVar="-1" Cut="0.0000000000000000e+00" cType="1" res="-5.8578226715326309e-02" rms="3.9058300852775574e-01" purity="2.1638582646846771e-01" nType="-99"/>
          </Node>
          <Node pos="r" depth="2" NCoef="0" IVar="7" Cut="3.3352713012695312e+02" cType="1" res="8.6899600923061371e-02" rms="4.7555205225944519e-01" purity="6.0030877590179443e-01" nType="0">
            <Node pos="l" depth="3" NCoef="0" IVar="7" Cut="1.7874983215332031e+02" cType="1" res="3.0750758945941925e-02" rms="4.8591884970664978e-01" purity="5.3634619712829590e-01" nType="0">
              <Node pos="l" depth="4" NCoef="0" IVar="-1" Cut="0.0000000000000000e+00" cType="1" res="-1.2067381292581558e-02" rms="4.7646743059158325e-01" purity="3.8975220918655396e-01" nType="-99"/>
              <Node pos="r" depth="4" NCoef="0" IVar="-1" Cut="0.0000000000000000e+00" cType="1" res="1.7689418047666550e-02" rms="4.8289886116981506e-01" purity="5.9751027822494507e-01" nType="-99"/>
            </Node>
            <Node pos="r" depth="3" NCoef="0" IVar="-1" Cut="0.0000000000000000e+00" cType="1" res="3.6305263638496399e-02" rms="4.4219657778739929e-01" purity="7.0687967538833618e-01" nType="-99"/>
          </Node>
        </Node>
        <Node pos="r" depth="1" NCoef="0" IVar="-1" Cut="0.0000000000000000e+00" cType="1" res="-8.8923513889312744e-02" rms="3.1307795643806458e-01" purity="1.2005245685577393e-01" nType="-99"/>
      </Node>
    </BinaryTree>
    <BinaryTree type="DecisionTree" boostWeight="1.0000000000000000e+00" itree="4">
      <Node pos="s" depth="0" NCoef="0" IVar="0" Cut="3.6247400000000000e+05" cType="1" res="7.4561289511620998e-03" rms="4.7339138388633728e-01" purity="5.0584906339645386e-01" nType="0">
        <Node pos="l" depth="1" NCoef="0" IVar="4" Cut="3.7911734375000000e+04" cType="1" res="3.7225391715764999e-02" rms="4.7890281677246094e-01" purity="5.4965513944625854e-01" nType="0">
          <Node pos="l" depth="2" NCoef="0" IVar="-1" Cut="0.0000000000000000e+00" cType="1" res="-3.3934976905584335e-02" rms="4.6105423569679260e-01" purity="3.5413154959678650e-01" nType="-99"/>
          <Node pos="r" depth="2" NCoef="0" IVar="7" Cut="3.0490093994140625e+02" cType="1" res="0.0000000000000000e+00" rms="0.0000000000000000e+00" purity="5.8386355638504028e-01" nType="0">
            <Node pos="l" depth="3" NCoef="0" IVar="2" Cut="1.2282366752624512e+00" cType="1" res="2.5017853826284409e-02" rms="4.8400542140007019e-01" purity="5.2740073204040527e-01" nType="0">
              <Node pos="l" depth="4" NCoef="0" IVar="-1" Cut="0.0000000000000000e+00" cType="1" res="-3.0037187039852142e-02" rms="4.5838117599487305e-01" purity="3.4607031941413879e-01" nType="-99"/>
              <Node pos="r" depth="4" NCoef="0" IVar="-1" Cut="0.0000000000000000e+00" cType="1" res="1.6818489879369736e-02" rms="4.8275053501129150e-01" purity="5.8496314287185669e-01" nType="-99"/>
            </Node>
            <Node pos="r" depth="3" NCoef="0" IVar="6" Cut="5.6043732166290283e-01" cType="1" res="1.3883182406425476e-01" rms="4.5221820473670959e-01" purity="6.7982715368270874e-01" nType="0">
              <Node pos="l" depth="4" NCoef="0" IVar="-1" Cut="0.0000000000000000e+00" cType="1" res="4.5955921523272991e-03" rms="4.9388587474822998e-01" purity="5.2845114469528198e-01" nType="-99"/>
              <Node pos="r" depth="4" NCoef="0" IVar="-1" Cut="0.0000000000000000e+00" cType="1" res="5.0748940557241440e-02" rms="4.0078321099281311e-01" purity="7.8620183467864990e-01" nType="-99"/>
            </Node>
          </Node>
        </Node>
        <Node pos="r" depth="1" NCoef="0" IVar="-1" Cut="0.0000000000000000e+00" cType="1" res="-6.4592920243740082e-02" rms="3.3148348331451416e-01" purity="1.3755343854427338e-01" nType="-99"/>
      </Node>
    </BinaryTree>
    <BinaryTree type="DecisionTree" boostWeight="1.0000000000000000e+00" itree="5">
      <Node pos="s" depth="0" NCoef="0" IVar="7" Cut="2.5619741821289062e+02" cType="1" res="0.0000000000000000e+00" rms="0.0000000000000000e+00" purity="4.8640912771224976e-01" nType="0">
        <Node pos="l" depth="1" NCoef="0" IVar="4" Cut="3.9644503906250000e+04" cType="1" res="0.0000000000000000e+00" rms="0.0000000000000000e+00" purity="3.7583580613136292e-01" nType="0">
          <Node pos="l" depth="2" NCoef="0" IVar="-1" Cut="0.0000000000000000e+00" cType="1" res="-4.3776627629995346e-02" rms="4.0815728902816772e-01" purity="2.5394582748413086e-01" nType="-99"/>
          <Node pos="r" depth="2" NCoef="0" IVar="0" Cut="2.4573687500000000e+05" cType="1" res="-5.0733558833599091e-02" rms="4.6712505817413330e-01" purity="4.2380493879318237e-01" nType="0">
            <Node pos="l" depth="3" NCoef="0" IVar="7" Cut="1.8543954467773438e+02" cType="1" res="2.6013532653450966e-02" rms="4.8997962474822998e-01" purity="5.4238826036453247e-01" nType="0">
              <Node pos="l" depth="4" NCoef="0" IVar="-1" Cut="0.0000000000000000e+00" cType="1" res="-3.0306652188301086e-03" rms="4.9592953920364380e-01" purity="4.7171896696090698e-01" nType="-99"/>
              <Node pos="r" depth="4" NCoef="0" IVar="-1" Cut="0.0000000000000000e+00" cType="1" res="1.7019493505358696e-02" rms="4.7954744100570679e-01" purity="6.1072129011154175e-01" nType="-99"/>
            </Node>
            <Node pos="r" depth="3" NCoef="0" IVar="-1" Cut="0.0000000000000000e+00" cType="1" res="-5.1439188420772552e-02" rms="3.7356567382812500e-01" purity="1.8764349818229675e-01" nType="-99"/>
          </Node>
        </Node>
        <Node pos="r" depth="1" NCoef="0" IVar="8" Cut="2.9957215785980225e+00" cType="1" res="8.5571341216564178e-02" rms="4.6130707859992981e-01" purity="6.2418025732040405e-01" nType="0">
          <Node pos="l" depth="2" NCoef="0" IVar="2" Cut="2.2278025150299072e+00" cType="1" res="2.4133380502462387e-02" rms="4.8032796382904053e-01" purity="5.4226332902908325e-01" nType="0">
            <Node pos="l" depth="3" NCoef="0" IVar="-1" Cut="0.0000000000000000e+00" cType="1" res="-9.8736565560102463e-03" rms="4.8115947842597961e-01" purity="4.7318187355995178e-01" nType="-99"/>
            <Node pos="r" depth="3" NCoef="0" IVar="-1" Cut="0.0000000000000000e+00" cType="1" res="1.8739363178610802e-02" rms="4.6687543392181396e-01" purity="6.3674199581146240e-01" nType="-99"/>
          </Node>
          <Node pos="r" depth="2" NCoef="0" IVar="-1" Cut="0.0000000000000000e+00" cType="1" res="4.0749948471784592e-02" rms="4.1800394654273987e-01" purity="7.3967361450195312e-01" nType="-99"/>
        </Node>
      </Node>
    </BinaryTree>
    <BinaryTree type="DecisionTree" boostWeight="1.0000000000000000e+00" itree="6">
      <Node pos="s" depth="0" NCoef="0" IVar="7" Cut="1.9082989501953125e+02" cType="1" res="5.7872629258781672e-04" rms="4.6347859501838684e-01" purity="4.9782335758209229e-01" nType="0">
        <Node pos="l" depth="1" NCoef="0" IVar="0" Cut="2.5684082812500000e+05" cType="1" res="-1.0303968191146851e-01" rms="4.4035148620605469e-01" purity="3.1953719258308411e-01" nType="0">
          <Node pos="l" depth="2" NCoef="0" IVar="6" Cut="7.1281254291534424e-01" cType="1" res="-3.4777551889419556e-02" rms="4.8981338739395142e-01" purity="4.4125214219093323e-01" nType="0">
            <Node pos="l" depth="3" NCoef="0" IVar="-1" Cut="0.0000000000000000e+00" cType="1" res="-9.8808798938989639e-03" rms="4.9060103297233582e-01" purity="4.2322355508804321e-01" nType="-99"/>
            <Node pos="r" depth="3" NCoef="0" IVar="-1" Cut="0.0000000000000000e+00" cType="1" res="-2.5231316685676575e-03" rms="4.8817327618598938e-01" purity="4.5852464437484741e-01" nType="-99"/>
          </Node>
          <Node pos="r" depth="2" NCoef="0" IVar="-1" Cut="0.0000000000000000e+00" cType="1" res="-5.0134427845478058e-02" rms="3.1431326270103455e-01" purity="1.2086791545152664e-01" nType="-99"/>
        </Node>
        <Node pos="r" depth="1" NCoef="0" IVar="6" Cut="5.9763842821121216e-01" cType="1" res="5.3235720843076706e-02" rms="4.6605357527732849e-01" purity="5.8842509984970093e-01" nType="0">
          <Node pos="l" depth="2" NCoef="0" IVar="5" Cut="2.0162107849121094e+02" cType="1" res="0.0000000000000000e+00" rms="0.0000000000000000e+00" purity="4.8062714934349060e-01" nType="0">
            <Node pos="l" depth="3" NCoef="0" IVar="-1" Cut="0.0000000000000000e+00" cType="1" res="1.3139400631189346e-02" rms="4.7791597247123718e-01" purity="5.6439721584320068e-01" nType="-99"/>
            <Node pos="r" depth="3" NCoef="0" IVar="-1" Cut="0.0000000000000000e+00" cType="1" res="-3.0328525230288506e-02" rms="4.6906396746635437e-01" purity="3.6641347408294678e-01" nType="-99"/>
          </Node>
          <Node pos="r" depth="2" NCoef="0" IVar="4" Cut="5.0001199218750000e+04" cType="1" res="1.1495317518711090e-01" rms="4.4261732697486877e-01" purity="6.7123872041702271e-01" nType="0">
            <Node pos="l" depth="3" NCoef="0" IVar="-1" Cut="0.0000000000000000e+00" cType="1" res="2.5126582477241755e-03" rms="4.7418695688247681e-01" purity="5.3335803747177124e-01" nType="-99"/>
            <Node pos="r" depth="3" NCoef="0" IVar="2" Cut="1.8994538784027100e+00" cType="1" res="1.7464694380760193e-01" rms="4.1195976734161377e-01" purity="7.4895650148391724e-01" nType="0">
              <Node pos="l" depth="4" NCoef="0" IVar="-1" Cut="0.0000000000000000e+00" cType="1" res="3.1052108854055405e-02" rms="4.2638990283012390e-01" purity="7.0733946561813354e-01" nType="-99"/>
              <Node pos="r" depth="4" NCoef="0" IVar="-1" Cut="0.0000000000000000e+00" cType="1" res="4.8572894185781479e-02" rms="3.9539253711700439e-01" purity="7.9021263122558594e-01" nType="-99"/>
            </Node>
          </Node>
        </Node>
      </Node>
    </BinaryTree>
    <BinaryTree type="DecisionTree" boostWeight="1.0000000000000000e+00" itree="7">
      <Node pos="s" depth="0" NCoef="0" IVar="0" Cut="2.7701403125000000e+05" cType="1" res="5.6528877466917038e-03" rms="4.6109831333160400e-01" purity="5.0263464450836182e-01" nType="0">
        <Node pos="l" depth="1" NCoef="0" IVar="4" Cut="5.9887332031250000e+04" cType="1" res="4.8150077462196350e-02" rms="4.7243747115135193e-01" purity="5.7880574464797974e-01" nType="0">
          <Node pos="l" depth="2" NCoef="0" IVar="2" Cut="1.3940235376358032e+00" cType="1" res="-1.2959608808159828e-02" rms="4.7930857539176941e-01" purity="5.0030523538589478e-01" nType="0">
            <Node pos="l" depth="3" NCoef="0" IVar="-1" Cut="0.0000000000000000e+00" cType="1" res="-4.8011001199483871e-02" rms="4.3594324588775635e-01" purity="3.0913802981376648e-01" nType="-99"/>
            <Node pos="r" depth="3" NCoef="0" IVar="5" Cut="1.8772750854492188e+02" cType="1" res="4.8013087362051010e-02" rms="4.8173314332962036e-01" purity="5.7516229152679443e-01" nType="0">
              <Node pos="l" depth="4" NCoef="0" IVar="-1" Cut="0.0000000000000000e+00" cType="1" res="2.2138854488730431e-02" rms="4.7288858890533447e-01" purity="6.2001782655715942e-01" nType="-99"/>
              <Node pos="r" depth="4" NCoef="0" IVar="-1" Cut="0.0000000000000000e+00" cType="1" res="-4.3427017517387867e-03" rms="4.8864534497261047e-01" purity="5.0137072801589966e-01" nType="-99"/>
            </Node>
          </Node>
          <Node pos="r" depth="2" NCoef="0" IVar="6" Cut="5.3650164604187012e-01" cType="1" res="1.0836675763130188e-01" rms="4.5765417814254761e-01" purity="6.5615904331207275e-01" nType="0">
            <Node pos="l" depth="3" NCoef="0" IVar="-1" Cut="0.0000000000000000e+00" cType="1" res="1.3876323355361819e-03" rms="4.9564790725708008e-01" purity="5.1104468107223511e-01" nType="-99"/>
            <Node pos="r" depth="3" NCoef="0" IVar="9" Cut="3.0000000000000000e+00" cType="1" res="7.3928281664848328e-02" rms="3.0976781249046326e-01" purity="7.2070074081420898e-01" nType="0">
              <Node pos="l" depth="4" NCoef="0" IVar="-1" Cut="0.0000000000000000e+00" cType="1" res="1.4221543446183205e-02" rms="4.6778729557991028e-01" purity="6.2776845693588257e-01" nType="-99"/>
              <Node pos="r" depth="4" NCoef="0" IVar="-1" Cut="0.0000000000000000e+00" cType="1" res="4.5416072010993958e-02" rms="3.8963046669960022e-01" purity="8.0066376924514771e-01" nType="-99"/>
            </Node>
          </Node>
        </Node>
        <Node pos="r" depth="1" NCoef="0" IVar="2" Cut="1.4977104663848877e+00" cType="1" res="-1.4619408547878265e-01" rms="3.8115337491035461e-01" purity="2.3046727478504181e-01" nType="0">
          <Node pos="l" depth="2" NCoef="0" IVar="-1" Cut="0.0000000000000000e+00" cType="1" res="-8.7296783924102783e-02" rms="2.9831635951995850e-01" purity="1.1423809826374054e-01" nType="-99"/>
          <Node pos="r" depth="2" NCoef="0" IVar="-1" Cut="0.0000000000000000e+00" cType="1" res="-1.3411903753876686e-02" rms="4.2739039659500122e-01" purity="3.3274888992309570e-01" nType="-99"/>
        </Node>
      </Node>
    </BinaryTree>
    <BinaryTree type="DecisionTree" boostWeight="1.0000000000000000e+00" itree="8">
      <Node pos="s" depth="0" NCoef="0" IVar="0" Cut="2.7701403125000000e+05" cType="1" res="2.2248560562729836e-03" rms="4.5593056082725525e-01" purity="4.9809783697128296e-01" nType="0">
        <Node pos="l" depth="1" NCoef="0" IVar="6" Cut="5.4056125879287720e-01" cType="1" res="3.9388567209243774e-02" rms="4.7014307975769043e-01" purity="5.7495868206024170e-01" nType="0">
          <Node pos="l" depth="2" NCoef="0" IVar="-1" Cut="0.0000000000000000e+00" cType="1" res="-1.2482595629990101e-02" rms="4.8877552151679993e-01" purity="4.3990820646286011e-01" nType="-99"/>
          <Node pos="r" depth="2" NCoef="0" IVar="7" Cut="1.8397549438476562e+02" cType="1" res="6.7132368683815002e-02" rms="4.6100279688835144e-01" purity="6.1259502172470093e-01" nType="0">
            <Node pos="l" depth="3" NCoef="0" IVar="-1" Cut="0.0000000000000000e+00" cType="1" res="-6.7044482566416264e-03" rms="4.8213085532188416e-01" purity="4.3092441558837891e-01" nType="-99"/>
            <Node pos="r" depth="3" NCoef="0" IVar="8" Cut="2.8701701164245605e+00" cType="1" res="1.0911304503679276e-01" rms="4.4496098160743713e-01" purity="6.9249343872070312e-01" nType="0">
              <Node pos="l" depth="4" NCoef="0" IVar="-1" Cut="0.0000000000000000e+00" cType="1" res="3.0926705803722143e-03" rms="4.8397997021675110e-01" purity="5.6358772516250610e-01" nType="-99"/>
              <Node pos="r" depth="4" NCoef="0" IVar="-1" Cut="0.0000000000000000e+00" cType="1" res="3.7230372428894043e-02" rms="4.2389658093452454e-01" purity="7.4078345298767090e-01" nType="-99"/>
            </Node>
          </Node>
        </Node>
        <Node pos="r" depth="1" NCoef="0" IVar="4" Cut="5.3055625000000000e+04" cType="1" res="-1.3182748854160309e-01" rms="3.7073573470115662e-01" purity="2.2085472941398621e-01" nType="0">
          <Node pos="l" depth="2" NCoef="0" IVar="-1" Cut="0.0000000000000000e+00" cType="1" res="-6.3749082386493683e-02" rms="2.8283023834228516e-01" purity="1.0626199841499329e-01" nType="-99"/>
          <Node pos="r" depth="2" NCoef="0" IVar="-1" Cut="0.0000000000000000e+00" cType="1" res="-1.2420961633324623e-02" rms="4.2493864893913269e-01" purity="3.3692365884780884e-01" nType="-99"/>
        </Node>
      </Node>
    </BinaryTree>
    <BinaryTree type="DecisionTree" boostWeight="1.0000000000000000e+00" itree="9">
      <Node pos="s" depth="0" NCoef="0" IVar="2" Cut="1.2880704402923584e+00" cType="1" res="1.5413254499435425e-02" rms="4.5517969131469727e-01" purity="5.1211369037628174e-01" nType="0">
        <Node pos="l" depth="1" NCoef="0" IVar="4" Cut="5.7385246093750000e+04" cType="1" res="-8.3688609302043915e-02" rms="4.2415559291839600e-01" purity="3.4397643804550171e-01" nType="0">
          <Node pos="l" depth="2" NCoef="0" IVar="-1" Cut="0.0000000000000000e+00" cType="1" res="-5.4692678153514862e-02" rms="3.7316736578941345e-01" purity="2.1609796583652496e-01" nType="-99"/>
          <Node pos="r" depth="2" NCoef="0" IVar="-1" Cut="0.0000000000000000e+00" cType="1" res="-4.0610998985357583e-04" rms="4.5431554317474365e-01" purity="4.6993568539619446e-01" nType="-99"/>
        </Node>
        <Node pos="r" depth="1" NCoef="0" IVar="3" Cut="7.8250250000000000e+04" cType="1" res="0.0000000000000000e+00" rms="0.0000000000000000e+00" purity="5.8407282829284668e-01" nType="0">
          <Node pos="l" depth="2" NCoef="0" IVar="8" Cut="2.9467427730560303e+00" cType="1" res="2.1270082797855139e-03" rms="4.6713724732398987e-01" purity="5.0251704454421997e-01" nType="0">
            <Node pos="l" depth="3" NCoef="0" IVar="-1" Cut="0.0000000000000000e+00" cType="1" res="-1.4063962735235691e-02" rms="4.8021295666694641e-01" purity="4.4668635725975037e-01" nType="-99"/>
            <Node pos="r" depth="3" NCoef="0" IVar="7" Cut="1.8306213378906250e+02" cType="1" res="3.2696790993213654e-02" rms="4.5741054415702820e-01" purity="5.3040421009063721e-01" nType="0">
              <Node pos="l" depth="4" NCoef="0" IVar="-1" Cut="0.0000000000000000e+00" cType="1" res="-2.7813075575977564e-03" rms="4.6395060420036316e-01" purity="4.0493711829185486e-01" nType="-99"/>
              <Node pos="r" depth="4" NCoef="0" IVar="-1" Cut="0.0000000000000000e+00" cType="1" res="2.2881133481860161e-02" rms="4.4633314013481140e-01" purity="6.5499681234359741e-01" nType="-99"/>
            </Node>
          </Node>
          <Node pos="r" depth="2" NCoef="0" IVar="5" Cut="1.9191612243652344e+02" cType="1" res="1.0044103860855103e-01" rms="4.5229980349540710e-01" purity="6.4646881818771362e-01" nType="0">
            <Node pos="l" depth="3" NCoef="0" IVar="-1" Cut="0.0000000000000000e+00" cType="1" res="3.0997954308986664e-02" rms="4.1952005028724670e-01" purity="7.3227077722549438e-01" nType="-99"/>
            <Node pos="r" depth="3" NCoef="0" IVar="-1" Cut="0.0000000000000000e+00" cType="1" res="4.9796286039054394e-03" rms="4.7276243567466736e-01" purity="5.5381780862808228e-01" nType="-99"/>
          </Node>
        </Node>
      </Node>
    </BinaryTree>
    <BinaryTree type="DecisionTree" boostWeight="1.0000000000000000e+00" itree="10">
      <Node pos="s" depth="0" NCoef="0" IVar="7" Cut="3.3153063964843750e+02" cType="1" res="-2.9158568941056728e-03" rms="4.4986599683761597e-01" purity="4.9321490526199341e-01" nType="0">
        <Node pos="l" depth="1" NCoef="0" IVar="2" Cut="1.1322149038314819e+00" cType="1" res="0.0000000000000000e+00" rms="0.0000000000000000e+00" purity="4.3575215339660645e-01" nType="0">
          <Node pos="l" depth="2" NCoef="0" IVar="-1" Cut="0.0000000000000000e+00" cType="1" res="-4.0768817067146301e-02" rms="3.7764793634414673e-01" purity="2.2747245430946350e-01" nType="-99"/>
          <Node pos="r" depth="2" NCoef="0" IVar="5" Cut="2.0746513366699219e+02" cType="1" res="0.0000000000000000e+00" rms="0.0000000000000000e+00" purity="5.0637418031692505e-01" nType="0">
            <Node pos="l" depth="3" NCoef="0" IVar="4" Cut="4.2150058593750000e+04" cType="1" res="3.1637135893106461e-02" rms="4.6073532104492188e-01" purity="5.4705774784088135e-01" nType="0">
              <Node pos="l" depth="4" NCoef="0" IVar="-1" Cut="0.0000000000000000e+00" cType="1" res="-1.3684895820915699e-02" rms="4.5831662416458130e-01" purity="4.0983551740646362e-01" nType="-99"/>
              <Node pos="r" depth="4" NCoef="0" IVar="-1" Cut="0.0000000000000000e+00" cType="1" res="1.4122235588729382e-02" rms="4.5734742283821106e-01" purity="6.0735392570495605e-01" nType="-99"/>
            </Node>
            <Node pos="r" depth="3" NCoef="0" IVar="-1" Cut="0.0000000000000000e+00" cType="1" res="-1.7173808068037033e-02" rms="4.6789470314979553e-01" purity="4.1827991604804993e-01" nType="-99"/>
          </Node>
        </Node>
        <Node pos="r" depth="1" NCoef="0" IVar="6" Cut="5.8102178573608398e-01" cType="1" res="9.0168282389640808e-02" rms="4.3943718075752258e-01" purity="6.5527844429016113e-01" nType="0">
          <Node pos="l" depth="2" NCoef="0" IVar="-1" Cut="0.0000000000000000e+00" cType="1" res="4.1267946362495422e-03" rms="4.8136678338050842e-01" purity="5.2753049135208130e-01" nType="-99"/>
          <Node pos="r" depth="2" NCoef="0" IVar="-1" Cut="0.0000000000000000e+00" cType="1" res="3.8232896476984024e-02" rms="3.7957742810249329e-01" purity="7.8317457437515259e-01" nType="-99"/>
        </Node>
      </Node>
    </BinaryTree>
    <BinaryTree type="DecisionTree" boostWeight="1.0000000000000000e+00" itree="11">
      <Node pos="s" depth="0" NCoef="0" IVar="2" Cut="1.0786472558975220e+00" cType="1" res="0.0000000000000000e+00" rms="0.0000000000000000e+00" purity="5.0894182920455933e-01" nType="0">
        <Node pos="l" depth="1" NCoef="0" IVar="4" Cut="5.9811878906250000e+04" cType="1" res="-8.8553383946418762e-02" rms="4.0191549062728882e-01" purity="2.9477930068969727e-01" nType="0">
          <Node pos="l" depth="2" NCoef="0" IVar="-1" Cut="0.0000000000000000e+00" cType="1" res="-5.1051996648311615e-02" rms="3.4490168094635010e-01" purity="1.7558613419532776e-01" nType="-99"/>
          <Node pos="r" depth="2" NCoef="0" IVar="-1" Cut="0.0000000000000000e+00" cType="1" res="-1.6782180173322558e-03" rms="4.5022377371788025e-01" purity="4.4446870684623718e-01" nType="-99"/>
        </Node>
        <Node pos="r" depth="1" NCoef="0" IVar="6" Cut="5.1321935653686523e-01" cType="1" res="4.3338909745216370e-02" rms="4.5887136459350586e-01" purity="5.7255852222442627e-01" nType="0">
          <Node pos="l" depth="2" NCoef="0" IVar="-1" Cut="0.0000000000000000e+00" cType="1" res="-1.3459443114697933e-02" rms="4.8078098893165588e-01" purity="4.1529974341392517e-01" nType="-99"/>
          <Node pos="r" depth="2" NCoef="0" IVar="0" Cut="2.7324621875000000e+05" cType="1" res="6.4032547175884247e-02" rms="4.5166033506393433e-01" purity="6.0192459821701050e-01" nType="0">
            <Node pos="l" depth="3" NCoef="0" IVar="9" Cut="3.0000000000000000e+00" cType="1" res="4.7342944890260696e-02" rms="3.1393203139305115e-01" purity="6.5377932786941528e-01" nType="0">
              <Node pos="l" depth="4" NCoef="0" IVar="-1" Cut="0.0000000000000000e+00" cType="1" res="1.0091979987919331e-02" rms="4.7232511639595032e-01" purity="5.8432042598724365e-01" nType="-99"/>
              <Node pos="r" depth="4" NCoef="0" IVar="-1" Cut="0.0000000000000000e+00" cType="1" res="3.1823720782995224e-02" rms="4.3150702118873596e-01" purity="7.2379559278488159e-01" nType="-99"/>
            </Node>
            <Node pos="r" depth="3" NCoef="0" IVar="-1" Cut="0.0000000000000000e+00" cType="1" res="-1.0189461521804333e-02" rms="4.2472788691520691e-01" purity="3.5173290967941284e-01" nType="-99"/>
          </Node>
        </Node>
      </Node>
    </BinaryTree>
    <BinaryTree type="DecisionTree" boostWeight="1.0000000000000000e+00" itree="12">
      <Node pos="s" depth="0" NCoef="0" IVar="0" Cut="2.7652531250000000e+05" cType="1" res="-8.2518602721393108e-04" rms="4.4683116674423218e-01" purity="4.9245089292526245e-01" nType="0">
        <Node pos="l" depth="1" NCoef="0" IVar="4" Cut="4.2806968750000000e+04" cType="1" res="2.8764110058546066e-02" rms="4.6478053927421570e-01" purity="5.7160216569900513e-01" nType="0">
          <Node pos="l" depth="2" NCoef="0" IVar="-1" Cut="0.0000000000000000e+00" cType="1" res="-1.4702936634421349e-02" rms="4.7219043970108032e-01" purity="4.2137047648429871e-01" nType="-99"/>
          <Node pos="r" depth="2" NCoef="0" IVar="6" Cut="5.1151984930038452e-01" cType="1" res="5.4034132510423660e-02" rms="4.5953321456909180e-01" purity="6.1654412746429443e-01" nType="0">
            <Node pos="l" depth="3" NCoef="0" IVar="-1" Cut="0.0000000000000000e+00" cType="1" res="-6.4911795780062675e-03" rms="4.9080407619476318e-01" purity="4.5427852869033813e-01" nType="-99"/>
            <Node pos="r" depth="3" NCoef="0" IVar="8" Cut="2.8903086185455322e+00" cType="1" res="7.3481112718582153e-02" rms="4.4995754957199097e-01" purity="6.5278673171997070e-01" nType="0">
              <Node pos="l" depth="4" NCoef="0" IVar="-1" Cut="0.0000000000000000e+00" cType="1" res="1.7775796586647630e-03" rms="4.8164123296737671e-01" purity="5.6404101848602295e-01" nType="-99"/>
              <Node pos="r" depth="4" NCoef="0" IVar="-1" Cut="0.0000000000000000e+00" cType="1" res="2.1237181499600410e-02" rms="4.3694609403610229e-01" purity="6.8173831701278687e-01" nType="-99"/>
            </Node>
          </Node>
        </Node>
        <Node pos="r" depth="1" NCoef="0" IVar="6" Cut="6.5461647510528564e-01" cType="1" res="0.0000000000000000e+00" rms="0.0000000000000000e+00" purity="2.2176556289196014e-01" nType="0">
          <Node pos="l" depth="2" NCoef="0" IVar="-1" Cut="0.0000000000000000e+00" cType="1" res="-1.9985327497124672e-02" rms="3.9944618940353394e-01" purity="2.8588074445724487e-01" nType="-99"/>
          <Node pos="r" depth="2" NCoef="0" IVar="-1" Cut="0.0000000000000000e+00" cType="1" res="-4.0229383856058121e-02" rms="3.0641436576843262e-01" purity="1.4989617466926575e-01" nType="-99"/>
        </Node>
      </Node>
    </BinaryTree>
    <BinaryTree type="DecisionTree" boostWeight="1.0000000000000000e+00" itree="13">
      <Node pos="s" depth="0" NCoef="0" IVar="7" Cut="2.8350387573242188e+02" cType="1" res="-5.1703662611544132e-03" rms="4.4804787635803223e-01" purity="4.9282076954841614e-01" nType="0">
        <Node pos="l" depth="1" NCoef="0" IVar="7" Cut="1.6428326416015625e+02" cType="1" res="0.0000000000000000e+00" rms="0.0000000000000000e+00" purity="4.1111770272254944e-01" nType="0">
          <Node pos="l" depth="2" NCoef="0" IVar="0" Cut="2.4574215625000000e+05" cType="1" res="-8.1215247511863708e-02" rms="4.2626973986625671e-01" purity="2.9739886522293091e-01" nType="0">
            <Node pos="l" depth="3" NCoef="0" IVar="-1" Cut="0.0000000000000000e+00" cType="1" res="-5.0215139053761959e-03" rms="4.8845338821411133e-01" purity="4.2118358612060547e-01" nType="-99"/>
            <Node pos="r" depth="3" NCoef="0" IVar="-1" Cut="0.0000000000000000e+00" cType="1" res="-4.1064616292715073e-02" rms="3.1101474165916443e-01" purity="1.2164267152547836e-01" nType="-99"/>
          </Node>
          <Node pos="r" depth="2" NCoef="0" IVar="8" Cut="2.9858894348144531e+00" cType="1" res="-1.1110338382422924e-02" rms="4.5807248353958130e-01" purity="4.8860087990760803e-01" nType="0">
            <Node pos="l" depth="3" NCoef="0" IVar="-1" Cut="0.0000000000000000e+00" cType="1" res="-1.6196433454751968e-02" rms="4.5923501253128052e-01" purity="4.0212857723236084e-01" nType="-99"/>
            <Node pos="r" depth="3" NCoef="0" IVar="-1" Cut="0.0000000000000000e+00" cType="1" res="1.5909353271126747e-02" rms="4.4651836156845093e-01" purity="5.8232659101486206e-01" nType="-99"/>
          </Node>
        </Node>
        <Node pos="r" depth="1" NCoef="0" IVar="6" Cut="6.2442827224731445e-01" cType="1" res="5.2340473979711533e-02" rms="4.4424602389335632e-01" purity="6.2961506843566895e-01" nType="0">
          <Node pos="l" depth="2" NCoef="0" IVar="9" Cut="4.0000000000000000e+00" cType="1" res="1.0911747813224792e-03" rms="4.7335606813430786e-01" purity="5.3561717271804810e-01" nType="0">
            <Node pos="l" depth="3" NCoef="0" IVar="-1" Cut="0.0000000000000000e+00" cType="1" res="-1.1024352163076401e-02" rms="4.7709721326828003e-01" purity="4.8176711797714233e-01" nType="-99"/>
            <Node pos="r" depth="3" NCoef="0" IVar="-1" Cut="0.0000000000000000e+00" cType="1" res="1.1022166348993778e-02" rms="4.6323719620704651e-01" purity="5.9347105026245117e-01" nType="-99"/>
          </Node>
          <Node pos="r" depth="2" NCoef="0" IVar="-1" Cut="0.0000000000000000e+00" cType="1" res="3.1065326184034348e-02" rms="3.8377091288566589e-01" purity="7.7101039886474609e-01" nType="-99"/>
        </Node>
      </Node>
    </BinaryTree>
    <BinaryTree type="DecisionTree" boostWeight="1.0000000000000000e+00" itree="14">
      <Node pos="s" depth="0" NCoef="0" IVar="9" Cut="3.0000000000000000e+00" cType="1" res="6.9419969804584980e-04" rms="4.4342061877250671e-01" purity="4.9376311898231506e-01" nType="0">
        <Node pos="l" depth="1" NCoef="0" IVar="0" Cut="2.1831650000000000e+05" cType="1" res="-4.7386184334754944e-02" rms="4.4226992130279541e-01" purity="4.0844020247459412e-01" nType="0">
          <Node pos="l" depth="2" NCoef="0" IVar="6" Cut="6.5170049667358398e-01" cType="1" res="1.4771074056625366e-02" rms="4.7709614038467407e-01" purity="5.3843241930007935e-01" nType="0">
            <Node pos="l" depth="3" NCoef="0" IVar="-1" Cut="0.0000000000000000e+00" cType="1" res="-1.1161518283188343e-02" rms="4.8410063982009888e-01" purity="4.4164019823074341e-01" nType="-99"/>
            <Node pos="r" depth="3" NCoef="0" IVar="-1" Cut="0.0000000000000000e+00" cType="1" res="1.4388929121196270e-02" rms="4.6655502915382385e-01" purity="5.9375339746475220e-01" nType="-99"/>
          </Node>
          <Node pos="r" depth="2" NCoef="0" IVar="-1" Cut="0.0000000000000000e+00" cType="1" res="-5.4253898561000824e-02" rms="3.4311297535896301e-01" purity="1.7244245111942291e-01" nType="-99"/>
        </Node>
        <Node pos="r" depth="1" NCoef="0" IVar="2" Cut="1.1508514881134033e+00" cType="1" res="4.2439509183168411e-02" rms="4.4017830491065979e-01" purity="5.6784391403198242e-01" nType="0">
          <Node pos="l" depth="2" NCoef="0" IVar="-1" Cut="0.0000000000000000e+00" cType="1" res="-1.3244433328509331e-02" rms="4.1258180141448975e-01" purity="3.5881531238555908e-01" nType="-99"/>
          <Node pos="r" depth="2" NCoef="0" IVar="9" Cut="4.0000000000000000e+00" cType="1" res="7.1968041360378265e-02" rms="4.4518285989761353e-01" purity="6.3810729980468750e-01" nType="0">
            <Node pos="l" depth="3" NCoef="0" IVar="4" Cut="5.5871042968750000e+04" cType="1" res="4.4987190514802933e-02" rms="4.5119446516036987e-01" purity="6.0365551710128784e-01" nType="0">
              <Node pos="l" depth="4" NCoef="0" IVar="-1" Cut="0.0000000000000000e+00" cType="1" res="1.0646400041878223e-03" rms="4.6274802088737488e-01" purity="5.1778376102447510e-01" nType="-99"/>
              <Node pos="r" depth="4" NCoef="0" IVar="-1" Cut="0.0000000000000000e+00" cType="1" res="1.9453287124633789e-02" rms="4.3851372599601746e-01" purity="6.7440575361251831e-01" nType="-99"/>
            </Node>
            <Node pos="r" depth="3" NCoef="0" IVar="-1" Cut="0.0000000000000000e+00" cType="1" res="2.8614955022931099e-02" rms="4.3254137039184570e-01" purity="6.9125002622604370e-01" nType="-99"/>
          </Node>
        </Node>
      </Node>
    </BinaryTree>
    <BinaryTree type="DecisionTree" boostWeight="1.0000000000000000e+00" itree="15">
      <Node pos="s" depth="0" NCoef="0" IVar="0" Cut="2.7323106250000000e+05" cType="1" res="3.7376144900918007e-03" rms="4.4238033890724182e-01" purity="4.9874642491340637e-01" nType="0">
        <Node pos="l" depth="1" NCoef="0" IVar="4" Cut="7.7110132812500000e+04" cType="1" res="2.9974501579999924e-02" rms="4.6028870344161987e-01" purity="5.8052349090576172e-01" nType="0">
          <Node pos="l" depth="2" NCoef="0" IVar="0" Cut="2.1482146875000000e+05" cType="1" res="2.0543606951832771e-03" rms="4.6542885899543762e-01" purity="5.3874236345291138e-01" nType="0">
            <Node pos="l" depth="3" NCoef="0" IVar="6" Cut="5.9580695629119873e-01" cType="1" res="2.4705292657017708e-02" rms="4.6967661380767822e-01" purity="5.7232838869094849e-01" nType="0">
              <Node pos="l" depth="4" NCoef="0" IVar="-1" Cut="0.0000000000000000e+00" cType="1" res="-1.2901698239147663e-02" rms="4.7716397047042847e-01" purity="4.6203127503395081e-01" nType="-99"/>
              <Node pos="r" depth="4" NCoef="0" IVar="-1" Cut="0.0000000000000000e+00" cType="1" res="1.2996360659599304e-02" rms="4.6274480223655701e-01" purity="6.1582672595977783e-01" nType="-99"/>
            </Node>
            <Node pos="r" depth="3" NCoef="0" IVar="-1" Cut="0.0000000000000000e+00" cType="1" res="-2.6750763878226280e-02" rms="4.3812006711959839e-01" purity="4.1022577881813049e-01" nType="-99"/>
          </Node>
          <Node pos="r" depth="2" NCoef="0" IVar="-1" Cut="0.0000000000000000e+00" cType="1" res="2.3593995720148087e-02" rms="4.3842145800590515e-01" purity="6.8908548355102539e-01" nType="-99"/>
        </Node>
        <Node pos="r" depth="1" NCoef="0" IVar="3" Cut="8.0746875000000000e+04" cType="1" res="-8.4285020828247070e-02" rms="3.6250454187393188e-01" purity="2.2439102828502655e-01" nType="0">
          <Node pos="l" depth="2" NCoef="0" IVar="-1" Cut="0.0000000000000000e+00" cType="1" res="-5.2065361291170120e-02" rms="2.7906578779220581e-01" purity="1.0261990875005722e-01" nType="-99"/>
          <Node pos="r" depth="2" NCoef="0" IVar="-1" Cut="0.0000000000000000e+00" cType="1" res="-3.6788622383028269e-03" rms="4.2042198777198792e-01" purity="3.4918525815010071e-01" nType="-99"/>
        </Node>
      </Node>
    </BinaryTree>
    <BinaryTree type="DecisionTree" boostWeight="1.0000000000000000e+00" itree="16">
      <Node pos="s" depth="0" NCoef="0" IVar="2" Cut="1.2194342613220215e+00" cType="1" res="0.0000000000000000e+00" rms="0.0000000000000000e+00" purity="5.0113135576248169e-01" nType="0">
        <Node pos="l" depth="1" NCoef="0" IVar="7" Cut="2.1579362487792969e+02" cType="1" res="-6.9742977619171143e-02" rms="3.9669016003608704e-01" purity="3.0397135019302368e-01" nType="0">
          <Node pos="l" depth="2" NCoef="0" IVar="-1" Cut="0.0000000000000000e+00" cType="1" res="-5.0071202218532562e-02" rms="3.2663008570671082e-01" purity="1.4489625394344330e-01" nType="-99"/>
          <Node pos="r" depth="2" NCoef="0" IVar="-1" Cut="0.0000000000000000e+00" cType="1" res="-6.0283364728093147e-03" rms="4.3811622262001038e-01" purity="4.2796489596366882e-01" nType="-99"/>
        </Node>
        <Node pos="r" depth="1" NCoef="0" IVar="9" Cut="4.0000000000000000e+00" cType="1" res="3.3635493367910385e-02" rms="4.5389336347579956e-01" purity="5.7784634828567505e-01" nType="0">
          <Node pos="l" depth="2" NCoef="0" IVar="1" Cut="2.2437841892242432e+00" cType="1" res="1.5109052881598473e-02" rms="4.5751717686653137e-01" purity="5.4430925846099854e-01" nType="0">
            <Node pos="l" depth="3" NCoef="0" IVar="6" Cut="5.9799921512603760e-01" cType="1" res="-8.2441307604312897e-03" rms="4.5845341682434082e-01" purity="5.1739299297332764e-01" nType="0">
              <Node pos="l" depth="4" NCoef="0" IVar="-1" Cut="0.0000000000000000e+00" cType="1" res="-1.6655120998620987e-02" rms="4.7651916742324829e-01" purity="4.2499297857284546e-01" nType="-99"/>
              <Node pos="r" depth="4" NCoef="0" IVar="-1" Cut="0.0000000000000000e+00" cType="1" res="4.8992144875228405e-03" rms="4.4815957546234131e-01" purity="5.5488336086273193e-01" nType="-99"/>
            </Node>
            <Node pos="r" depth="3" NCoef="0" IVar="-1" Cut="0.0000000000000000e+00" cType="1" res="2.2141762077808380e-02" rms="4.4738611578941345e-01" purity="6.2534809112548828e-01" nType="-99"/>
          </Node>
          <Node pos="r" depth="2" NCoef="0" IVar="-1" Cut="0.0000000000000000e+00" cType="1" res="2.0540922880172729e-02" rms="4.3624004721641541e-01" purity="6.8829607963562012e-01" nType="-99"/>
        </Node>
      </Node>
    </BinaryTree>
    <BinaryTree type="DecisionTree" boostWeight="1.0000000000000000e+00" itree="17">
      <Node pos="s" depth="0" NCoef="0" IVar="4" Cut="8.6016859375000000e+04" cType="1" res="6.2668584287166595e-03" rms="4.4108554720878601e-01" purity="5.0155174732208252e-01" nType="0">
        <Node pos="l" depth="1" NCoef="0" IVar="3" Cut="5.2803484375000000e+04" cType="1" res="-1.4784174039959908e-02" rms="4.4032657146453857e-01" purity="4.6575552225112915e-01" nType="0">
          <Node pos="l" depth="2" NCoef="0" IVar="-1" Cut="0.0000000000000000e+00" cType="1" res="-2.7877030894160271e-02" rms="4.0995532274246216e-01" purity="2.9366239905357361e-01" nType="-99"/>
          <Node pos="r" depth="2" NCoef="0" IVar="6" Cut="5.9738451242446899e-01" cType="1" res="3.5428174305707216e-03" rms="4.4498771429061890e-01" purity="5.0524753332138062e-01" nType="0">
            <Node pos="l" depth="3" NCoef="0" IVar="7" Cut="2.8500323486328125e+02" cType="1" res="-6.0822650790214539e-02" rms="4.5766976475715637e-01" purity="4.0488395094871521e-01" nType="0">
              <Node pos="l" depth="4" NCoef="0" IVar="-1" Cut="0.0000000000000000e+00" cType="1" res="-1.8885673955082893e-02" rms="4.4628077745437622e-01" purity="3.5434827208518982e-01" nType="-99"/>
              <Node pos="r" depth="4" NCoef="0" IVar="-1" Cut="0.0000000000000000e+00" cType="1" res="-9.2221312224864960e-03" rms="4.6967726945877075e-01" purity="4.6170639991760254e-01" nType="-99"/>
            </Node>
            <Node pos="r" depth="3" NCoef="0" IVar="7" Cut="2.6353890991210938e+02" cType="1" res="3.7805229425430298e-02" rms="4.3421331048011780e-01" purity="5.5867207050323486e-01" nType="0">
              <Node pos="l" depth="4" NCoef="0" IVar="-1" Cut="0.0000000000000000e+00" cType="1" res="4.9628573469817638e-04" rms="4.4776627421379089e-01" purity="4.6264326572418213e-01" nType="-99"/>
              <Node pos="r" depth="4" NCoef="0" IVar="-1" Cut="0.0000000000000000e+00" cType="1" res="2.9198862612247467e-02" rms="3.9652359485626221e-01" purity="7.5133275985717773e-01" nType="-99"/>
            </Node>
          </Node>
        </Node>
        <Node pos="r" depth="1" NCoef="0" IVar="-1" Cut="0.0000000000000000e+00" cType="1" res="2.5227945297956467e-02" rms="4.3243756890296936e-01" purity="6.5874797105789185e-01" nType="-99"/>
      </Node>
    </BinaryTree>
    <BinaryTree type="DecisionTree" boostWeight="1.0000000000000000e+00" itree="18">
      <Node pos="s" depth="0" NCoef="0" IVar="0" Cut="3.0076384375000000e+05" cType="1" res="8.2895904779434204e-03" rms="4.3898949027061462e-01" purity="5.0135111808776855e-01" nType="0">
        <Node pos="l" depth="1" NCoef="0" IVar="6" Cut="5.1327502727508545e-01" cType="1" res="2.9511295258998871e-02" rms="4.5564147830009460e-01" purity="5.7153677940368652e-01" nType="0">
          <Node pos="l" depth="2" NCoef="0" IVar="-1" Cut="0.0000000000000000e+00" cType="1" res="-1.2543093413114548e-02" rms="4.8234456777572632e-01" purity="4.1322812438011169e-01" nType="-99"/>
          <Node pos="r" depth="2" NCoef="0" IVar="4" Cut="5.9544472656250000e+04" cType="1" res="4.7143355011940002e-02" rms="4.4825831055641174e-01" purity="6.0130101442337036e-01" nType="0">
            <Node pos="l" depth="3" NCoef="0" IVar="2" Cut="1.7408767938613892e+00" cType="1" res="1.1613444425165653e-02" rms="4.5801103115081787e-01" purity="5.1717507839202881e-01" nType="0">
              <Node pos="l" depth="4" NCoef="0" IVar="-1" Cut="0.0000000000000000e+00" cType="1" res="-1.7299102619290352e-02" rms="4.3624305725097656e-01" purity="3.8075691461563110e-01" nType="-99"/>
              <Node pos="r" depth="4" NCoef="0" IVar="-1" Cut="0.0000000000000000e+00" cType="1" res="1.3944577425718307e-02" rms="4.6653544902801514e-01" purity="6.1000591516494751e-01" nType="-99"/>
            </Node>
            <Node pos="r" depth="3" NCoef="0" IVar="6" Cut="6.0093581676483154e-01" cType="1" res="9.0254329144954681e-02" rms="4.3222758173942566e-01" purity="7.0337694883346558e-01" nType="0">
              <Node pos="l" depth="4" NCoef="0" IVar="-1" Cut="0.0000000000000000e+00" cType="1" res="1.1893793009221554e-02" rms="4.6247690916061401e-01" purity="6.3484781980514526e-01" nType="-99"/>
              <Node pos="r" depth="4" NCoef="0" IVar="-1" Cut="0.0000000000000000e+00" cType="1" res="2.4288240820169449e-02" rms="4.1138994693756104e-01" purity="7.4427998065948486e-01" nType="-99"/>
            </Node>
          </Node>
        </Node>
        <Node pos="r" depth="1" NCoef="0" IVar="-1" Cut="0.0000000000000000e+00" cType="1" res="-2.6745459064841270e-02" rms="3.3328509330749512e-01" purity="1.7309257388114929e-01" nType="-99"/>
      </Node>
    </BinaryTree>
    <BinaryTree type="DecisionTree" boostWeight="1.0000000000000000e+00" itree="19">
      <Node pos="s" depth="0" NCoef="0" IVar="7" Cut="3.3102188110351562e+02" cType="1" res="1.3967821141704917e-03" rms="4.4009822607040405e-01" purity="5.0160998106002808e-01" nType="0">
        <Node pos="l" depth="1" NCoef="0" IVar="0" Cut="2.6043187500000000e+05" cType="1" res="-1.8972912803292274e-02" rms="4.4149833917617798e-01" purity="4.4506570696830750e-01" nType="0">
          <Node pos="l" depth="2" NCoef="0" IVar="6" Cut="5.6938022375106812e-01" cType="1" res="5.1578027196228504e-03" rms="4.6917361021041870e-01" purity="5.4083710908889771e-01" nType="0">
            <Node pos="l" depth="3" NCoef="0" IVar="-1" Cut="0.0000000000000000e+00" cType="1" res="-1.5545719303190708e-02" rms="4.7501781582832336e-01" purity="4.3207138776779175e-01" nType="-99"/>
            <Node pos="r" depth="3" NCoef="0" IVar="0" Cut="1.7346006250000000e+05" cType="1" res="2.3777399212121964e-02" rms="4.6583935618400574e-01" purity="5.6971704959869385e-01" nType="0">
              <Node pos="l" depth="4" NCoef="0" IVar="-1" Cut="0.0000000000000000e+00" cType="1" res="1.0718993842601776e-02" rms="4.6403449773788452e-01" purity="6.3330262899398804e-01" nType="-99"/>
              <Node pos="r" depth="4" NCoef="0" IVar="-1" Cut="0.0000000000000000e+00" cType="1" res="-6.5015736036002636e-03" rms="4.6350818872451782e-01" purity="4.9609634280204773e-01" nType="-99"/>
            </Node>
          </Node>
          <Node pos="r" depth="2" NCoef="0" IVar="-1" Cut="0.0000000000000000e+00" cType="1" res="-3.0484363436698914e-02" rms="3.4286975860595703e-01" purity="1.7493857443332672e-01" nType="-99"/>
        </Node>
        <Node pos="r" depth="1" NCoef="0" IVar="6" Cut="5.9055250883102417e-01" cType="1" res="5.7338140904903412e-02" rms="4.3130928277969360e-01" purity="6.5689778327941895e-01" nType="0">
          <Node pos="l" depth="2" NCoef="0" IVar="-1" Cut="0.0000000000000000e+00" cType="1" res="2.4045482277870178e-03" rms="4.7064909338951111e-01" purity="5.3198069334030151e-01" nType="-99"/>
          <Node pos="r" depth="2" NCoef="0" IVar="-1" Cut="0.0000000000000000e+00" cType="1" res="3.0015597119927406e-02" rms="3.7574955821037292e-01" purity="7.9738277196884155e-01" nType="-99"/>
        </Node>
      </Node>
    </BinaryTree>
    <BinaryTree type="DecisionTree" boostWeight="1.0000000000000000e+00" itree="20">
      <Node pos="s" depth="0" NCoef="0" IVar="4" Cut="9.4402718750000000e+04" cType="1" res="-1.1314068920910358e-02" rms="4.3803259730339050e-01" purity="4.8685413599014282e-01" nType="0">
        <Node pos="l" depth="1" NCoef="0" IVar="6" Cut="5.9799921512603760e-01" cType="1" res="-2.5825943797826767e-02" rms="4.3673187494277954e-01" purity="4.6123448014259338e-01" nType="0">
          <Node pos="l" depth="2" NCoef="0" IVar="6" Cut="5.0373822450637817e-01" cType="1" res="-7.8180700540542603e-02" rms="4.5427545905113220e-01" purity="3.8128328323364258e-01" nType="0">
            <Node pos="l" depth="3" NCoef="0" IVar="-1" Cut="0.0000000000000000e+00" cType="1" res="-2.1091656759381294e-02" rms="4.4566157460212708e-01" purity="3.0432325601577759e-01" nType="-99"/>
            <Node pos="r" depth="3" NCoef="0" IVar="-1" Cut="0.0000000000000000e+00" cType="1" res="-1.4420079067349434e-02" rms="4.5771792531013489e-01" purity="4.2896491289138794e-01" nType="-99"/>
          </Node>
          <Node pos="r" depth="2" NCoef="0" IVar="7" Cut="1.5115577697753906e+02" cType="1" res="-2.7553124818950891e-03" rms="4.2673933506011963e-01" purity="4.9646574258804321e-01" nType="0">
            <Node pos="l" depth="3" NCoef="0" IVar="-1" Cut="0.0000000000000000e+00" cType="1" res="-1.5347728505730629e-02" rms="3.8881275057792664e-01" purity="2.4800787866115570e-01" nType="-99"/>
            <Node pos="r" depth="3" NCoef="0" IVar="4" Cut="6.4739015625000000e+04" cType="1" res="2.9349682852625847e-02" rms="4.3550178408622742e-01" purity="5.8792614936828613e-01" nType="0">
              <Node pos="l" depth="4" NCoef="0" IVar="-1" Cut="0.0000000000000000e+00" cType="1" res="1.3147180434316397e-03" rms="4.4622594118118286e-01" purity="5.2847278118133545e-01" nType="-99"/>
              <Node pos="r" depth="4" NCoef="0" IVar="-1" Cut="0.0000000000000000e+00" cType="1" res="2.4732958525419235e-02" rms="3.9758512377738953e-01" purity="7.4937176704406738e-01" nType="-99"/>
            </Node>
          </Node>
        </Node>
        <Node pos="r" depth="1" NCoef="0" IVar="-1" Cut="0.0000000000000000e+00" cType="1" res="1.9833404570817947e-02" rms="4.3518337607383728e-01" purity="6.4782691001892090e-01" nType="-99"/>
      </Node>
    </BinaryTree>
    <BinaryTree type="DecisionTree" boostWeight="1.0000000000000000e+00" itree="21">
      <Node pos="s" depth="0" NCoef="0" IVar="9" Cut="3.0000000000000000e+00" cType="1" res="1.6098530031740665e-03" rms="4.3690484762191772e-01" purity="4.9512821435928345e-01" nType="0">
        <Node pos="l" depth="1" NCoef="0" IVar="0" Cut="2.6043187500000000e+05" cType="1" res="-2.9107004404067993e-02" rms="4.3547645211219788e-01" purity="4.2254769802093506e-01" nType="0">
          <Node pos="l" depth="2" NCoef="0" IVar="7" Cut="1.7536997985839844e+02" cType="1" res="0.0000000000000000e+00" rms="0.0000000000000000e+00" purity="5.1587677001953125e-01" nType="0">
            <Node pos="l" depth="3" NCoef="0" IVar="-1" Cut="0.0000000000000000e+00" cType="1" res="-9.9001899361610413e-03" rms="4.6570941805839539e-01" purity="4.0275987982749939e-01" nType="-99"/>
            <Node pos="r" depth="3" NCoef="0" IVar="8" Cut="2.9431412220001221e+00" cType="1" res="2.1625056862831116e-02" rms="4.6564072370529175e-01" purity="5.9112340211868286e-01" nType="0">
              <Node pos="l" depth="4" NCoef="0" IVar="-1" Cut="0.0000000000000000e+00" cType="1" res="-8.7544188136234879e-04" rms="4.8056560754776001e-01" purity="5.1744699478149414e-01" nType="-99"/>
              <Node pos="r" depth="4" NCoef="0" IVar="-1" Cut="0.0000000000000000e+00" cType="1" res="1.3537429273128510e-02" rms="4.4796261191368103e-01" purity="6.6815721988677979e-01" nType="-99"/>
            </Node>
          </Node>
          <Node pos="r" depth="2" NCoef="0" IVar="-1" Cut="0.0000000000000000e+00" cType="1" res="-4.1589070111513138e-02" rms="3.0171576142311096e-01" purity="1.2145393341779709e-01" nType="-99"/>
        </Node>
        <Node pos="r" depth="1" NCoef="0" IVar="2" Cut="1.2599126100540161e+00" cType="1" res="2.7269586920738220e-02" rms="4.3645033240318298e-01" purity="5.5580466985702515e-01" nType="0">
          <Node pos="l" depth="2" NCoef="0" IVar="-1" Cut="0.0000000000000000e+00" cType="1" res="-8.2853212952613831e-03" rms="4.1431373357772827e-01" purity="3.6780112981796265e-01" nType="-99"/>
          <Node pos="r" depth="2" NCoef="0" IVar="5" Cut="1.8447270202636719e+02" cType="1" res="4.9429085105657578e-02" rms="4.4272342324256897e-01" purity="6.2844842672348022e-01" nType="0">
            <Node pos="l" depth="3" NCoef="0" IVar="5" Cut="1.6399661254882812e+02" cType="1" res="8.9363008737564087e-02" rms="4.2759805917739868e-01" purity="6.8748545646667480e-01" nType="0">
              <Node pos="l" depth="4" NCoef="0" IVar="-1" Cut="0.0000000000000000e+00" cType="1" res="1.8617667257785797e-02" rms="4.3326106667518616e-01" purity="6.7175871133804321e-01" nType="-99"/>
              <Node pos="r" depth="4" NCoef="0" IVar="-1" Cut="0.0000000000000000e+00" cType="1" res="2.7824301272630692e-02" rms="4.2156657576560974e-01" purity="7.0301383733749390e-01" nType="-99"/>
            </Node>
            <Node pos="r" depth="3" NCoef="0" IVar="-1" Cut="0.0000000000000000e+00" cType="1" res="-3.3455019001848996e-04" rms="4.5627918839454651e-01" purity="5.5295288562774658e-01" nType="-99"/>
          </Node>
        </Node>
      </Node>
    </BinaryTree>
    <BinaryTree type="DecisionTree" boostWeight="1.0000000000000000e+00" itree="22">
      <Node pos="s" depth="0" NCoef="0" IVar="9" Cut="3.0000000000000000e+00" cType="1" res="9.6835279837250710e-03" rms="4.3656653165817261e-01" purity="5.0744271278381348e-01" nType="0">
        <Node pos="l" depth="1" NCoef="0" IVar="1" Cut="-2.2436401844024658e+00" cType="1" res="-3.0859731137752533e-02" rms="4.3587371706962585e-01" purity="4.2066785693168640e-01" nType="0">
          <Node pos="l" depth="2" NCoef="0" IVar="-1" Cut="0.0000000000000000e+00" cType="1" res="4.7973114997148514e-03" rms="4.4127365946769714e-01" purity="5.0613272190093994e-01" nType="-99"/>
          <Node pos="r" depth="2" NCoef="0" IVar="1" Cut="8.3225739002227783e-01" cType="1" res="-4.9630634486675262e-02" rms="4.3244659900665283e-01" purity="3.9289358258247375e-01" nType="0">
            <Node pos="l" depth="3" NCoef="0" IVar="-1" Cut="0.0000000000000000e+00" cType="1" res="-3.0859084799885750e-02" rms="4.0995696187019348e-01" purity="2.9749402403831482e-01" nType="-99"/>
            <Node pos="r" depth="3" NCoef="0" IVar="2" Cut="1.9386777877807617e+00" cType="1" res="-6.2186312861740589e-03" rms="4.4110304117202759e-01" purity="4.5503112673759460e-01" nType="0">
              <Node pos="l" depth="4" NCoef="0" IVar="-1" Cut="0.0000000000000000e+00" cType="1" res="-1.0199373355135322e-03" rms="4.3137642741203308e-01" purity="4.0820324420928955e-01" nType="-99"/>
              <Node pos="r" depth="4" NCoef="0" IVar="-1" Cut="0.0000000000000000e+00" cType="1" res="-2.2850246168673038e-03" rms="4.4993287324905396e-01" purity="4.9854135513305664e-01" nType="-99"/>
            </Node>
          </Node>
        </Node>
        <Node pos="r" depth="1" NCoef="0" IVar="8" Cut="2.9959723949432373e+00" cType="1" res="0.0000000000000000e+00" rms="0.0000000000000000e+00" purity="5.7990956306457520e-01" nType="0">
          <Node pos="l" depth="2" NCoef="0" IVar="2" Cut="1.7048808336257935e+00" cType="1" res="2.3522337898612022e-02" rms="4.4913402199745178e-01" purity="5.2991551160812378e-01" nType="0">
            <Node pos="l" depth="3" NCoef="0" IVar="-1" Cut="0.0000000000000000e+00" cType="1" res="-5.6803850457072258e-03" rms="4.3741637468338013e-01" purity="4.0712413191795349e-01" nType="-99"/>
            <Node pos="r" depth="3" NCoef="0" IVar="-1" Cut="0.0000000000000000e+00" cType="1" res="1.5834873542189598e-02" rms="4.5464751124382019e-01" purity="6.2262612581253052e-01" nType="-99"/>
          </Node>
          <Node pos="r" depth="2" NCoef="0" IVar="5" Cut="1.9249943542480469e+02" cType="1" res="6.2230668962001801e-02" rms="4.1902115941047668e-01" purity="6.2661546468734741e-01" nType="0">
            <Node pos="l" depth="3" NCoef="0" IVar="-1" Cut="0.0000000000000000e+00" cType="1" res="2.6036765426397324e-02" rms="4.1100788116455078e-01" purity="6.7944234609603882e-01" nType="-99"/>
            <Node pos="r" depth="3" NCoef="0" IVar="-1" Cut="0.0000000000000000e+00" cType="1" res="1.0282627772539854e-03" rms="4.2616409063339233e-01" purity="5.3536629676818848e-01" nType="-99"/>
          </Node>
        </Node>
      </Node>
    </BinaryTree>
    <BinaryTree type="DecisionTree" boostWeight="1.0000000000000000e+00" itree="23">
      <Node pos="s" depth="0" NCoef="0" IVar="6" Cut="4.8511323332786560e-01" cType="1" res="1.0374623816460371e-03" rms="4.3813630938529968e-01" purity="4.9797487258911133e-01" nType="0">
        <Node pos="l" depth="1" NCoef="0" IVar="-1" Cut="0.0000000000000000e+00" cType="1" res="-2.0279044285416603e-02" rms="4.5959880948066711e-01" purity="3.4985050559043884e-01" nType="-99"/>
        <Node pos="r" depth="1" NCoef="0" IVar="7" Cut="2.9618682861328125e+02" cType="1" res="0.0000000000000000e+00" rms="0.0000000000000000e+00" purity="5.1536738872528076e-01" nType="0">
          <Node pos="l" depth="2" NCoef="0" IVar="0" Cut="2.6042134375000000e+05" cType="1" res="-1.4600592665374279e-02" rms="4.3685361742973328e-01" purity="4.3077981472015381e-01" nType="0">
            <Node pos="l" depth="3" NCoef="0" IVar="1" Cut="2.2406926155090332e+00" cType="1" res="5.5822259746491909e-03" rms="4.6839892864227295e-01" purity="5.3273278474807739e-01" nType="0">
              <Node pos="l" depth="4" NCoef="0" IVar="-1" Cut="0.0000000000000000e+00" cType="1" res="-3.3109076321125031e-03" rms="4.6945819258689880e-01" purity="5.0682395696640015e-01" nType="-99"/>
              <Node pos="r" depth="4" NCoef="0" IVar="-1" Cut="0.0000000000000000e+00" cType="1" res="1.8269870430231094e-02" rms="4.5973199605941772e-01" purity="6.1259943246841431e-01" nType="-99"/>
            </Node>
            <Node pos="r" depth="3" NCoef="0" IVar="-1" Cut="0.0000000000000000e+00" cType="1" res="-2.5527704507112503e-02" rms="3.3406388759613037e-01" purity="1.6182440519332886e-01" nType="-99"/>
          </Node>
          <Node pos="r" depth="2" NCoef="0" IVar="8" Cut="2.9192643165588379e+00" cType="1" res="6.8295866250991821e-02" rms="4.2337539792060852e-01" purity="7.0102244615554810e-01" nType="0">
            <Node pos="l" depth="3" NCoef="0" IVar="-1" Cut="0.0000000000000000e+00" cType="1" res="7.1248556487262249e-03" rms="4.6144160628318787e-01" purity="5.8305352926254272e-01" nType="-99"/>
            <Node pos="r" depth="3" NCoef="0" IVar="-1" Cut="0.0000000000000000e+00" cType="1" res="2.3658627644181252e-02" rms="3.9430549740791321e-01" purity="7.7839088439941406e-01" nType="-99"/>
          </Node>
        </Node>
      </Node>
    </BinaryTree>
    <BinaryTree type="DecisionTree" boostWeight="1.0000000000000000e+00" itree="24">
      <Node pos="s" depth="0" NCoef="0" IVar="0" Cut="3.6248390625000000e+05" cType="1" res="-6.7994319833815098e-03" rms="4.3196457624435425e-01" purity="4.8669481277465820e-01" nType="0">
        <Node pos="l" depth="1" NCoef="0" IVar="6" Cut="5.4147928953170776e-01" cType="1" res="5.7509597390890121e-03" rms="4.4535335898399353e-01" purity="5.3165179491043091e-01" nType="0">
          <Node pos="l" depth="2" NCoef="0" IVar="-1" Cut="0.0000000000000000e+00" cType="1" res="-1.0986176319420338e-02" rms="4.7391211986541748e-01" purity="4.1837379336357117e-01" nType="-99"/>
          <Node pos="r" depth="2" NCoef="0" IVar="0" Cut="2.3545040625000000e+05" cType="1" res="2.2124523296952248e-02" rms="4.3554109334945679e-01" purity="5.6370210647583008e-01" nType="0">
            <Node pos="l" depth="3" NCoef="0" IVar="9" Cut="3.0000000000000000e+00" cType="1" res="1.8082566559314728e-02" rms="2.8831672668457031e-01" purity="6.4108419418334961e-01" nType="0">
              <Node pos="l" depth="4" NCoef="0" IVar="-1" Cut="0.0000000000000000e+00" cType="1" res="3.5334296990185976e-03" rms="4.6959632635116577e-01" purity="5.5844950675964355e-01" nType="-99"/>
              <Node pos="r" depth="4" NCoef="0" IVar="-1" Cut="0.0000000000000000e+00" cType="1" res="2.1433152258396149e-02" rms="4.2283847928047180e-01" purity="7.2641998529434204e-01" nType="-99"/>
            </Node>
            <Node pos="r" depth="3" NCoef="0" IVar="-1" Cut="0.0000000000000000e+00" cType="1" res="-1.5810992568731308e-02" rms="3.8685029745101929e-01" purity="3.3355656266212463e-01" nType="-99"/>
          </Node>
        </Node>
        <Node pos="r" depth="1" NCoef="0" IVar="-1" Cut="0.0000000000000000e+00" cType="1" res="-4.9651321023702621e-02" rms="2.6415154337882996e-01" purity="9.1481737792491913e-02" nType="-99"/>
      </Node>
    </BinaryTree>
    <BinaryTree type="DecisionTree" boostWeight="1.0000000000000000e+00" itree="25">
      <Node pos="s" depth="0" NCoef="0" IVar="6" Cut="4.8503831028938293e-01" cType="1" res="3.1608981080353260e-03" rms="4.3501269817352295e-01" purity="4.9749425053596497e-01" nType="0">
        <Node pos="l" depth="1" NCoef="0" IVar="-1" Cut="0.0000000000000000e+00" cType="1" res="-1.9287366420030594e-02" rms="4.5002749562263489e-01" purity="3.2910898327827454e-01" nType="-99"/>
        <Node pos="r" depth="1" NCoef="0" IVar="7" Cut="3.7617788696289062e+02" cType="1" res="1.4050333760678768e-02" rms="4.3189048767089844e-01" purity="5.1787304878234863e-01" nType="0">
          <Node pos="l" depth="2" NCoef="0" IVar="2" Cut="1.3974843025207520e+00" cType="1" res="1.5635447343811393e-03" rms="4.3459838628768921e-01" purity="4.7935953736305237e-01" nType="0">
            <Node pos="l" depth="3" NCoef="0" IVar="0" Cut="2.4429317187500000e+05" cType="1" res="-4.0617089718580246e-02" rms="3.9880770444869995e-01" purity="3.0855730175971985e-01" nType="0">
              <Node pos="l" depth="4" NCoef="0" IVar="-1" Cut="0.0000000000000000e+00" cType="1" res="-9.2646584380418062e-04" rms="4.6416354179382324e-01" purity="4.6264967322349548e-01" nType="-99"/>
              <Node pos="r" depth="4" NCoef="0" IVar="-1" Cut="0.0000000000000000e+00" cType="1" res="-4.6285655349493027e-02" rms="2.7966231107711792e-01" purity="9.9841691553592682e-02" nType="-99"/>
            </Node>
            <Node pos="r" depth="3" NCoef="0" IVar="8" Cut="2.9950504302978516e+00" cType="1" res="2.3076968267560005e-02" rms="4.5024302601814270e-01" purity="5.6647396087646484e-01" nType="0">
              <Node pos="l" depth="4" NCoef="0" IVar="-1" Cut="0.0000000000000000e+00" cType="1" res="-1.5585259534418583e-03" rms="4.6272194385528564e-01" purity="5.3235357999801636e-01" nType="-99"/>
              <Node pos="r" depth="4" NCoef="0" IVar="-1" Cut="0.0000000000000000e+00" cType="1" res="1.1605378240346909e-02" rms="4.3895882368087769e-01" purity="5.9298855066299438e-01" nType="-99"/>
            </Node>
          </Node>
          <Node pos="r" depth="2" NCoef="0" IVar="-1" Cut="0.0000000000000000e+00" cType="1" res="2.1566335111856461e-02" rms="4.0932559967041016e-01" purity="7.3426896333694458e-01" nType="-99"/>
        </Node>
      </Node>
    </BinaryTree>
    <BinaryTree type="DecisionTree" boostWeight="1.0000000000000000e+00" itree="26">
      <Node pos="s" depth="0" NCoef="0" IVar="6" Cut="4.8502770066261292e-01" cType="1" res="-2.1834417711943388e-03" rms="4.2825740575790405e-01" purity="4.9344787001609802e-01" nType="0">
        <Node pos="l" depth="1" NCoef="0" IVar="-1" Cut="0.0000000000000000e+00" cType="1" res="-2.1367179229855537e-02" rms="4.4259026646614075e-01" purity="3.1416803598403931e-01" nType="-99"/>
        <Node pos="r" depth="1" NCoef="0" IVar="4" Cut="7.7110132812500000e+04" cType="1" res="8.9998692274093628e-03" rms="4.2514431476593018e-01" purity="5.1454782485961914e-01" nType="0">
          <Node pos="l" depth="2" NCoef="0" IVar="0" Cut="2.7653521875000000e+05" cType="1" res="-1.2151604518294334e-02" rms="4.2616838216781616e-01" purity="4.6326670050621033e-01" nType="0">
            <Node pos="l" depth="3" NCoef="0" IVar="5" Cut="2.0158044433593750e+02" cType="1" res="6.7351134493947029e-03" rms="4.5386236906051636e-01" purity="5.5615496635437012e-01" nType="0">
              <Node pos="l" depth="4" NCoef="0" IVar="-1" Cut="0.0000000000000000e+00" cType="1" res="8.7345056235790253e-03" rms="4.4790396094322205e-01" purity="5.9822422266006470e-01" nType="-99"/>
              <Node pos="r" depth="4" NCoef="0" IVar="-1" Cut="0.0000000000000000e+00" cType="1" res="-8.1092538312077522e-03" rms="4.6061956882476807e-01" purity="4.7044751048088074e-01" nType="-99"/>
            </Node>
            <Node pos="r" depth="3" NCoef="0" IVar="-1" Cut="0.0000000000000000e+00" cType="1" res="-3.2141517847776413e-02" rms="3.0249980092048645e-01" purity="1.4090630412101746e-01" nType="-99"/>
          </Node>
          <Node pos="r" depth="2" NCoef="0" IVar="-1" Cut="0.0000000000000000e+00" cType="1" res="2.2013328969478607e-02" rms="4.1399353742599487e-01" purity="6.8535202741622925e-01" nType="-99"/>
        </Node>
      </Node>
    </BinaryTree>
    <BinaryTree type="DecisionTree" boostWeight="1.0000000000000000e+00" itree="27">
      <Node pos="s" depth="0" NCoef="0" IVar="9" Cut="3.0000000000000000e+00" cType="1" res="1.1363489320501685e-03" rms="4.3251472711563110e-01" purity="4.9742725491523743e-01" nType="0">
        <Node pos="l" depth="1" NCoef="0" IVar="1" Cut="-2.2433378696441650e+00" cType="1" res="0.0000000000000000e+00" rms="0.0000000000000000e+00" purity="4.1771262884140015e-01" nType="0">
          <Node pos="l" depth="2" NCoef="0" IVar="-1" Cut="0.0000000000000000e+00" cType="1" res="2.8114859014749527e-03" rms="4.3715965747833252e-01" purity="5.1815545558929443e-01" nType="-99"/>
          <Node pos="r" depth="2" NCoef="0" IVar="1" Cut="2.1157281398773193e+00" cType="1" res="-5.0737805664539337e-02" rms="4.3486535549163818e-01" purity="3.8219693303108215e-01" nType="0">
            <Node pos="l" depth="3" NCoef="0" IVar="8" Cut="3.0060868263244629e+00" cType="1" res="-7.4229411780834198e-02" rms="4.2071613669395447e-01" purity="3.3043181896209717e-01" nType="0">
              <Node pos="l" depth="4" NCoef="0" IVar="-1" Cut="0.0000000000000000e+00" cType="1" res="-2.6201419532299042e-02" rms="4.2363637685775757e-01" purity="3.1485307216644287e-01" nType="-99"/>
              <Node pos="r" depth="4" NCoef="0" IVar="-1" Cut="0.0000000000000000e+00" cType="1" res="-9.3122161924839020e-03" rms="4.1497555375099182e-01" purity="3.4770551323890686e-01" nType="-99"/>
            </Node>
            <Node pos="r" depth="3" NCoef="0" IVar="-1" Cut="0.0000000000000000e+00" cType="1" res="-2.3043581750243902e-03" rms="4.5654401183128357e-01" purity="4.7708418965339661e-01" nType="-99"/>
          </Node>
        </Node>
        <Node pos="r" depth="1" NCoef="0" IVar="2" Cut="1.0959277153015137e+00" cType="1" res="2.7371538802981377e-02" rms="4.2713162302970886e-01" purity="5.6404393911361694e-01" nType="0">
          <Node pos="l" depth="2" NCoef="0" IVar="-1" Cut="0.0000000000000000e+00" cType="1" res="-1.4027980156242847e-02" rms="3.7925666570663452e-01" purity="3.0975893139839172e-01" nType="-99"/>
          <Node pos="r" depth="2" NCoef="0" IVar="1" Cut="-1.0475598573684692e+00" cType="1" res="4.8370897769927979e-02" rms="4.3804904818534851e-01" purity="6.3901519775390625e-01" nType="0">
            <Node pos="l" depth="3" NCoef="0" IVar="-1" Cut="0.0000000000000000e+00" cType="1" res="1.6198482364416122e-02" rms="4.3815025687217712e-01" purity="6.6234672069549561e-01" nType="-99"/>
            <Node pos="r" depth="3" NCoef="0" IVar="5" Cut="1.8617575073242188e+02" cType="1" res="2.9337359592318535e-02" rms="4.3693205714225769e-01" purity="6.2385261058807373e-01" nType="0">
              <Node pos="l" depth="4" NCoef="0" IVar="-1" Cut="0.0000000000000000e+00" cType="1" res="1.6588037833571434e-02" rms="4.2631122469902039e-01" purity="6.8004977703094482e-01" nType="-99"/>
              <Node pos="r" depth="4" NCoef="0" IVar="-1" Cut="0.0000000000000000e+00" cType="1" res="-1.3624947750940919e-03" rms="4.4754129648208618e-01" purity="5.5244243144989014e-01" nType="-99"/>
            </Node>
          </Node>
        </Node>
      </Node>
    </BinaryTree>
    <BinaryTree type="DecisionTree" boostWeight="1.0000000000000000e+00" itree="28">
      <Node pos="s" depth="0" NCoef="0" IVar="3" Cut="7.7961664062500000e+04" cType="1" res="-1.1609314242377877e-03" rms="4.2706948518753052e-01" purity="4.9628695845603943e-01" nType="0">
        <Node pos="l" depth="1" NCoef="0" IVar="8" Cut="2.9467322826385498e+00" cType="1" res="0.0000000000000000e+00" rms="0.0000000000000000e+00" purity="3.9953052997589111e-01" nType="0">
          <Node pos="l" depth="2" NCoef="0" IVar="-1" Cut="0.0000000000000000e+00" cType="1" res="-2.0695859566330910e-02" rms="4.2815953493118286e-01" purity="3.5037264227867126e-01" nType="-99"/>
          <Node pos="r" depth="2" NCoef="0" IVar="0" Cut="2.2190676562500000e+05" cType="1" res="-1.3950899243354797e-02" rms="4.0705931186676025e-01" purity="4.2341175675392151e-01" nType="0">
            <Node pos="l" depth="3" NCoef="0" IVar="-1" Cut="0.0000000000000000e+00" cType="1" res="8.3134621381759644e-03" rms="4.5771658420562744e-01" purity="6.0759025812149048e-01" nType="-99"/>
            <Node pos="r" depth="3" NCoef="0" IVar="-1" Cut="0.0000000000000000e+00" cType="1" res="-2.7988832443952560e-02" rms="3.1406280398368835e-01" purity="1.7005951702594757e-01" nType="-99"/>
          </Node>
        </Node>
        <Node pos="r" depth="1" NCoef="0" IVar="1" Cut="2.2427735328674316e+00" cType="1" res="2.2871758788824081e-02" rms="4.3447622656822205e-01" purity="5.6959265470504761e-01" nType="0">
          <Node pos="l" depth="2" NCoef="0" IVar="2" Cut="2.2727606296539307e+00" cType="1" res="8.1147504970431328e-03" rms="4.3373921513557434e-01" purity="5.5382233858108521e-01" nType="0">
            <Node pos="l" depth="3" NCoef="0" IVar="3" Cut="1.0145640625000000e+05" cType="1" res="-2.0571855828166008e-02" rms="4.3019792437553406e-01" purity="5.0551289319992065e-01" nType="0">
              <Node pos="l" depth="4" NCoef="0" IVar="-1" Cut="0.0000000000000000e+00" cType="1" res="-1.4689199626445770e-02" rms="4.1918942332267761e-01" purity="4.5074847340583801e-01" nType="-99"/>
              <Node pos="r" depth="4" NCoef="0" IVar="-1" Cut="0.0000000000000000e+00" cType="1" res="2.0601812284439802e-03" rms="4.3689969182014465e-01" purity="5.4920816421508789e-01" nType="-99"/>
            </Node>
            <Node pos="r" depth="3" NCoef="0" IVar="-1" Cut="0.0000000000000000e+00" cType="1" res="9.6566360443830490e-03" rms="4.3547618389129639e-01" purity="6.2472856044769287e-01" nType="-99"/>
          </Node>
          <Node pos="r" depth="2" NCoef="0" IVar="-1" Cut="0.0000000000000000e+00" cType="1" res="1.7165048047900200e-02" rms="4.3380263447761536e-01" purity="6.1490404605865479e-01" nType="-99"/>
        </Node>
      </Node>
    </BinaryTree>
    <BinaryTree type="DecisionTree" boostWeight="1.0000000000000000e+00" itree="29">
      <Node pos="s" depth="0" NCoef="0" IVar="6" Cut="4.8501980304718018e-01" cType="1" res="5.1129665225744247e-03" rms="4.3218359351158142e-01" purity="5.0136804580688477e-01" nType="0">
        <Node pos="l" depth="1" NCoef="0" IVar="-1" Cut="0.0000000000000000e+00" cType="1" res="-1.7153980210423470e-02" rms="4.4969287514686584e-01" purity="3.2234695553779602e-01" nType="-99"/>
        <Node pos="r" depth="1" NCoef="0" IVar="4" Cut="7.7107296875000000e+04" cType="1" res="0.0000000000000000e+00" rms="0.0000000000000000e+00" purity="5.2423459291458130e-01" nType="0">
          <Node pos="l" depth="2" NCoef="0" IVar="1" Cut="-1.3458850383758545e+00" cType="1" res="3.0676641035825014e-03" rms="4.3156901001930237e-01" purity="4.7552508115768433e-01" nType="0">
            <Node pos="l" depth="3" NCoef="0" IVar="4" Cut="4.7662175781250000e+04" cType="1" res="4.6907320618629456e-02" rms="4.2450413107872009e-01" purity="5.2018624544143677e-01" nType="0">
              <Node pos="l" depth="4" NCoef="0" IVar="-1" Cut="0.0000000000000000e+00" cType="1" res="2.4248086847364902e-03" rms="4.1950243711471558e-01" purity="4.2153000831604004e-01" nType="-99"/>
              <Node pos="r" depth="4" NCoef="0" IVar="-1" Cut="0.0000000000000000e+00" cType="1" res="2.2051870822906494e-02" rms="4.2595413327217102e-01" purity="5.9938138723373413e-01" nType="-99"/>
            </Node>
            <Node pos="r" depth="3" NCoef="0" IVar="8" Cut="2.9649035930633545e+00" cType="1" res="-2.0982749760150909e-02" rms="4.3351697921752930e-01" purity="4.5102396607398987e-01" nType="0">
              <Node pos="l" depth="4" NCoef="0" IVar="-1" Cut="0.0000000000000000e+00" cType="1" res="-1.7644880339503288e-02" rms="4.4803237915039062e-01" purity="3.9909800887107849e-01" nType="-99"/>
              <Node pos="r" depth="4" NCoef="0" IVar="-1" Cut="0.0000000000000000e+00" cType="1" res="1.1814218014478683e-03" rms="4.2300906777381897e-01" purity="4.8047879338264465e-01" nType="-99"/>
            </Node>
          </Node>
          <Node pos="r" depth="2" NCoef="0" IVar="-1" Cut="0.0000000000000000e+00" cType="1" res="1.6144096851348877e-02" rms="4.1419565677642822e-01" purity="6.8213731050491333e-01" nType="-99"/>
        </Node>
      </Node>
    </BinaryTree>
    <BinaryTree type="DecisionTree" boostWeight="1.0000000000000000e+00" itree="30">
      <Node pos="s" depth="0" NCoef="0" IVar="0" Cut="3.6247865625000000e+05" cType="1" res="2.4830696638673544e-03" rms="4.2889186739921570e-01" purity="4.9510222673416138e-01" nType="0">
        <Node pos="l" depth="1" NCoef="0" IVar="5" Cut="2.0064982604980469e+02" cType="1" res="1.2740479782223701e-02" rms="4.4358560442924500e-01" purity="5.4337412118911743e-01" nType="0">
          <Node pos="l" depth="2" NCoef="0" IVar="3" Cut="6.5631156250000000e+04" cType="1" res="3.4099750220775604e-02" rms="4.3556118011474609e-01" purity="5.7815080881118774e-01" nType="0">
            <Node pos="l" depth="3" NCoef="0" IVar="-1" Cut="0.0000000000000000e+00" cType="1" res="-3.1621030066162348e-03" rms="4.3738111853599548e-01" purity="4.4880583882331848e-01" nType="-99"/>
            <Node pos="r" depth="3" NCoef="0" IVar="4" Cut="5.6139031250000000e+04" cType="1" res="5.6176174432039261e-02" rms="4.3296059966087341e-01" purity="6.4207386970520020e-01" nType="0">
              <Node pos="l" depth="4" NCoef="0" IVar="-1" Cut="0.0000000000000000e+00" cType="1" res="6.3473903574049473e-03" rms="4.5164030790328979e-01" purity="5.3510880470275879e-01" nType="-99"/>
              <Node pos="r" depth="4" NCoef="0" IVar="-1" Cut="0.0000000000000000e+00" cType="1" res="1.6193510964512825e-02" rms="4.2249855399131775e-01" purity="6.9421523809432983e-01" nType="-99"/>
            </Node>
          </Node>
          <Node pos="r" depth="2" NCoef="0" IVar="6" Cut="6.7968416213989258e-01" cType="1" res="0.0000000000000000e+00" rms="0.0000000000000000e+00" purity="4.8720073699951172e-01" nType="0">
            <Node pos="l" depth="3" NCoef="0" IVar="0" Cut="1.8920000000000000e+05" cType="1" res="-6.6040687263011932e-02" rms="4.5845824480056763e-01" purity="4.4295242428779602e-01" nType="0">
              <Node pos="l" depth="4" NCoef="0" IVar="-1" Cut="0.0000000000000000e+00" cType="1" res="-2.7719339355826378e-02" rms="4.6425834298133850e-01" purity="4.3852353096008301e-01" nType="-99"/>
              <Node pos="r" depth="4" NCoef="0" IVar="-1" Cut="0.0000000000000000e+00" cType="1" res="-7.8058564104139805e-03" rms="4.4882127642631531e-01" purity="4.4776737689971924e-01" nType="-99"/>
            </Node>
            <Node pos="r" depth="3" NCoef="0" IVar="-1" Cut="0.0000000000000000e+00" cType="1" res="1.1968785896897316e-02" rms="4.3670359253883362e-01" purity="5.6176906824111938e-01" nType="-99"/>
          </Node>
        </Node>
        <Node pos="r" depth="1" NCoef="0" IVar="-1" Cut="0.0000000000000000e+00" cType="1" res="-3.5775560885667801e-02" rms="2.6338922977447510e-01" purity="9.4290003180503845e-02" nType="-99"/>
      </Node>
    </BinaryTree>
    <BinaryTree type="DecisionTree" boostWeight="1.0000000000000000e+00" itree="31">
      <Node pos="s" depth="0" NCoef="0" IVar="9" Cut="3.0000000000000000e+00" cType="1" res="3.2100998796522617e-03" rms="4.2724680900573730e-01" purity="4.9741420149803162e-01" nType="0">
        <Node pos="l" depth="1" NCoef="0" IVar="6" Cut="6.5390509366989136e-01" cType="1" res="-2.9027879238128662e-02" rms="4.2809155583381653e-01" purity="4.0568700432777405e-01" nType="0">
          <Node pos="l" depth="2" NCoef="0" IVar="-1" Cut="0.0000000000000000e+00" cType="1" res="-1.2989719398319721e-02" rms="4.4226562976837158e-01" purity="3.5206583142280579e-01" nType="-99"/>
          <Node pos="r" depth="2" NCoef="0" IVar="2" Cut="2.1718769073486328e+00" cType="1" res="-3.4906677901744843e-03" rms="4.1785687208175659e-01" purity="4.3536311388015747e-01" nType="0">
            <Node pos="l" depth="3" NCoef="0" IVar="-1" Cut="0.0000000000000000e+00" cType="1" res="-9.2763686552643776e-03" rms="4.0376660227775574e-01" purity="3.5910889506340027e-01" nType="-99"/>
            <Node pos="r" depth="3" NCoef="0" IVar="-1" Cut="0.0000000000000000e+00" cType="1" res="1.0163431987166405e-02" rms="4.3434426188468933e-01" purity="5.4923927783966064e-01" nType="-99"/>
          </Node>
        </Node>
        <Node pos="r" depth="1" NCoef="0" IVar="4" Cut="5.3556507812500000e+04" cType="1" res="3.1430829316377640e-02" rms="4.2475226521492004e-01" purity="5.7697063684463501e-01" nType="0">
          <Node pos="l" depth="2" NCoef="0" IVar="-1" Cut="0.0000000000000000e+00" cType="1" res="-7.8380722552537918e-03" rms="4.2115378379821777e-01" purity="4.3156060576438904e-01" nType="-99"/>
          <Node pos="r" depth="2" NCoef="0" IVar="1" Cut="-1.0469163656234741e+00" cType="1" res="6.3037946820259094e-02" rms="4.2355790734291077e-01" purity="6.5993571281433105e-01" nType="0">
            <Node pos="l" depth="3" NCoef="0" IVar="-1" Cut="0.0000000000000000e+00" cType="1" res="2.4391394108533859e-02" rms="4.0802907943725586e-01" purity="6.9961243867874146e-01" nType="-99"/>
            <Node pos="r" depth="3" NCoef="0" IVar="-1" Cut="0.0000000000000000e+00" cType="1" res="9.2599801719188690e-03" rms="4.3180787563323975e-01" purity="6.3294452428817749e-01" nType="-99"/>
          </Node>
        </Node>
      </Node>
    </BinaryTree>
    <BinaryTree type="DecisionTree" boostWeight="1.0000000000000000e+00" itree="32">
      <Node pos="s" depth="0" NCoef="0" IVar="7" Cut="1.5376586914062500e+02" cType="1" res="3.2974842470139265e-03" rms="4.2562440037727356e-01" purity="4.9739909172058105e-01" nType="0">
        <Node pos="l" depth="1" NCoef="0" IVar="5" Cut="1.8662245178222656e+02" cType="1" res="0.0000000000000000e+00" rms="0.0000000000000000e+00" purity="2.6818358898162842e-01" nType="0">
          <Node pos="l" depth="2" NCoef="0" IVar="-1" Cut="0.0000000000000000e+00" cType="1" res="-6.4557134173810482e-03" rms="3.9710137248039246e-01" purity="3.1798309087753296e-01" nType="-99"/>
          <Node pos="r" depth="2" NCoef="0" IVar="-1" Cut="0.0000000000000000e+00" cType="1" res="-1.5258196741342545e-02" rms="3.9236938953399658e-01" purity="2.2286547720432281e-01" nType="-99"/>
        </Node>
        <Node pos="r" depth="1" NCoef="0" IVar="4" Cut="9.3719679687500000e+04" cType="1" res="1.7921078950166702e-02" rms="4.3223005533218384e-01" purity="5.5954796075820923e-01" nType="0">
          <Node pos="l" depth="2" NCoef="0" IVar="6" Cut="5.9805232286453247e-01" cType="1" res="6.3794995658099651e-03" rms="4.3230327963829041e-01" purity="5.3676337003707886e-01" nType="0">
            <Node pos="l" depth="3" NCoef="0" IVar="7" Cut="3.2011755371093750e+02" cType="1" res="-3.4718476235866547e-02" rms="4.4692707061767578e-01" purity="4.3004474043846130e-01" nType="0">
              <Node pos="l" depth="4" NCoef="0" IVar="-1" Cut="0.0000000000000000e+00" cType="1" res="-1.9124351441860199e-02" rms="4.3863955140113831e-01" purity="3.6432343721389771e-01" nType="-99"/>
              <Node pos="r" depth="4" NCoef="0" IVar="-1" Cut="0.0000000000000000e+00" cType="1" res="2.4677820038050413e-03" rms="4.5353910326957703e-01" purity="5.1526969671249390e-01" nType="-99"/>
            </Node>
            <Node pos="r" depth="3" NCoef="0" IVar="1" Cut="-1.6455521583557129e+00" cType="1" res="2.9704501852393150e-02" rms="4.2200252413749695e-01" purity="5.9733110666275024e-01" nType="0">
              <Node pos="l" depth="4" NCoef="0" IVar="-1" Cut="0.0000000000000000e+00" cType="1" res="1.9763076677918434e-02" rms="4.2159605026245117e-01" purity="6.4277738332748413e-01" nType="-99"/>
              <Node pos="r" depth="4" NCoef="0" IVar="-1" Cut="0.0000000000000000e+00" cType="1" res="4.1818846948444843e-03" rms="4.2140749096870422e-01" purity="5.7656735181808472e-01" nType="-99"/>
            </Node>
          </Node>
          <Node pos="r" depth="2" NCoef="0" IVar="-1" Cut="0.0000000000000000e+00" cType="1" res="1.6815897077322006e-02" rms="4.2672127485275269e-01" purity="6.7957496643066406e-01" nType="-99"/>
        </Node>
      </Node>
    </BinaryTree>
    <BinaryTree type="DecisionTree" boostWeight="1.0000000000000000e+00" itree="33">
      <Node pos="s" depth="0" NCoef="0" IVar="4" Cut="7.7178781250000000e+04" cType="1" res="4.4939368963241577e-03" rms="4.2885059118270874e-01" purity="5.0372636318206787e-01" nType="0">
        <Node pos="l" depth="1" NCoef="0" IVar="8" Cut="2.7943921089172363e+00" cType="1" res="-1.2522229924798012e-02" rms="4.2813193798065186e-01" purity="4.5271781086921692e-01" nType="0">
          <Node pos="l" depth="2" NCoef="0" IVar="-1" Cut="0.0000000000000000e+00" cType="1" res="-2.0766275003552437e-02" rms="4.4192677736282349e-01" purity="3.6607575416564941e-01" nType="-99"/>
          <Node pos="r" depth="2" NCoef="0" IVar="4" Cut="3.5183449218750000e+04" cType="1" res="0.0000000000000000e+00" rms="0.0000000000000000e+00" purity="4.6654674410820007e-01" nType="0">
            <Node pos="l" depth="3" NCoef="0" IVar="-1" Cut="0.0000000000000000e+00" cType="1" res="-2.1798845380544662e-02" rms="3.9836317300796509e-01" purity="2.7654713392257690e-01" nType="-99"/>
            <Node pos="r" depth="3" NCoef="0" IVar="1" Cut="-1.6457035541534424e+00" cType="1" res="1.1879200115799904e-02" rms="4.2856526374816895e-01" purity="5.0382912158966064e-01" nType="0">
              <Node pos="l" depth="4" NCoef="0" IVar="-1" Cut="0.0000000000000000e+00" cType="1" res="9.7096133977174759e-03" rms="4.2817494273185730e-01" purity="5.5637162923812866e-01" nType="-99"/>
              <Node pos="r" depth="4" NCoef="0" IVar="-1" Cut="0.0000000000000000e+00" cType="1" res="-1.4516240917146206e-03" rms="4.2765522003173828e-01" purity="4.8036006093025208e-01" nType="-99"/>
            </Node>
          </Node>
        </Node>
        <Node pos="r" depth="1" NCoef="0" IVar="5" Cut="2.2209919738769531e+02" cType="1" res="0.0000000000000000e+00" rms="0.0000000000000000e+00" purity="6.4225637912750244e-01" nType="0">
          <Node pos="l" depth="2" NCoef="0" IVar="-1" Cut="0.0000000000000000e+00" cType="1" res="1.9100876525044441e-02" rms="4.1205468773841858e-01" purity="7.0373982191085815e-01" nType="-99"/>
          <Node pos="r" depth="2" NCoef="0" IVar="-1" Cut="0.0000000000000000e+00" cType="1" res="2.7039637789130211e-03" rms="4.4704049825668335e-01" purity="5.4641425609588623e-01" nType="-99"/>
        </Node>
      </Node>
    </BinaryTree>
    <BinaryTree type="DecisionTree" boostWeight="1.0000000000000000e+00" itree="34">
      <Node pos="s" depth="0" NCoef="0" IVar="0" Cut="3.6247400000000000e+05" cType="1" res="1.1048164218664169e-02" rms="4.2834702134132385e-01" purity="5.0411450862884521e-01" nType="0">
        <Node pos="l" depth="1" NCoef="0" IVar="0" Cut="2.2382223437500000e+05" cType="1" res="1.9759377464652061e-02" rms="4.4174525141716003e-01" purity="5.4992634057998657e-01" nType="0">
          <Node pos="l" depth="2" NCoef="0" IVar="0" Cut="1.4472250000000000e+05" cType="1" res="3.7358533591032028e-02" rms="4.5279866456985474e-01" purity="6.1502891778945923e-01" nType="0">
            <Node pos="l" depth="3" NCoef="0" IVar="-1" Cut="0.0000000000000000e+00" cType="1" res="-2.2365208715200424e-03" rms="4.5884823799133301e-01" purity="5.5502241849899292e-01" nType="-99"/>
            <Node pos="r" depth="3" NCoef="0" IVar="0" Cut="1.7486300000000000e+05" cType="1" res="5.8003704994916916e-02" rms="4.4854959845542908e-01" purity="6.4158195257186890e-01" nType="0">
              <Node pos="l" depth="4" NCoef="0" IVar="-1" Cut="0.0000000000000000e+00" cType="1" res="2.1235514432191849e-02" rms="4.4760674238204956e-01" purity="6.7093795537948608e-01" nType="-99"/>
              <Node pos="r" depth="4" NCoef="0" IVar="-1" Cut="0.0000000000000000e+00" cType="1" res="8.3847148343920708e-03" rms="4.4764325022697449e-01" purity="6.1687684059143066e-01" nType="-99"/>
            </Node>
          </Node>
          <Node pos="r" depth="2" NCoef="0" IVar="2" Cut="1.6690709590911865e+00" cType="1" res="-2.3912340402603149e-02" rms="4.0978884696960449e-01" purity="3.8837629556655884e-01" nType="0">
            <Node pos="l" depth="3" NCoef="0" IVar="-1" Cut="0.0000000000000000e+00" cType="1" res="-2.2507341578602791e-02" rms="3.7335956096649170e-01" purity="2.5514128804206848e-01" nType="-99"/>
            <Node pos="r" depth="3" NCoef="0" IVar="-1" Cut="0.0000000000000000e+00" cType="1" res="2.1951652597635984e-03" rms="4.3446600437164307e-01" purity="4.9649211764335632e-01" nType="-99"/>
          </Node>
        </Node>
        <Node pos="r" depth="1" NCoef="0" IVar="-1" Cut="0.0000000000000000e+00" cType="1" res="-3.3809248358011246e-02" rms="2.7784544229507446e-01" purity="1.1096970736980438e-01" nType="-99"/>
      </Node>
    </BinaryTree>
    <BinaryTree type="DecisionTree" boostWeight="1.0000000000000000e+00" itree="35">
      <Node pos="s" depth="0" NCoef="0" IVar="6" Cut="4.8495942354202271e-01" cType="1" res="0.0000000000000000e+00" rms="0.0000000000000000e+00" purity="5.0071781873703003e-01" nType="0">
        <Node pos="l" depth="1" NCoef="0" IVar="-1" Cut="0.0000000000000000e+00" cType="1" res="-1.4677239581942558e-02" rms="4.5259276032447815e-01" purity="3.4076136350631714e-01" nType="-99"/>
        <Node pos="r" depth="1" NCoef="0" IVar="0" Cut="3.0076384375000000e+05" cType="1" res="1.0203219018876553e-02" rms="4.2207080125808716e-01" purity="5.1894462108612061e-01" nType="0">
          <Node pos="l" depth="2" NCoef="0" IVar="4" Cut="4.2348175781250000e+04" cType="1" res="2.2645918652415276e-02" rms="4.4167909026145935e-01" purity="5.9695750474929810e-01" nType="0">
            <Node pos="l" depth="3" NCoef="0" IVar="-1" Cut="0.0000000000000000e+00" cType="1" res="-5.4442659020423889e-03" rms="4.5281735062599182e-01" purity="4.3575191497802734e-01" nType="-99"/>
            <Node pos="r" depth="3" NCoef="0" IVar="1" Cut="-2.2440209388732910e+00" cType="1" res="3.5143569111824036e-02" rms="4.3742981553077698e-01" purity="6.4667850732803345e-01" nType="0">
              <Node pos="l" depth="4" NCoef="0" IVar="-1" Cut="0.0000000000000000e+00" cType="1" res="1.8261061981320381e-02" rms="4.0775993466377258e-01" purity="7.0361775159835815e-01" nType="-99"/>
              <Node pos="r" depth="4" NCoef="0" IVar="-1" Cut="0.0000000000000000e+00" cType="1" res="5.3129331208765507e-03" rms="4.4532793760299683e-01" purity="6.2877732515335083e-01" nType="-99"/>
            </Node>
          </Node>
          <Node pos="r" depth="2" NCoef="0" IVar="-1" Cut="0.0000000000000000e+00" cType="1" res="-1.8926702439785004e-02" rms="3.0684244632720947e-01" purity="1.5126773715019226e-01" nType="-99"/>
        </Node>
      </Node>
    </BinaryTree>
    <BinaryTree type="DecisionTree" boostWeight="1.0000000000000000e+00" itree="36">
      <Node pos="s" depth="0" NCoef="0" IVar="7" Cut="4.1288571166992188e+02" cType="1" res="-6.6813658922910690e-03" rms="4.3036842346191406e-01" purity="4.9024751782417297e-01" nType="0">
        <Node pos="l" depth="1" NCoef="0" IVar="5" Cut="2.0364874267578125e+02" cType="1" res="-1.6363283619284630e-02" rms="4.3200340867042542e-01" purity="4.6054226160049438e-01" nType="0">
          <Node pos="l" depth="2" NCoef="0" IVar="0" Cut="2.5684451562500000e+05" cType="1" res="6.5823006443679333e-03" rms="4.2585250735282898e-01" purity="5.0087344646453857e-01" nType="0">
            <Node pos="l" depth="3" NCoef="0" IVar="1" Cut="1.9432854652404785e+00" cType="1" res="0.0000000000000000e+00" rms="0.0000000000000000e+00" purity="6.0370296239852905e-01" nType="0">
              <Node pos="l" depth="4" NCoef="0" IVar="-1" Cut="0.0000000000000000e+00" cType="1" res="6.2221952248364687e-04" rms="4.5068874955177307e-01" purity="5.8692944049835205e-01" nType="-99"/>
              <Node pos="r" depth="4" NCoef="0" IVar="-1" Cut="0.0000000000000000e+00" cType="1" res="1.7399515956640244e-02" rms="4.4691747426986694e-01" purity="6.4621722698211670e-01" nType="-99"/>
            </Node>
            <Node pos="r" depth="3" NCoef="0" IVar="-1" Cut="0.0000000000000000e+00" cType="1" res="-1.2726311571896076e-02" rms="3.4091153740882874e-01" purity="2.0165765285491943e-01" nType="-99"/>
          </Node>
          <Node pos="r" depth="2" NCoef="0" IVar="6" Cut="6.8089967966079712e-01" cType="1" res="-5.6843392550945282e-02" rms="4.3973660469055176e-01" purity="3.8939076662063599e-01" nType="0">
            <Node pos="l" depth="3" NCoef="0" IVar="-1" Cut="0.0000000000000000e+00" cType="1" res="-2.2742055356502533e-02" rms="4.4346266984939575e-01" purity="3.6480349302291870e-01" nType="-99"/>
            <Node pos="r" depth="3" NCoef="0" IVar="-1" Cut="0.0000000000000000e+00" cType="1" res="-5.4722349159419537e-03" rms="4.3080976605415344e-01" purity="4.2890450358390808e-01" nType="-99"/>
          </Node>
        </Node>
        <Node pos="r" depth="1" NCoef="0" IVar="-1" Cut="0.0000000000000000e+00" cType="1" res="1.1944785714149475e-02" rms="4.1563004255294800e-01" purity="6.6929036378860474e-01" nType="-99"/>
      </Node>
    </BinaryTree>
    <BinaryTree type="DecisionTree" boostWeight="1.0000000000000000e+00" itree="37">
      <Node pos="s" depth="0" NCoef="0" IVar="9" Cut="3.0000000000000000e+00" cType="1" res="1.8054755637422204e-03" rms="4.2754414677619934e-01" purity="4.9862831830978394e-01" nType="0">
        <Node pos="l" depth="1" NCoef="0" IVar="1" Cut="-2.2433378696441650e+00" cType="1" res="-2.0143371075391769e-02" rms="4.3085268139839172e-01" purity="4.1753953695297241e-01" nType="0">
          <Node pos="l" depth="2" NCoef="0" IVar="-1" Cut="0.0000000000000000e+00" cType="1" res="5.5130985565483570e-03" rms="4.3135336041450500e-01" purity="5.0382637977600098e-01" nType="-99"/>
          <Node pos="r" depth="2" NCoef="0" IVar="1" Cut="8.3459329605102539e-01" cType="1" res="-3.2067161053419113e-02" rms="4.2999452352523804e-01" purity="3.9112341403961182e-01" nType="0">
            <Node pos="l" depth="3" NCoef="0" IVar="-1" Cut="0.0000000000000000e+00" cType="1" res="-2.0933713763952255e-02" rms="4.1134867072105408e-01" purity="3.1432536244392395e-01" nType="-99"/>
            <Node pos="r" depth="3" NCoef="0" IVar="1" Cut="2.3724532127380371e+00" cType="1" res="-4.1201235726475716e-03" rms="4.4125649333000183e-01" purity="4.4813218712806702e-01" nType="0">
              <Node pos="l" depth="4" NCoef="0" IVar="-1" Cut="0.0000000000000000e+00" cType="1" res="-1.7253097612410784e-03" rms="4.3682515621185303e-01" purity="4.1011613607406616e-01" nType="-99"/>
              <Node pos="r" depth="4" NCoef="0" IVar="-1" Cut="0.0000000000000000e+00" cType="1" res="-6.9852068554610014e-04" rms="4.4567590951919556e-01" purity="4.8649293184280396e-01" nType="-99"/>
            </Node>
          </Node>
        </Node>
        <Node pos="r" depth="1" NCoef="0" IVar="2" Cut="9.8960125446319580e-01" cType="1" res="2.0566539838910103e-02" rms="4.2379558086395264e-01" purity="5.6794005632400513e-01" nType="0">
          <Node pos="l" depth="2" NCoef="0" IVar="-1" Cut="0.0000000000000000e+00" cType="1" res="-1.0879858396947384e-02" rms="3.7140679359436035e-01" purity="2.9450565576553345e-01" nType="-99"/>
          <Node pos="r" depth="2" NCoef="0" IVar="5" Cut="1.9215180969238281e+02" cType="1" res="3.3217895776033401e-02" rms="4.3422916531562805e-01" purity="6.3221788406372070e-01" nType="0">
            <Node pos="l" depth="3" NCoef="0" IVar="1" Cut="7.4531394243240356e-01" cType="1" res="5.6025464087724686e-02" rms="4.2615291476249695e-01" purity="6.7599499225616455e-01" nType="0">
              <Node pos="l" depth="4" NCoef="0" IVar="-1" Cut="0.0000000000000000e+00" cType="1" res="1.1165989562869072e-02" rms="4.3105334043502808e-01" purity="6.5341252088546753e-01" nType="-99"/>
              <Node pos="r" depth="4" NCoef="0" IVar="-1" Cut="0.0000000000000000e+00" cType="1" res="2.1824851632118225e-02" rms="4.1842639446258545e-01" purity="7.0449644327163696e-01" nType="-99"/>
            </Node>
            <Node pos="r" depth="3" NCoef="0" IVar="-1" Cut="0.0000000000000000e+00" cType="1" res="-1.2864019954577088e-03" rms="4.4484803080558777e-01" purity="5.5864262580871582e-01" nType="-99"/>
          </Node>
        </Node>
      </Node>
    </BinaryTree>
    <BinaryTree type="DecisionTree" boostWeight="1.0000000000000000e+00" itree="38">
      <Node pos="s" depth="0" NCoef="0" IVar="6" Cut="6.2630277872085571e-01" cType="1" res="-3.3203377388417721e-03" rms="4.2597785592079163e-01" purity="4.8972555994987488e-01" nType="0">
        <Node pos="l" depth="1" NCoef="0" IVar="5" Cut="1.9518302917480469e+02" cType="1" res="-2.7410171926021576e-02" rms="4.4597798585891724e-01" purity="4.4720011949539185e-01" nType="0">
          <Node pos="l" depth="2" NCoef="0" IVar="1" Cut="1.4919833838939667e-01" cType="1" res="3.1368234194815159e-03" rms="4.4859308004379272e-01" purity="5.1745915412902832e-01" nType="0">
            <Node pos="l" depth="3" NCoef="0" IVar="-1" Cut="0.0000000000000000e+00" cType="1" res="-4.7987895086407661e-03" rms="4.4566395878791809e-01" purity="5.0179302692413330e-01" nType="-99"/>
            <Node pos="r" depth="3" NCoef="0" IVar="-1" Cut="0.0000000000000000e+00" cType="1" res="6.5709883347153664e-03" rms="4.5042014122009277e-01" purity="5.3346306085586548e-01" nType="-99"/>
          </Node>
          <Node pos="r" depth="2" NCoef="0" IVar="-1" Cut="0.0000000000000000e+00" cType="1" res="-1.8115477636456490e-02" rms="4.3993538618087769e-01" purity="3.6184021830558777e-01" nType="-99"/>
        </Node>
        <Node pos="r" depth="1" NCoef="0" IVar="7" Cut="2.8848785400390625e+02" cType="1" res="1.6078663989901543e-02" rms="4.0812999010086060e-01" purity="5.2397030591964722e-01" nType="0">
          <Node pos="l" depth="2" NCoef="0" IVar="2" Cut="1.4774354696273804e+00" cType="1" res="-5.1127276383340359e-03" rms="4.1808336973190308e-01" purity="4.3263733386993408e-01" nType="0">
            <Node pos="l" depth="3" NCoef="0" IVar="-1" Cut="0.0000000000000000e+00" cType="1" res="-1.7386941239237785e-02" rms="3.7163203954696655e-01" purity="2.5857648253440857e-01" nType="-99"/>
            <Node pos="r" depth="3" NCoef="0" IVar="4" Cut="5.0955652343750000e+04" cType="1" res="1.8116297200322151e-02" rms="4.4101217389106750e-01" purity="5.3309988975524902e-01" nType="0">
              <Node pos="l" depth="4" NCoef="0" IVar="-1" Cut="0.0000000000000000e+00" cType="1" res="1.4443526742979884e-04" rms="4.4578191637992859e-01" purity="4.5208457112312317e-01" nType="-99"/>
              <Node pos="r" depth="4" NCoef="0" IVar="-1" Cut="0.0000000000000000e+00" cType="1" res="1.1395173147320747e-02" rms="4.3376249074935913e-01" purity="6.3718485832214355e-01" nType="-99"/>
            </Node>
          </Node>
          <Node pos="r" depth="2" NCoef="0" IVar="-1" Cut="0.0000000000000000e+00" cType="1" res="2.2250231355428696e-02" rms="3.7060716748237610e-01" purity="7.9120522737503052e-01" nType="-99"/>
        </Node>
      </Node>
    </BinaryTree>
    <BinaryTree type="DecisionTree" boostWeight="1.0000000000000000e+00" itree="39">
      <Node pos="s" depth="0" NCoef="0" IVar="9" Cut="2.0000000000000000e+00" cType="1" res="3.4071552363457158e-05" rms="4.2733877897262573e-01" purity="4.9335184693336487e-01" nType="0">
        <Node pos="l" depth="1" NCoef="0" IVar="-1" Cut="0.0000000000000000e+00" cType="1" res="-1.2007236480712891e-02" rms="4.4934311509132385e-01" purity="3.7042683362960815e-01" nType="-99"/>
        <Node pos="r" depth="1" NCoef="0" IVar="5" Cut="2.4248867797851562e+02" cType="1" res="9.2275105416774750e-03" rms="4.2318543791770935e-01" purity="5.1327192783355713e-01" nType="0">
          <Node pos="l" depth="2" NCoef="0" IVar="4" Cut="4.5485484375000000e+04" cType="1" res="2.1139208227396011e-02" rms="4.1793391108512878e-01" purity="5.3323978185653687e-01" nType="0">
            <Node pos="l" depth="3" NCoef="0" IVar="8" Cut="2.9927093982696533e+00" cType="1" res="-1.0227017104625702e-02" rms="4.0793153643608093e-01" purity="3.7235125899314880e-01" nType="0">
              <Node pos="l" depth="4" NCoef="0" IVar="-1" Cut="0.0000000000000000e+00" cType="1" res="-1.4402137137949467e-02" rms="4.1123080253601074e-01" purity="3.2708862423896790e-01" nType="-99"/>
              <Node pos="r" depth="4" NCoef="0" IVar="-1" Cut="0.0000000000000000e+00" cType="1" res="5.3887884132564068e-03" rms="4.0310311317443848e-01" purity="4.1393673419952393e-01" nType="-99"/>
            </Node>
            <Node pos="r" depth="3" NCoef="0" IVar="8" Cut="2.8989253044128418e+00" cType="1" res="0.0000000000000000e+00" rms="0.0000000000000000e+00" purity="6.0727941989898682e-01" nType="0">
              <Node pos="l" depth="4" NCoef="0" IVar="-1" Cut="0.0000000000000000e+00" cType="1" res="9.2638161731883883e-04" rms="4.7148841619491577e-01" purity="5.2702528238296509e-01" nType="-99"/>
              <Node pos="r" depth="4" NCoef="0" IVar="-1" Cut="0.0000000000000000e+00" cType="1" res="1.4415744692087173e-02" rms="4.0171167254447937e-01" purity="6.3603001832962036e-01" nType="-99"/>
            </Node>
          </Node>
          <Node pos="r" depth="2" NCoef="0" IVar="-1" Cut="0.0000000000000000e+00" cType="1" res="-1.0677509009838104e-02" rms="4.3932777643203735e-01" purity="4.3910014629364014e-01" nType="-99"/>
        </Node>
      </Node>
    </BinaryTree>
    <BinaryTree type="DecisionTree" boostWeight="1.0000000000000000e+00" itree="40">
      <Node pos="s" depth="0" NCoef="0" IVar="7" Cut="1.6725849914550781e+02" cType="1" res="0.0000000000000000e+00" rms="0.0000000000000000e+00" purity="5.0209885835647583e-01" nType="0">
        <Node pos="l" depth="1" NCoef="0" IVar="2" Cut="1.9436167478561401e+00" cType="1" res="0.0000000000000000e+00" rms="0.0000000000000000e+00" purity="2.8850024938583374e-01" nType="0">
          <Node pos="l" depth="2" NCoef="0" IVar="-1" Cut="0.0000000000000000e+00" cType="1" res="-6.6560884006321430e-03" rms="3.6257714033126831e-01" purity="2.3826292157173157e-01" nType="-99"/>
          <Node pos="r" depth="2" NCoef="0" IVar="-1" Cut="0.0000000000000000e+00" cType="1" res="-6.3368147239089012e-03" rms="4.4022944569587708e-01" purity="3.3688500523567200e-01" nType="-99"/>
        </Node>
        <Node pos="r" depth="1" NCoef="0" IVar="4" Cut="7.7178781250000000e+04" cType="1" res="2.1061792969703674e-02" rms="4.3481484055519104e-01" purity="5.7733976840972900e-01" nType="0">
          <Node pos="l" depth="2" NCoef="0" IVar="6" Cut="6.2634176015853882e-01" cType="1" res="0.0000000000000000e+00" rms="0.0000000000000000e+00" purity="5.3243184089660645e-01" nType="0">
            <Node pos="l" depth="3" NCoef="0" IVar="4" Cut="5.4941273437500000e+04" cType="1" res="-2.7536302804946899e-02" rms="4.4621819257736206e-01" purity="4.4108790159225464e-01" nType="0">
              <Node pos="l" depth="4" NCoef="0" IVar="-1" Cut="0.0000000000000000e+00" cType="1" res="-1.2367817573249340e-02" rms="4.3423095345497131e-01" purity="3.8127085566520691e-01" nType="-99"/>
              <Node pos="r" depth="4" NCoef="0" IVar="-1" Cut="0.0000000000000000e+00" cType="1" res="-4.1687735356390476e-03" rms="4.5716857910156250e-01" purity="4.9901765584945679e-01" nType="-99"/>
            </Node>
            <Node pos="r" depth="3" NCoef="0" IVar="8" Cut="2.9240109920501709e+00" cType="1" res="3.3332284539937973e-02" rms="4.3196728825569153e-01" purity="6.0078501701354980e-01" nType="0">
              <Node pos="l" depth="4" NCoef="0" IVar="-1" Cut="0.0000000000000000e+00" cType="1" res="-2.5176147464662790e-03" rms="4.4595155119895935e-01" purity="4.7922074794769287e-01" nType="-99"/>
              <Node pos="r" depth="4" NCoef="0" IVar="-1" Cut="0.0000000000000000e+00" cType="1" res="1.7583601176738739e-02" rms="4.2290356755256653e-01" purity="6.6366922855377197e-01" nType="-99"/>
            </Node>
          </Node>
          <Node pos="r" depth="2" NCoef="0" IVar="1" Cut="1.4992479979991913e-01" cType="1" res="5.1872368901968002e-02" rms="4.2332640290260315e-01" purity="6.7773181200027466e-01" nType="0">
            <Node pos="l" depth="3" NCoef="0" IVar="-1" Cut="0.0000000000000000e+00" cType="1" res="9.4182388857007027e-03" rms="4.2832872271537781e-01" purity="6.6787153482437134e-01" nType="-99"/>
            <Node pos="r" depth="3" NCoef="0" IVar="-1" Cut="0.0000000000000000e+00" cType="1" res="1.8713487312197685e-02" rms="4.1713151335716248e-01" purity="6.8849426507949829e-01" nType="-99"/>
          </Node>
        </Node>
      </Node>
    </BinaryTree>
    <BinaryTree type="DecisionTree" boostWeight="1.0000000000000000e+00" itree="41">
      <Node pos="s" depth="0" NCoef="0" IVar="6" Cut="4.8495942354202271e-01" cType="1" res="0.0000000000000000e+00" rms="0.0000000000000000e+00" purity="5.0571304559707642e-01" nType="0">
        <Node pos="l" depth="1" NCoef="0" IVar="-1" Cut="0.0000000000000000e+00" cType="1" res="-1.5241179615259171e-02" rms="4.5212820172309875e-01" purity="3.3861556649208069e-01" nType="-99"/>
        <Node pos="r" depth="1" NCoef="0" IVar="7" Cut="2.1294058227539062e+02" cType="1" res="1.7413763329386711e-02" rms="4.2328062653541565e-01" purity="5.2470749616622925e-01" nType="0">
          <Node pos="l" depth="2" NCoef="0" IVar="0" Cut="1.8227229687500000e+05" cType="1" res="-6.7152976989746094e-03" rms="4.2131054401397705e-01" purity="3.6611264944076538e-01" nType="0">
            <Node pos="l" depth="3" NCoef="0" IVar="-1" Cut="0.0000000000000000e+00" cType="1" res="5.4743518121540546e-03" rms="4.8300474882125854e-01" purity="5.5883294343948364e-01" nType="-99"/>
            <Node pos="r" depth="3" NCoef="0" IVar="6" Cut="7.0350122451782227e-01" cType="1" res="-3.3266995102167130e-02" rms="3.7833830714225769e-01" purity="2.5403556227684021e-01" nType="0">
              <Node pos="l" depth="4" NCoef="0" IVar="-1" Cut="0.0000000000000000e+00" cType="1" res="1.2475020484998822e-03" rms="4.0209916234016418e-01" purity="3.1312358379364014e-01" nType="-99"/>
              <Node pos="r" depth="4" NCoef="0" IVar="-1" Cut="0.0000000000000000e+00" cType="1" res="-2.4026812985539436e-02" rms="3.5061392188072205e-01" purity="1.9781981408596039e-01" nType="-99"/>
            </Node>
          </Node>
          <Node pos="r" depth="2" NCoef="0" IVar="2" Cut="1.1801731586456299e+00" cType="1" res="3.6520317196846008e-02" rms="4.2386081814765930e-01" purity="6.5029048919677734e-01" nType="0">
            <Node pos="l" depth="3" NCoef="0" IVar="-1" Cut="0.0000000000000000e+00" cType="1" res="-2.4488847702741623e-03" rms="4.2706319689750671e-01" purity="4.5374211668968201e-01" nType="-99"/>
            <Node pos="r" depth="3" NCoef="0" IVar="9" Cut="4.0000000000000000e+00" cType="1" res="5.0045125186443329e-02" rms="4.2164891958236694e-01" purity="7.1009755134582520e-01" nType="0">
              <Node pos="l" depth="4" NCoef="0" IVar="-1" Cut="0.0000000000000000e+00" cType="1" res="1.0170001536607742e-02" rms="4.3294891715049744e-01" purity="6.8439984321594238e-01" nType="-99"/>
              <Node pos="r" depth="4" NCoef="0" IVar="-1" Cut="0.0000000000000000e+00" cType="1" res="2.6122894138097763e-02" rms="3.9247938990592957e-01" purity="7.7179664373397827e-01" nType="-99"/>
            </Node>
          </Node>
        </Node>
      </Node>
    </BinaryTree>
    <BinaryTree type="DecisionTree" boostWeight="1.0000000000000000e+00" itree="42">
      <Node pos="s" depth="0" NCoef="0" IVar="1" Cut="2.2438879013061523e+00" cType="1" res="3.7120729684829712e-03" rms="4.2786154150962830e-01" purity="5.0386947393417358e-01" nType="0">
        <Node pos="l" depth="1" NCoef="0" IVar="6" Cut="6.5444153547286987e-01" cType="1" res="0.0000000000000000e+00" rms="0.0000000000000000e+00" purity="4.9061158299446106e-01" nType="0">
          <Node pos="l" depth="2" NCoef="0" IVar="9" Cut="4.0000000000000000e+00" cType="1" res="-2.3457773029804230e-02" rms="4.4651007652282715e-01" purity="4.8165497183799744e-01" nType="0">
            <Node pos="l" depth="3" NCoef="0" IVar="6" Cut="5.5760008096694946e-01" cType="1" res="-3.9313826709985733e-02" rms="4.5009806752204895e-01" purity="4.3184131383895874e-01" nType="0">
              <Node pos="l" depth="4" NCoef="0" IVar="-1" Cut="0.0000000000000000e+00" cType="1" res="-1.8139237537980080e-02" rms="4.5457425713539124e-01" purity="3.3668681979179382e-01" nType="-99"/>
              <Node pos="r" depth="4" NCoef="0" IVar="-1" Cut="0.0000000000000000e+00" cType="1" res="-3.3755288459360600e-03" rms="4.4505947828292847e-01" purity="5.0790673494338989e-01" nType="-99"/>
            </Node>
            <Node pos="r" depth="3" NCoef="0" IVar="-1" Cut="0.0000000000000000e+00" cType="1" res="2.0577821414917707e-03" rms="4.3780440092086792e-01" purity="5.7857304811477661e-01" nType="-99"/>
          </Node>
          <Node pos="r" depth="2" NCoef="0" IVar="8" Cut="2.9921889305114746e+00" cType="1" res="1.2550268322229385e-02" rms="4.0711411833763123e-01" purity="4.9992358684539795e-01" nType="0">
            <Node pos="l" depth="3" NCoef="0" IVar="-1" Cut="0.0000000000000000e+00" cType="1" res="-1.1453633196651936e-02" rms="4.3130522966384888e-01" purity="4.3416011333465576e-01" nType="-99"/>
            <Node pos="r" depth="3" NCoef="0" IVar="6" Cut="7.5141167640686035e-01" cType="1" res="0.0000000000000000e+00" rms="0.0000000000000000e+00" purity="5.4045158624649048e-01" nType="0">
              <Node pos="l" depth="4" NCoef="0" IVar="-1" Cut="0.0000000000000000e+00" cType="1" res="2.4282859638333321e-02" rms="3.9406573772430420e-01" purity="6.4378023147583008e-01" nType="-99"/>
              <Node pos="r" depth="4" NCoef="0" IVar="-1" Cut="0.0000000000000000e+00" cType="1" res="2.4214261211454868e-03" rms="3.7714567780494690e-01" purity="4.3898594379425049e-01" nType="-99"/>
            </Node>
          </Node>
        </Node>
        <Node pos="r" depth="1" NCoef="0" IVar="6" Cut="6.2634295225143433e-01" cType="1" res="0.0000000000000000e+00" rms="0.0000000000000000e+00" purity="5.5064427852630615e-01" nType="0">
          <Node pos="l" depth="2" NCoef="0" IVar="-1" Cut="0.0000000000000000e+00" cType="1" res="5.4365950636565685e-03" rms="4.4190913438796997e-01" purity="4.8189768195152283e-01" nType="-99"/>
          <Node pos="r" depth="2" NCoef="0" IVar="-1" Cut="0.0000000000000000e+00" cType="1" res="1.9364742562174797e-02" rms="4.0847292542457581e-01" purity="6.1714625358581543e-01" nType="-99"/>
        </Node>
      </Node>
    </BinaryTree>
    <BinaryTree type="DecisionTree" boostWeight="1.0000000000000000e+00" itree="43">
      <Node pos="s" depth="0" NCoef="0" IVar="3" Cut="5.9089597656250000e+04" cType="1" res="6.1873462982475758e-05" rms="4.2623847723007202e-01" purity="4.9894437193870544e-01" nType="0">
        <Node pos="l" depth="1" NCoef="0" IVar="2" Cut="1.9368040561676025e+00" cType="1" res="0.0000000000000000e+00" rms="0.0000000000000000e+00" purity="3.5912984609603882e-01" nType="0">
          <Node pos="l" depth="2" NCoef="0" IVar="-1" Cut="0.0000000000000000e+00" cType="1" res="-3.0071774497628212e-02" rms="3.6054149270057678e-01" purity="2.4478802084922791e-01" nType="-99"/>
          <Node pos="r" depth="2" NCoef="0" IVar="-1" Cut="0.0000000000000000e+00" cType="1" res="3.9037407841533422e-03" rms="4.4625541567802429e-01" purity="4.7306358814239502e-01" nType="-99"/>
        </Node>
        <Node pos="r" depth="1" NCoef="0" IVar="8" Cut="2.8006055355072021e+00" cType="1" res="7.7574346214532852e-03" rms="4.3068340420722961e-01" purity="5.3644657135009766e-01" nType="0">
          <Node pos="l" depth="2" NCoef="0" IVar="-1" Cut="0.0000000000000000e+00" cType="1" res="1.0951172560453415e-02" rms="4.7086316347122192e-01" purity="5.2933835983276367e-01" nType="-99"/>
          <Node pos="r" depth="2" NCoef="0" IVar="6" Cut="5.4120904207229614e-01" cType="1" res="3.9629088132642210e-04" rms="4.2172810435295105e-01" purity="5.3788125514984131e-01" nType="0">
            <Node pos="l" depth="3" NCoef="0" IVar="-1" Cut="0.0000000000000000e+00" cType="1" res="-1.4043101109564304e-02" rms="4.4505929946899414e-01" purity="3.7165972590446472e-01" nType="-99"/>
            <Node pos="r" depth="3" NCoef="0" IVar="9" Cut="3.0000000000000000e+00" cType="1" res="1.5996748581528664e-02" rms="4.1348582506179810e-01" purity="5.8303272724151611e-01" nType="0">
              <Node pos="l" depth="4" NCoef="0" IVar="-1" Cut="0.0000000000000000e+00" cType="1" res="-1.1240023886784911e-03" rms="4.3082651495933533e-01" purity="4.7837954759597778e-01" nType="-99"/>
              <Node pos="r" depth="4" NCoef="0" IVar="-1" Cut="0.0000000000000000e+00" cType="1" res="1.0830209590494633e-02" rms="3.9611765742301941e-01" purity="6.8149155378341675e-01" nType="-99"/>
            </Node>
          </Node>
        </Node>
      </Node>
    </BinaryTree>
    <BinaryTree type="DecisionTree" boostWeight="1.0000000000000000e+00" itree="44">
      <Node pos="s" depth="0" NCoef="0" IVar="6" Cut="7.6755893230438232e-01" cType="1" res="0.0000000000000000e+00" rms="0.0000000000000000e+00" purity="5.0112217664718628e-01" nType="0">
        <Node pos="l" depth="1" NCoef="0" IVar="5" Cut="2.3723602294921875e+02" cType="1" res="1.1000841856002808e-02" rms="4.2999553680419922e-01" purity="5.2965193986892700e-01" nType="0">
          <Node pos="l" depth="2" NCoef="0" IVar="1" Cut="-1.3466221094131470e+00" cType="1" res="0.0000000000000000e+00" rms="0.0000000000000000e+00" purity="5.5405020713806152e-01" nType="0">
            <Node pos="l" depth="3" NCoef="0" IVar="3" Cut="8.6333328125000000e+04" cType="1" res="4.6850711107254028e-02" rms="4.2656910419464111e-01" purity="5.8731323480606079e-01" nType="0">
              <Node pos="l" depth="4" NCoef="0" IVar="-1" Cut="0.0000000000000000e+00" cType="1" res="5.6199938990175724e-03" rms="4.2617034912109375e-01" purity="5.1709628105163574e-01" nType="-99"/>
              <Node pos="r" depth="4" NCoef="0" IVar="-1" Cut="0.0000000000000000e+00" cType="1" res="1.5538038685917854e-02" rms="4.2542663216590881e-01" purity="6.5393525362014771e-01" nType="-99"/>
            </Node>
            <Node pos="r" depth="3" NCoef="0" IVar="5" Cut="1.7526289367675781e+02" cType="1" res="4.8935506492853165e-03" rms="4.2794698476791382e-01" purity="5.3400319814682007e-01" nType="0">
              <Node pos="l" depth="4" NCoef="0" IVar="-1" Cut="0.0000000000000000e+00" cType="1" res="1.2997266836464405e-02" rms="4.2298054695129395e-01" purity="5.8931863307952881e-01" nType="-99"/>
              <Node pos="r" depth="4" NCoef="0" IVar="-1" Cut="0.0000000000000000e+00" cType="1" res="-8.5307201370596886e-03" rms="4.3036374449729919e-01" purity="4.7450751066207886e-01" nType="-99"/>
            </Node>
          </Node>
          <Node pos="r" depth="2" NCoef="0" IVar="-1" Cut="0.0000000000000000e+00" cType="1" res="-6.5100849606096745e-03" rms="4.3510931730270386e-01" purity="4.5242905616760254e-01" nType="-99"/>
        </Node>
        <Node pos="r" depth="1" NCoef="0" IVar="-1" Cut="0.0000000000000000e+00" cType="1" res="-1.1043740436434746e-02" rms="3.9470365643501282e-01" purity="3.7501496076583862e-01" nType="-99"/>
      </Node>
    </BinaryTree>
    <BinaryTree type="DecisionTree" boostWeight="1.0000000000000000e+00" itree="45">
      <Node pos="s" depth="0" NCoef="0" IVar="6" Cut="4.8501980304718018e-01" cType="1" res="-1.1765563860535622e-02" rms="4.2559134960174561e-01" purity="4.8821237683296204e-01" nType="0">
        <Node pos="l" depth="1" NCoef="0" IVar="-1" Cut="0.0000000000000000e+00" cType="1" res="-1.4522464014589787e-02" rms="4.4467836618423462e-01" purity="3.1779268383979797e-01" nType="-99"/>
        <Node pos="r" depth="1" NCoef="0" IVar="3" Cut="1.0350183593750000e+05" cType="1" res="-5.4803239181637764e-03" rms="4.2277997732162476e-01" purity="5.0894576311111450e-01" nType="0">
          <Node pos="l" depth="2" NCoef="0" IVar="5" Cut="1.9191612243652344e+02" cType="1" res="-1.7562836408615112e-02" rms="4.1846653819084167e-01" purity="4.6640670299530029e-01" nType="0">
            <Node pos="l" depth="3" NCoef="0" IVar="1" Cut="-1.9432406425476074e+00" cType="1" res="1.5339943347498775e-03" rms="4.1539186239242554e-01" purity="5.1059830188751221e-01" nType="0">
              <Node pos="l" depth="4" NCoef="0" IVar="-1" Cut="0.0000000000000000e+00" cType="1" res="1.7041817307472229e-02" rms="4.0631484985351562e-01" purity="5.9615761041641235e-01" nType="-99"/>
              <Node pos="r" depth="4" NCoef="0" IVar="-1" Cut="0.0000000000000000e+00" cType="1" res="-6.8359673023223877e-03" rms="4.1685804724693298e-01" purity="4.7828269004821777e-01" nType="-99"/>
            </Node>
            <Node pos="r" depth="3" NCoef="0" IVar="2" Cut="1.6626005172729492e+00" cType="1" res="-4.8039417713880539e-02" rms="4.2153894901275635e-01" purity="3.9588141441345215e-01" nType="0">
              <Node pos="l" depth="4" NCoef="0" IVar="-1" Cut="0.0000000000000000e+00" cType="1" res="-3.3060938119888306e-02" rms="3.7554925680160522e-01" purity="2.8560757637023926e-01" nType="-99"/>
              <Node pos="r" depth="4" NCoef="0" IVar="-1" Cut="0.0000000000000000e+00" cType="1" res="-4.4127725996077061e-03" rms="4.4987908005714417e-01" purity="4.7336637973785400e-01" nType="-99"/>
            </Node>
          </Node>
          <Node pos="r" depth="2" NCoef="0" IVar="1" Cut="4.4884401559829712e-01" cType="1" res="2.3860538378357887e-02" rms="4.3167030811309814e-01" purity="6.1224651336669922e-01" nType="0">
            <Node pos="l" depth="3" NCoef="0" IVar="-1" Cut="0.0000000000000000e+00" cType="1" res="5.5328917369479313e-05" rms="4.2126819491386414e-01" purity="5.8546882867813110e-01" nType="-99"/>
            <Node pos="r" depth="3" NCoef="0" IVar="-1" Cut="0.0000000000000000e+00" cType="1" res="1.2970127165317535e-02" rms="4.4068300724029541e-01" purity="6.3943892717361450e-01" nType="-99"/>
          </Node>
        </Node>
      </Node>
    </BinaryTree>
    <BinaryTree type="DecisionTree" boostWeight="1.0000000000000000e+00" itree="46">
      <Node pos="s" depth="0" NCoef="0" IVar="7" Cut="4.1240689086914062e+02" cType="1" res="1.0844589211046696e-02" rms="4.2511543631553650e-01" purity="5.0852555036544800e-01" nType="0">
        <Node pos="l" depth="1" NCoef="0" IVar="2" Cut="1.3729324340820312e+00" cType="1" res="2.5672591291368008e-03" rms="4.2753767967224121e-01" purity="4.8098745942115784e-01" nType="0">
          <Node pos="l" depth="2" NCoef="0" IVar="0" Cut="2.2455203125000000e+05" cType="1" res="-2.0257510244846344e-02" rms="3.9021810889244080e-01" purity="3.1406980752944946e-01" nType="0">
            <Node pos="l" depth="3" NCoef="0" IVar="-1" Cut="0.0000000000000000e+00" cType="1" res="4.7340858727693558e-03" rms="4.6083465218544006e-01" purity="4.8122528195381165e-01" nType="-99"/>
            <Node pos="r" depth="3" NCoef="0" IVar="-1" Cut="0.0000000000000000e+00" cType="1" res="-3.9377827197313309e-02" rms="2.7670004963874817e-01" purity="1.1280006170272827e-01" nType="-99"/>
          </Node>
          <Node pos="r" depth="2" NCoef="0" IVar="6" Cut="6.5040189027786255e-01" cType="1" res="1.3135874643921852e-02" rms="4.4335821270942688e-01" purity="5.5827587842941284e-01" nType="0">
            <Node pos="l" depth="3" NCoef="0" IVar="1" Cut="1.3439644575119019e+00" cType="1" res="0.0000000000000000e+00" rms="0.0000000000000000e+00" purity="5.2173388004302979e-01" nType="0">
              <Node pos="l" depth="4" NCoef="0" IVar="-1" Cut="0.0000000000000000e+00" cType="1" res="-3.5057871718890965e-04" rms="4.5719763636589050e-01" purity="5.3436595201492310e-01" nType="-99"/>
              <Node pos="r" depth="4" NCoef="0" IVar="-1" Cut="0.0000000000000000e+00" cType="1" res="-1.0208820924162865e-02" rms="4.6534857153892517e-01" purity="4.9944263696670532e-01" nType="-99"/>
            </Node>
            <Node pos="r" depth="3" NCoef="0" IVar="6" Cut="7.6130944490432739e-01" cType="1" res="3.8807231932878494e-02" rms="4.2513167858123779e-01" purity="5.9241253137588501e-01" nType="0">
              <Node pos="l" depth="4" NCoef="0" IVar="-1" Cut="0.0000000000000000e+00" cType="1" res="1.5287183225154877e-02" rms="4.2158022522926331e-01" purity="6.5546309947967529e-01" nType="-99"/>
              <Node pos="r" depth="4" NCoef="0" IVar="-1" Cut="0.0000000000000000e+00" cType="1" res="2.4229316040873528e-03" rms="4.2899873852729797e-01" purity="4.8983800411224365e-01" nType="-99"/>
            </Node>
          </Node>
        </Node>
        <Node pos="r" depth="1" NCoef="0" IVar="-1" Cut="0.0000000000000000e+00" cType="1" res="1.8292890861630440e-02" rms="4.0381923317909241e-01" purity="6.9555896520614624e-01" nType="-99"/>
      </Node>
    </BinaryTree>
    <BinaryTree type="DecisionTree" boostWeight="1.0000000000000000e+00" itree="47">
      <Node pos="s" depth="0" NCoef="0" IVar="2" Cut="2.2614943981170654e+00" cType="1" res="1.0524511337280273e-02" rms="4.2582106590270996e-01" purity="5.1280272006988525e-01" nType="0">
        <Node pos="l" depth="1" NCoef="0" IVar="1" Cut="1.0471202135086060e+00" cType="1" res="-4.3334611691534519e-03" rms="4.1690585017204285e-01" purity="4.6789160370826721e-01" nType="0">
          <Node pos="l" depth="2" NCoef="0" IVar="8" Cut="2.9959723949432373e+00" cType="1" res="-2.5100924074649811e-02" rms="4.1576084494590759e-01" purity="4.3480634689331055e-01" nType="0">
            <Node pos="l" depth="3" NCoef="0" IVar="-1" Cut="0.0000000000000000e+00" cType="1" res="-1.7154144123196602e-02" rms="4.2423415184020996e-01" purity="3.9482855796813965e-01" nType="-99"/>
            <Node pos="r" depth="3" NCoef="0" IVar="-1" Cut="0.0000000000000000e+00" cType="1" res="-1.0620685061439872e-03" rms="4.0769582986831665e-01" purity="4.6734100580215454e-01" nType="-99"/>
          </Node>
          <Node pos="r" depth="2" NCoef="0" IVar="9" Cut="3.0000000000000000e+00" cType="1" res="2.7096014469861984e-02" rms="4.1648447513580322e-01" purity="5.1839798688888550e-01" nType="0">
            <Node pos="l" depth="3" NCoef="0" IVar="-1" Cut="0.0000000000000000e+00" cType="1" res="1.4544350095093250e-02" rms="4.3084987998008728e-01" purity="4.8493036627769470e-01" nType="-99"/>
            <Node pos="r" depth="3" NCoef="0" IVar="-1" Cut="0.0000000000000000e+00" cType="1" res="2.6166441384702921e-03" rms="4.0178659558296204e-01" purity="5.5033648014068604e-01" nType="-99"/>
          </Node>
        </Node>
        <Node pos="r" depth="1" NCoef="0" IVar="4" Cut="6.2996781250000000e+04" cType="1" res="0.0000000000000000e+00" rms="0.0000000000000000e+00" purity="5.8386802673339844e-01" nType="0">
          <Node pos="l" depth="2" NCoef="0" IVar="1" Cut="-1.4894983172416687e-01" cType="1" res="2.0445438101887703e-02" rms="4.4413468241691589e-01" purity="5.2570968866348267e-01" nType="0">
            <Node pos="l" depth="3" NCoef="0" IVar="-1" Cut="0.0000000000000000e+00" cType="1" res="9.3358056619763374e-03" rms="4.4979870319366455e-01" purity="5.4386365413665771e-01" nType="-99"/>
            <Node pos="r" depth="3" NCoef="0" IVar="-1" Cut="0.0000000000000000e+00" cType="1" res="2.1700893994420767e-03" rms="4.3819126486778259e-01" purity="5.0833392143249512e-01" nType="-99"/>
          </Node>
          <Node pos="r" depth="2" NCoef="0" IVar="-1" Cut="0.0000000000000000e+00" cType="1" res="1.3408232480287552e-02" rms="4.3031466007232666e-01" purity="6.6110557317733765e-01" nType="-99"/>
        </Node>
      </Node>
    </BinaryTree>
    <BinaryTree type="DecisionTree" boostWeight="1.0000000000000000e+00" itree="48">
      <Node pos="s" depth="0" NCoef="0" IVar="4" Cut="6.8494265625000000e+04" cType="1" res="0.0000000000000000e+00" rms="0.0000000000000000e+00" purity="4.9696585536003113e-01" nType="0">
        <Node pos="l" depth="1" NCoef="0" IVar="4" Cut="3.5525820312500000e+04" cType="1" res="-1.7390819266438484e-02" rms="4.2575719952583313e-01" purity="4.2751687765121460e-01" nType="0">
          <Node pos="l" depth="2" NCoef="0" IVar="-1" Cut="0.0000000000000000e+00" cType="1" res="-2.2598715499043465e-02" rms="3.8511621952056885e-01" purity="2.6054599881172180e-01" nType="-99"/>
          <Node pos="r" depth="2" NCoef="0" IVar="8" Cut="3.0026557445526123e+00" cType="1" res="-4.6265958808362484e-03" rms="4.3373748660087585e-01" purity="4.6661967039108276e-01" nType="0">
            <Node pos="l" depth="3" NCoef="0" IVar="2" Cut="1.9484746456146240e+00" cType="1" res="5.5921832099556923e-03" rms="4.4333687424659729e-01" purity="4.5404702425003052e-01" nType="0">
              <Node pos="l" depth="4" NCoef="0" IVar="-1" Cut="0.0000000000000000e+00" cType="1" res="-6.1120507307350636e-03" rms="4.2891785502433777e-01" purity="3.4631371498107910e-01" nType="-99"/>
              <Node pos="r" depth="4" NCoef="0" IVar="-1" Cut="0.0000000000000000e+00" cType="1" res="9.2071024700999260e-03" rms="4.5586299896240234e-01" purity="5.6271272897720337e-01" nType="-99"/>
            </Node>
            <Node pos="r" depth="3" NCoef="0" IVar="6" Cut="6.8412077426910400e-01" cType="1" res="-1.5773665159940720e-02" rms="4.2273613810539246e-01" purity="4.8033443093299866e-01" nType="0">
              <Node pos="l" depth="4" NCoef="0" IVar="-1" Cut="0.0000000000000000e+00" cType="1" res="-1.0480480268597603e-02" rms="4.3012040853500366e-01" purity="4.6225735545158386e-01" nType="-99"/>
              <Node pos="r" depth="4" NCoef="0" IVar="-1" Cut="0.0000000000000000e+00" cType="1" res="6.2282877042889595e-03" rms="4.1373825073242188e-01" purity="4.9615839123725891e-01" nType="-99"/>
            </Node>
          </Node>
        </Node>
        <Node pos="r" depth="1" NCoef="0" IVar="1" Cut="1.3475321531295776e+00" cType="1" res="3.3891927450895309e-02" rms="4.3296507000923157e-01" purity="6.2545263767242432e-01" nType="0">
          <Node pos="l" depth="2" NCoef="0" IVar="-1" Cut="0.0000000000000000e+00" cType="1" res="4.0846541523933411e-03" rms="4.3915343284606934e-01" purity="6.0424590110778809e-01" nType="-99"/>
          <Node pos="r" depth="2" NCoef="0" IVar="-1" Cut="0.0000000000000000e+00" cType="1" res="1.9524414092302322e-02" rms="4.2123091220855713e-01" purity="6.5949946641921997e-01" nType="-99"/>
        </Node>
      </Node>
    </BinaryTree>
    <BinaryTree type="DecisionTree" boostWeight="1.0000000000000000e+00" itree="49">
      <Node pos="s" depth="0" NCoef="0" IVar="6" Cut="4.8492011427879333e-01" cType="1" res="-9.3244658783078194e-03" rms="4.2856171727180481e-01" purity="4.8581364750862122e-01" nType="0">
        <Node pos="l" depth="1" NCoef="0" IVar="-1" Cut="0.0000000000000000e+00" cType="1" res="-1.1920210905373096e-02" rms="4.4747668504714966e-01" purity="3.2348105311393738e-01" nType="-99"/>
        <Node pos="r" depth="1" NCoef="0" IVar="3" Cut="1.1344801562500000e+05" cType="1" res="-3.0683928634971380e-03" rms="4.2568081617355347e-01" purity="5.0653600692749023e-01" nType="0">
          <Node pos="l" depth="2" NCoef="0" IVar="8" Cut="2.8244261741638184e+00" cType="1" res="-1.3197696767747402e-02" rms="4.2409196496009827e-01" purity="4.6834623813629150e-01" nType="0">
            <Node pos="l" depth="3" NCoef="0" IVar="-1" Cut="0.0000000000000000e+00" cType="1" res="-1.8024774268269539e-02" rms="4.4988673925399780e-01" purity="4.0956830978393555e-01" nType="-99"/>
            <Node pos="r" depth="3" NCoef="0" IVar="1" Cut="-1.6452562808990479e+00" cType="1" res="0.0000000000000000e+00" rms="0.0000000000000000e+00" purity="4.7849416732788086e-01" nType="0">
              <Node pos="l" depth="4" NCoef="0" IVar="-1" Cut="0.0000000000000000e+00" cType="1" res="9.1047463938593864e-03" rms="4.2328673601150513e-01" purity="5.3398030996322632e-01" nType="-99"/>
              <Node pos="r" depth="4" NCoef="0" IVar="-1" Cut="0.0000000000000000e+00" cType="1" res="-6.0278242453932762e-03" rms="4.1583910584449768e-01" purity="4.5342537760734558e-01" nType="-99"/>
            </Node>
          </Node>
          <Node pos="r" depth="2" NCoef="0" IVar="-1" Cut="0.0000000000000000e+00" cType="1" res="9.3314955011010170e-03" rms="4.2926669120788574e-01" purity="6.3708323240280151e-01" nType="-99"/>
        </Node>
      </Node>
    </BinaryTree>
    <BinaryTree type="DecisionTree" boostWeight="1.0000000000000000e+00" itree="50">
      <Node pos="s" depth="0" NCoef="0" IVar="1" Cut="-2.5427663326263428e+00" cType="1" res="0.0000000000000000e+00" rms="0.0000000000000000e+00" purity="4.9622088670730591e-01" nType="0">
        <Node pos="l" depth="1" NCoef="0" IVar="-1" Cut="0.0000000000000000e+00" cType="1" res="6.1307628639042377e-03" rms="4.2766848206520081e-01" purity="5.2383565902709961e-01" nType="-99"/>
        <Node pos="r" depth="1" NCoef="0" IVar="1" Cut="2.3295037746429443e+00" cType="1" res="-5.3630322217941284e-03" rms="4.2652127146720886e-01" purity="4.9070870876312256e-01" nType="0">
          <Node pos="l" depth="2" NCoef="0" IVar="8" Cut="2.9957368373870850e+00" cType="1" res="-1.4249839819967747e-02" rms="4.2952221632003784e-01" purity="4.7680443525314331e-01" nType="0">
            <Node pos="l" depth="3" NCoef="0" IVar="7" Cut="2.5494848632812500e+02" cType="1" res="-3.3672176301479340e-02" rms="4.3928039073944092e-01" purity="4.3531629443168640e-01" nType="0">
              <Node pos="l" depth="4" NCoef="0" IVar="-1" Cut="0.0000000000000000e+00" cType="1" res="-1.7535112798213959e-02" rms="4.1948527097702026e-01" purity="3.2009920477867126e-01" nType="-99"/>
              <Node pos="r" depth="4" NCoef="0" IVar="-1" Cut="0.0000000000000000e+00" cType="1" res="-3.0748988501727581e-03" rms="4.5412147045135498e-01" purity="5.3262096643447876e-01" nType="-99"/>
            </Node>
            <Node pos="r" depth="3" NCoef="0" IVar="1" Cut="-6.8739122152328491e-01" cType="1" res="4.1910251602530479e-03" rms="4.1921547055244446e-01" purity="5.1619601249694824e-01" nType="0">
              <Node pos="l" depth="4" NCoef="0" IVar="-1" Cut="0.0000000000000000e+00" cType="1" res="1.1357150040566921e-02" rms="4.1961076855659485e-01" purity="5.7148718833923340e-01" nType="-99"/>
              <Node pos="r" depth="4" NCoef="0" IVar="-1" Cut="0.0000000000000000e+00" cType="1" res="-5.7073961943387985e-03" rms="4.1753095388412476e-01" purity="4.7703590989112854e-01" nType="-99"/>
            </Node>
          </Node>
          <Node pos="r" depth="2" NCoef="0" IVar="-1" Cut="0.0000000000000000e+00" cType="1" res="6.8863886408507824e-03" rms="4.1596928238868713e-01" purity="5.3346824645996094e-01" nType="-99"/>
        </Node>
      </Node>
    </BinaryTree>
    <BinaryTree type="DecisionTree" boostWeight="1.0000000000000000e+00" itree="51">
      <Node pos="s" depth="0" NCoef="0" IVar="2" Cut="7.5834423303604126e-01" cType="1" res="1.7217075452208519e-02" rms="4.2579951882362366e-01" purity="5.1595652103424072e-01" nType="0">
        <Node pos="l" depth="1" NCoef="0" IVar="-1" Cut="0.0000000000000000e+00" cType="1" res="-1.3015105389058590e-02" rms="3.5782599449157715e-01" purity="2.4148879945278168e-01" nType="-99"/>
        <Node pos="r" depth="1" NCoef="0" IVar="7" Cut="3.7619180297851562e+02" cType="1" res="0.0000000000000000e+00" rms="0.0000000000000000e+00" purity="5.5576926469802856e-01" nType="0">
          <Node pos="l" depth="2" NCoef="0" IVar="8" Cut="3.1015677452087402e+00" cType="1" res="0.0000000000000000e+00" rms="0.0000000000000000e+00" purity="5.2131217718124390e-01" nType="0">
            <Node pos="l" depth="3" NCoef="0" IVar="3" Cut="5.4588378906250000e+04" cType="1" res="0.0000000000000000e+00" rms="0.0000000000000000e+00" purity="5.2419340610504150e-01" nType="0">
              <Node pos="l" depth="4" NCoef="0" IVar="-1" Cut="0.0000000000000000e+00" cType="1" res="9.9106621928513050e-04" rms="4.1616320610046387e-01" purity="3.6320170760154724e-01" nType="-99"/>
              <Node pos="r" depth="4" NCoef="0" IVar="-1" Cut="0.0000000000000000e+00" cType="1" res="8.4305545315146446e-03" rms="4.4743007421493530e-01" purity="5.6215626001358032e-01" nType="-99"/>
            </Node>
            <Node pos="r" depth="3" NCoef="0" IVar="-1" Cut="0.0000000000000000e+00" cType="1" res="-9.0731959789991379e-03" rms="4.2759093642234802e-01" purity="5.0474137067794800e-01" nType="-99"/>
          </Node>
          <Node pos="r" depth="2" NCoef="0" IVar="-1" Cut="0.0000000000000000e+00" cType="1" res="1.7676468938589096e-02" rms="4.0496292710304260e-01" purity="7.1892291307449341e-01" nType="-99"/>
        </Node>
      </Node>
    </BinaryTree>
    <BinaryTree type="DecisionTree" boostWeight="1.0000000000000000e+00" itree="52">
      <Node pos="s" depth="0" NCoef="0" IVar="5" Cut="2.0194102478027344e+02" cType="1" res="1.9731661304831505e-03" rms="4.2644116282463074e-01" purity="5.0199580192565918e-01" nType="0">
        <Node pos="l" depth="1" NCoef="0" IVar="3" Cut="1.1249106250000000e+05" cType="1" res="1.4668270014226437e-02" rms="4.2079353332519531e-01" purity="5.4454624652862549e-01" nType="0">
          <Node pos="l" depth="2" NCoef="0" IVar="0" Cut="2.6042134375000000e+05" cType="1" res="1.5871830983087420e-03" rms="4.1883876919746399e-01" purity="5.0524139404296875e-01" nType="0">
            <Node pos="l" depth="3" NCoef="0" IVar="5" Cut="1.6650454711914062e+02" cType="1" res="1.9680732861161232e-02" rms="4.4441092014312744e-01" purity="6.0901951789855957e-01" nType="0">
              <Node pos="l" depth="4" NCoef="0" IVar="-1" Cut="0.0000000000000000e+00" cType="1" res="1.2054770253598690e-02" rms="4.3951702117919922e-01" purity="6.3452327251434326e-01" nType="-99"/>
              <Node pos="r" depth="4" NCoef="0" IVar="-1" Cut="0.0000000000000000e+00" cType="1" res="-1.2900984147563577e-03" rms="4.4731846451759338e-01" purity="5.8622682094573975e-01" nType="-99"/>
            </Node>
            <Node pos="r" depth="3" NCoef="0" IVar="-1" Cut="0.0000000000000000e+00" cType="1" res="-3.2198403030633926e-02" rms="3.1042516231536865e-01" purity="1.5615139901638031e-01" nType="-99"/>
          </Node>
          <Node pos="r" depth="2" NCoef="0" IVar="-1" Cut="0.0000000000000000e+00" cType="1" res="1.6841921955347061e-02" rms="4.2445379495620728e-01" purity="6.8937104940414429e-01" nType="-99"/>
        </Node>
        <Node pos="r" depth="1" NCoef="0" IVar="6" Cut="6.5170049667358398e-01" cType="1" res="-1.8391687422990799e-02" rms="4.3457388877868652e-01" purity="4.3373858928680420e-01" nType="0">
          <Node pos="l" depth="2" NCoef="0" IVar="8" Cut="2.9567379951477051e+00" cType="1" res="-5.1944639533758163e-02" rms="4.3697261810302734e-01" purity="3.7940779328346252e-01" nType="0">
            <Node pos="l" depth="3" NCoef="0" IVar="-1" Cut="0.0000000000000000e+00" cType="1" res="-6.5275835804641247e-03" rms="4.4354686141014099e-01" purity="3.8059368729591370e-01" nType="-99"/>
            <Node pos="r" depth="3" NCoef="0" IVar="-1" Cut="0.0000000000000000e+00" cType="1" res="-1.1828488670289516e-02" rms="4.2916855216026306e-01" purity="3.7833738327026367e-01" nType="-99"/>
          </Node>
          <Node pos="r" depth="2" NCoef="0" IVar="-1" Cut="0.0000000000000000e+00" cType="1" res="7.1462751366198063e-03" rms="4.2723360657691956e-01" purity="5.0649356842041016e-01" nType="-99"/>
        </Node>
      </Node>
    </BinaryTree>
    <BinaryTree type="DecisionTree" boostWeight="1.0000000000000000e+00" itree="53">
      <Node pos="s" depth="0" NCoef="0" IVar="1" Cut="1.3461626768112183e+00" cType="1" res="-4.8257955349981785e-03" rms="4.2570763826370239e-01" purity="4.9560406804084778e-01" nType="0">
        <Node pos="l" depth="1" NCoef="0" IVar="7" Cut="1.3705630493164062e+02" cType="1" res="-1.6884066164493561e-02" rms="4.2291262745857239e-01" purity="4.7257259488105774e-01" nType="0">
          <Node pos="l" depth="2" NCoef="0" IVar="-1" Cut="0.0000000000000000e+00" cType="1" res="-9.5386998727917671e-03" rms="3.8213613629341125e-01" purity="2.3931787908077240e-01" nType="-99"/>
          <Node pos="r" depth="2" NCoef="0" IVar="5" Cut="1.7077606201171875e+02" cType="1" res="-1.0271976701915264e-02" rms="4.3060004711151123e-01" purity="5.2100127935409546e-01" nType="0">
            <Node pos="l" depth="3" NCoef="0" IVar="-1" Cut="0.0000000000000000e+00" cType="1" res="6.9227907806634903e-03" rms="4.1976621747016907e-01" purity="5.9718197584152222e-01" nType="-99"/>
            <Node pos="r" depth="3" NCoef="0" IVar="1" Cut="-2.2868108749389648e+00" cType="1" res="-2.8770295903086662e-02" rms="4.3505030870437622e-01" purity="4.8093584179878235e-01" nType="0">
              <Node pos="l" depth="4" NCoef="0" IVar="-1" Cut="0.0000000000000000e+00" cType="1" res="1.1564720189198852e-03" rms="4.3480649590492249e-01" purity="5.3366237878799438e-01" nType="-99"/>
              <Node pos="r" depth="4" NCoef="0" IVar="-1" Cut="0.0000000000000000e+00" cType="1" res="-1.4395409263670444e-02" rms="4.3410891294479370e-01" purity="4.5325824618339539e-01" nType="-99"/>
            </Node>
          </Node>
        </Node>
        <Node pos="r" depth="1" NCoef="0" IVar="2" Cut="1.6977427005767822e+00" cType="1" res="1.6348069533705711e-02" rms="4.2975381016731262e-01" purity="5.3604662418365479e-01" nType="0">
          <Node pos="l" depth="2" NCoef="0" IVar="-1" Cut="0.0000000000000000e+00" cType="1" res="-3.2036369666457176e-03" rms="4.1259324550628662e-01" purity="4.2563414573669434e-01" nType="-99"/>
          <Node pos="r" depth="2" NCoef="0" IVar="1" Cut="2.4575250148773193e+00" cType="1" res="3.6123238503932953e-02" rms="4.4106838107109070e-01" purity="6.1830294132232666e-01" nType="0">
            <Node pos="l" depth="3" NCoef="0" IVar="-1" Cut="0.0000000000000000e+00" cType="1" res="1.1930989101529121e-02" rms="4.3389248847961426e-01" purity="6.3002902269363403e-01" nType="-99"/>
            <Node pos="r" depth="3" NCoef="0" IVar="-1" Cut="0.0000000000000000e+00" cType="1" res="9.5593649893999100e-03" rms="4.4825425744056702e-01" purity="6.0618817806243896e-01" nType="-99"/>
          </Node>
        </Node>
      </Node>
    </BinaryTree>
    <BinaryTree type="DecisionTree" boostWeight="1.0000000000000000e+00" itree="54">
      <Node pos="s" depth="0" NCoef="0" IVar="5" Cut="2.1458135986328125e+02" cType="1" res="-1.8358464585617185e-03" rms="4.2480495572090149e-01" purity="4.9845966696739197e-01" nType="0">
        <Node pos="l" depth="1" NCoef="0" IVar="1" Cut="1.6456942558288574e+00" cType="1" res="5.9769363142549992e-03" rms="4.2063191533088684e-01" purity="5.2634149789810181e-01" nType="0">
          <Node pos="l" depth="2" NCoef="0" IVar="1" Cut="-2.0013215541839600e+00" cType="1" res="-8.4081469103693962e-03" rms="4.2142933607101440e-01" purity="5.0239336490631104e-01" nType="0">
            <Node pos="l" depth="3" NCoef="0" IVar="-1" Cut="0.0000000000000000e+00" cType="1" res="5.5659301578998566e-03" rms="4.2434635758399963e-01" purity="5.6668263673782349e-01" nType="-99"/>
            <Node pos="r" depth="3" NCoef="0" IVar="6" Cut="7.0882910490036011e-01" cType="1" res="-2.9100567102432251e-02" rms="4.1828685998916626e-01" purity="4.6299603581428528e-01" nType="0">
              <Node pos="l" depth="4" NCoef="0" IVar="-1" Cut="0.0000000000000000e+00" cType="1" res="-5.5030719377100468e-03" rms="4.3432116508483887e-01" purity="5.4214513301849365e-01" nType="-99"/>
              <Node pos="r" depth="4" NCoef="0" IVar="-1" Cut="0.0000000000000000e+00" cType="1" res="-1.6040209680795670e-02" rms="3.9106872677803040e-01" purity="3.3785510063171387e-01" nType="-99"/>
            </Node>
          </Node>
          <Node pos="r" depth="2" NCoef="0" IVar="6" Cut="6.3908231258392334e-01" cType="1" res="3.4339308738708496e-02" rms="4.1760611534118652e-01" purity="5.7355880737304688e-01" nType="0">
            <Node pos="l" depth="3" NCoef="0" IVar="-1" Cut="0.0000000000000000e+00" cType="1" res="6.0239555314183235e-03" rms="4.3269637227058411e-01" purity="5.4881381988525391e-01" nType="-99"/>
            <Node pos="r" depth="3" NCoef="0" IVar="-1" Cut="0.0000000000000000e+00" cType="1" res="1.3039821758866310e-02" rms="4.0358862280845642e-01" purity="5.9532850980758667e-01" nType="-99"/>
          </Node>
        </Node>
        <Node pos="r" depth="1" NCoef="0" IVar="6" Cut="6.8110394477844238e-01" cType="1" res="-1.9241143018007278e-02" rms="4.3345135450363159e-01" purity="4.3634465336799622e-01" nType="0">
          <Node pos="l" depth="2" NCoef="0" IVar="1" Cut="1.4965404570102692e-01" cType="1" res="0.0000000000000000e+00" rms="0.0000000000000000e+00" purity="4.0672799944877625e-01" nType="0">
            <Node pos="l" depth="3" NCoef="0" IVar="-1" Cut="0.0000000000000000e+00" cType="1" res="-8.3820661529898643e-03" rms="4.4084370136260986e-01" purity="4.0850186347961426e-01" nType="-99"/>
            <Node pos="r" depth="3" NCoef="0" IVar="-1" Cut="0.0000000000000000e+00" cType="1" res="-1.1820591986179352e-02" rms="4.4830647110939026e-01" purity="4.0496084094047546e-01" nType="-99"/>
          </Node>
          <Node pos="r" depth="2" NCoef="0" IVar="-1" Cut="0.0000000000000000e+00" cType="1" res="2.2719823755323887e-03" rms="4.0966618061065674e-01" purity="4.9356982111930847e-01" nType="-99"/>
        </Node>
      </Node>
    </BinaryTree>
    <BinaryTree type="DecisionTree" boostWeight="1.0000000000000000e+00" itree="55">
      <Node pos="s" depth="0" NCoef="0" IVar="3" Cut="1.2486034375000000e+05" cType="1" res="6.6715022549033165e-03" rms="4.2535343766212463e-01" purity="5.0506198406219482e-01" nType="0">
        <Node pos="l" depth="1" NCoef="0" IVar="2" Cut="8.6676168441772461e-01" cType="1" res="-1.7496460350230336e-03" rms="4.2198830842971802e-01" purity="4.8239812254905701e-01" nType="0">
          <Node pos="l" depth="2" NCoef="0" IVar="-1" Cut="0.0000000000000000e+00" cType="1" res="-2.2903194651007652e-02" rms="3.3233135938644409e-01" purity="1.8875117599964142e-01" nType="-99"/>
          <Node pos="r" depth="2" NCoef="0" IVar="2" Cut="1.3221260309219360e+00" cType="1" res="6.7752227187156677e-03" rms="4.3585866689682007e-01" purity="5.3610241413116455e-01" nType="0">
            <Node pos="l" depth="3" NCoef="0" IVar="-1" Cut="0.0000000000000000e+00" cType="1" res="1.4088631607592106e-02" rms="4.1906994581222534e-01" purity="4.3758335709571838e-01" nType="-99"/>
            <Node pos="r" depth="3" NCoef="0" IVar="3" Cut="9.6700304687500000e+04" cType="1" res="-1.7787928227335215e-03" rms="4.3916171789169312e-01" purity="5.5863881111145020e-01" nType="0">
              <Node pos="l" depth="4" NCoef="0" IVar="-1" Cut="0.0000000000000000e+00" cType="1" res="-2.7874470688402653e-03" rms="4.4076517224311829e-01" purity="5.3026634454727173e-01" nType="-99"/>
              <Node pos="r" depth="4" NCoef="0" IVar="-1" Cut="0.0000000000000000e+00" cType="1" res="1.0001605376601219e-02" rms="4.3163862824440002e-01" purity="6.6074299812316895e-01" nType="-99"/>
            </Node>
          </Node>
        </Node>
        <Node pos="r" depth="1" NCoef="0" IVar="-1" Cut="0.0000000000000000e+00" cType="1" res="1.1291295289993286e-02" rms="4.3661019206047058e-01" purity="5.9281694889068604e-01" nType="-99"/>
      </Node>
    </BinaryTree>
    <BinaryTree type="DecisionTree" boostWeight="1.0000000000000000e+00" itree="56">
      <Node pos="s" depth="0" NCoef="0" IVar="1" Cut="2.2439622879028320e+00" cType="1" res="-6.2223235145211220e-03" rms="4.2390424013137817e-01" purity="4.9694016575813293e-01" nType="0">
        <Node pos="l" depth="1" NCoef="0" IVar="5" Cut="2.6574328613281250e+02" cType="1" res="-1.4362716116011143e-02" rms="4.2318445444107056e-01" purity="4.8055145144462585e-01" nType="0">
          <Node pos="l" depth="2" NCoef="0" IVar="2" Cut="1.5826627016067505e+00" cType="1" res="-8.0061126500368118e-03" rms="4.2100962996482849e-01" purity="4.9367058277130127e-01" nType="0">
            <Node pos="l" depth="3" NCoef="0" IVar="4" Cut="5.3250363281250000e+04" cType="1" res="1.7410473898053169e-02" rms="3.9195728302001953e-01" purity="4.0849122405052185e-01" nType="0">
              <Node pos="l" depth="4" NCoef="0" IVar="-1" Cut="0.0000000000000000e+00" cType="1" res="-1.4338648878037930e-02" rms="3.4760269522666931e-01" purity="2.2343060374259949e-01" nType="-99"/>
              <Node pos="r" depth="4" NCoef="0" IVar="-1" Cut="0.0000000000000000e+00" cType="1" res="1.5298954211175442e-02" rms="4.2266309261322021e-01" purity="5.7210397720336914e-01" nType="-99"/>
            </Node>
            <Node pos="r" depth="3" NCoef="0" IVar="5" Cut="1.7855407714843750e+02" cType="1" res="-2.4202996864914894e-02" rms="4.3775132298469543e-01" purity="5.4795163869857788e-01" nType="0">
              <Node pos="l" depth="4" NCoef="0" IVar="-1" Cut="0.0000000000000000e+00" cType="1" res="1.6098440391942859e-03" rms="4.2172631621360779e-01" purity="6.1308479309082031e-01" nType="-99"/>
              <Node pos="r" depth="4" NCoef="0" IVar="-1" Cut="0.0000000000000000e+00" cType="1" res="-1.0183038190007210e-02" rms="4.5294022560119629e-01" purity="4.7364175319671631e-01" nType="-99"/>
            </Node>
          </Node>
          <Node pos="r" depth="2" NCoef="0" IVar="-1" Cut="0.0000000000000000e+00" cType="1" res="-1.4665585011243820e-02" rms="4.3242162466049194e-01" purity="4.1556149721145630e-01" nType="-99"/>
        </Node>
        <Node pos="r" depth="1" NCoef="0" IVar="8" Cut="3.0042123794555664e+00" cType="1" res="0.0000000000000000e+00" rms="0.0000000000000000e+00" purity="5.5483233928680420e-01" nType="0">
          <Node pos="l" depth="2" NCoef="0" IVar="-1" Cut="0.0000000000000000e+00" cType="1" res="1.2398605234920979e-02" rms="4.3781617283821106e-01" purity="5.6164306402206421e-01" nType="-99"/>
          <Node pos="r" depth="2" NCoef="0" IVar="-1" Cut="0.0000000000000000e+00" cType="1" res="-2.5609022122807801e-04" rms="4.0899413824081421e-01" purity="5.4702347517013550e-01" nType="-99"/>
        </Node>
      </Node>
    </BinaryTree>
    <BinaryTree type="DecisionTree" boostWeight="1.0000000000000000e+00" itree="57">
      <Node pos="s" depth="0" NCoef="0" IVar="6" Cut="5.4122161865234375e-01" cType="1" res="-1.1389789171516895e-02" rms="4.2664679884910583e-01" purity="4.8728817701339722e-01" nType="0">
        <Node pos="l" depth="1" NCoef="0" IVar="1" Cut="1.4906595647335052e-01" cType="1" res="-4.3760467320680618e-02" rms="4.5142987370491028e-01" purity="3.8147881627082825e-01" nType="0">
          <Node pos="l" depth="2" NCoef="0" IVar="-1" Cut="0.0000000000000000e+00" cType="1" res="-1.2556198053061962e-02" rms="4.5114615559577942e-01" purity="3.7848764657974243e-01" nType="-99"/>
          <Node pos="r" depth="2" NCoef="0" IVar="-1" Cut="0.0000000000000000e+00" cType="1" res="-7.9181445762515068e-03" rms="4.5132574439048767e-01" purity="3.8474708795547485e-01" nType="-99"/>
        </Node>
        <Node pos="r" depth="1" NCoef="0" IVar="6" Cut="8.2068639993667603e-01" cType="1" res="-2.3792537394911051e-03" rms="4.1904324293136597e-01" purity="5.1674073934555054e-01" nType="0">
          <Node pos="l" depth="2" NCoef="0" IVar="0" Cut="3.0075918750000000e+05" cType="1" res="4.5779021456837654e-03" rms="4.2385905981063843e-01" purity="5.4892778396606445e-01" nType="0">
            <Node pos="l" depth="3" NCoef="0" IVar="4" Cut="4.2424453125000000e+04" cType="1" res="1.1685910634696484e-02" rms="4.4232764840126038e-01" purity="6.2180781364440918e-01" nType="0">
              <Node pos="l" depth="4" NCoef="0" IVar="-1" Cut="0.0000000000000000e+00" cType="1" res="1.2175403535366058e-02" rms="4.6375215053558350e-01" purity="5.1463341712951660e-01" nType="-99"/>
              <Node pos="r" depth="4" NCoef="0" IVar="-1" Cut="0.0000000000000000e+00" cType="1" res="3.9667749661020935e-04" rms="4.3472835421562195e-01" purity="6.5611237287521362e-01" nType="-99"/>
            </Node>
            <Node pos="r" depth="3" NCoef="0" IVar="-1" Cut="0.0000000000000000e+00" cType="1" res="-1.8326342105865479e-02" rms="3.0283287167549133e-01" purity="1.5617749094963074e-01" nType="-99"/>
          </Node>
          <Node pos="r" depth="2" NCoef="0" IVar="-1" Cut="0.0000000000000000e+00" cType="1" res="-1.3028278015553951e-02" rms="3.8210931420326233e-01" purity="3.0179426074028015e-01" nType="-99"/>
        </Node>
      </Node>
    </BinaryTree>
    <BinaryTree type="DecisionTree" boostWeight="1.0000000000000000e+00" itree="58">
      <Node pos="s" depth="0" NCoef="0" IVar="2" Cut="3.0498306751251221e+00" cType="1" res="-4.6348688192665577e-03" rms="4.2163458466529846e-01" purity="4.9658778309822083e-01" nType="0">
        <Node pos="l" depth="1" NCoef="0" IVar="3" Cut="5.8770843750000000e+04" cType="1" res="3.5057424101978540e-03" rms="4.1824397444725037e-01" purity="4.9978184700012207e-01" nType="0">
          <Node pos="l" depth="2" NCoef="0" IVar="-1" Cut="0.0000000000000000e+00" cType="1" res="-1.5508582815527916e-02" rms="3.9090570807456970e-01" purity="3.0683273077011108e-01" nType="-99"/>
          <Node pos="r" depth="2" NCoef="0" IVar="2" Cut="2.1980087757110596e+00" cType="1" res="1.7239842563867569e-02" rms="4.2436826229095459e-01" purity="5.5246460437774658e-01" nType="0">
            <Node pos="l" depth="3" NCoef="0" IVar="8" Cut="3.0444941520690918e+00" cType="1" res="4.7905109822750092e-03" rms="4.2366161942481995e-01" purity="5.0509786605834961e-01" nType="0">
              <Node pos="l" depth="4" NCoef="0" IVar="-1" Cut="0.0000000000000000e+00" cType="1" res="-2.7373612392693758e-03" rms="4.3557798862457275e-01" purity="4.6548038721084595e-01" nType="-99"/>
              <Node pos="r" depth="4" NCoef="0" IVar="-1" Cut="0.0000000000000000e+00" cType="1" res="1.0920265689492226e-02" rms="3.9937984943389893e-01" purity="5.7775825262069702e-01" nType="-99"/>
            </Node>
            <Node pos="r" depth="3" NCoef="0" IVar="8" Cut="3.0074033737182617e+00" cType="1" res="4.2832817882299423e-02" rms="4.2467242479324341e-01" purity="6.4983987808227539e-01" nType="0">
              <Node pos="l" depth="4" NCoef="0" IVar="-1" Cut="0.0000000000000000e+00" cType="1" res="8.9012272655963898e-03" rms="4.4608095288276672e-01" purity="6.0903227329254150e-01" nType="-99"/>
              <Node pos="r" depth="4" NCoef="0" IVar="-1" Cut="0.0000000000000000e+00" cType="1" res="1.7412390559911728e-02" rms="3.9949807524681091e-01" purity="6.9409936666488647e-01" nType="-99"/>
            </Node>
          </Node>
        </Node>
        <Node pos="r" depth="1" NCoef="0" IVar="-1" Cut="0.0000000000000000e+00" cType="1" res="-1.2336847372353077e-02" rms="4.4007202982902527e-01" purity="4.7480294108390808e-01" nType="-99"/>
      </Node>
    </BinaryTree>
    <BinaryTree type="DecisionTree" boostWeight="1.0000000000000000e+00" itree="59">
      <Node pos="s" depth="0" NCoef="0" IVar="3" Cut="1.2439511718750000e+05" cType="1" res="9.6951294690370560e-03" rms="4.2292788624763489e-01" purity="5.0479352474212646e-01" nType="0">
        <Node pos="l" depth="1" NCoef="0" IVar="6" Cut="6.8101578950881958e-01" cType="1" res="0.0000000000000000e+00" rms="0.0000000000000000e+00" purity="4.8103168606758118e-01" nType="0">
          <Node pos="l" depth="2" NCoef="0" IVar="5" Cut="2.0595864868164062e+02" cType="1" res="-1.2117797508835793e-02" rms="4.3517687916755676e-01" purity="4.7866767644882202e-01" nType="0">
            <Node pos="l" depth="3" NCoef="0" IVar="1" Cut="7.4785071611404419e-01" cType="1" res="3.8158921524882317e-03" rms="4.3501198291778564e-01" purity="5.3112667798995972e-01" nType="0">
              <Node pos="l" depth="4" NCoef="0" IVar="-1" Cut="0.0000000000000000e+00" cType="1" res="-2.1006951574236155e-03" rms="4.3291872739791870e-01" purity="5.1403170824050903e-01" nType="-99"/>
              <Node pos="r" depth="4" NCoef="0" IVar="-1" Cut="0.0000000000000000e+00" cType="1" res="5.6766932830214500e-03" rms="4.3710306286811829e-01" purity="5.5275368690490723e-01" nType="-99"/>
            </Node>
            <Node pos="r" depth="3" NCoef="0" IVar="-1" Cut="0.0000000000000000e+00" cType="1" res="-1.7751486971974373e-02" rms="4.3342703580856323e-01" purity="3.6120957136154175e-01" nType="-99"/>
          </Node>
          <Node pos="r" depth="2" NCoef="0" IVar="7" Cut="1.7333139038085938e+02" cType="1" res="1.8463745713233948e-02" rms="4.0290370583534241e-01" purity="4.8378515243530273e-01" nType="0">
            <Node pos="l" depth="3" NCoef="0" IVar="-1" Cut="0.0000000000000000e+00" cType="1" res="-3.5599861294031143e-03" rms="3.8989216089248657e-01" purity="2.9688465595245361e-01" nType="-99"/>
            <Node pos="r" depth="3" NCoef="0" IVar="-1" Cut="0.0000000000000000e+00" cType="1" res="1.2944818474352360e-02" rms="4.1097059845924377e-01" purity="6.2672710418701172e-01" nType="-99"/>
          </Node>
        </Node>
        <Node pos="r" depth="1" NCoef="0" IVar="-1" Cut="0.0000000000000000e+00" cType="1" res="1.1633235029876232e-02" rms="4.2964452505111694e-01" purity="5.9797757863998413e-01" nType="-99"/>
      </Node>
    </BinaryTree>
    <BinaryTree type="DecisionTree" boostWeight="1.0000000000000000e+00" itree="60">
      <Node pos="s" depth="0" NCoef="0" IVar="6" Cut="4.8503452539443970e-01" cType="1" res="2.7268833946436644e-03" rms="4.2633515596389771e-01" purity="4.9708566069602966e-01" nType="0">
        <Node pos="l" depth="1" NCoef="0" IVar="-1" Cut="0.0000000000000000e+00" cType="1" res="-1.1091288179159164e-02" rms="4.3352675437927246e-01" purity="3.2444435358047485e-01" nType="-99"/>
        <Node pos="r" depth="1" NCoef="0" IVar="2" Cut="1.9278801679611206e+00" cType="1" res="9.1483062133193016e-03" rms="4.2500552535057068e-01" purity="5.1806366443634033e-01" nType="0">
          <Node pos="l" depth="2" NCoef="0" IVar="6" Cut="7.5047004222869873e-01" cType="1" res="2.7536945417523384e-02" rms="4.0924972295761108e-01" purity="4.7697234153747559e-01" nType="0">
            <Node pos="l" depth="3" NCoef="0" IVar="5" Cut="1.8453814697265625e+02" cType="1" res="3.7911575287580490e-02" rms="4.1896489262580872e-01" purity="5.2992486953735352e-01" nType="0">
              <Node pos="l" depth="4" NCoef="0" IVar="-1" Cut="0.0000000000000000e+00" cType="1" res="1.8204927444458008e-02" rms="4.2487967014312744e-01" purity="5.8237147331237793e-01" nType="-99"/>
              <Node pos="r" depth="4" NCoef="0" IVar="-1" Cut="0.0000000000000000e+00" cType="1" res="5.3858230821788311e-03" rms="4.1175019741058350e-01" purity="4.7675019502639771e-01" nType="-99"/>
            </Node>
            <Node pos="r" depth="3" NCoef="0" IVar="-1" Cut="0.0000000000000000e+00" cType="1" res="-1.5678886556997895e-03" rms="3.7630599737167358e-01" purity="3.1541582942008972e-01" nType="-99"/>
          </Node>
          <Node pos="r" depth="2" NCoef="0" IVar="9" Cut="3.0000000000000000e+00" cType="1" res="-9.8425969481468201e-03" rms="4.3958443403244019e-01" purity="5.6008732318878174e-01" nType="0">
            <Node pos="l" depth="3" NCoef="0" IVar="0" Cut="1.8227754687500000e+05" cType="1" res="-3.7246897816658020e-02" rms="4.4890663027763367e-01" purity="4.6194061636924744e-01" nType="0">
              <Node pos="l" depth="4" NCoef="0" IVar="-1" Cut="0.0000000000000000e+00" cType="1" res="-8.3249025046825409e-03" rms="4.7813382744789124e-01" purity="5.5574804544448853e-01" nType="-99"/>
              <Node pos="r" depth="4" NCoef="0" IVar="-1" Cut="0.0000000000000000e+00" cType="1" res="-7.4656088836491108e-03" rms="4.1650715470314026e-01" purity="3.6555522680282593e-01" nType="-99"/>
            </Node>
            <Node pos="r" depth="3" NCoef="0" IVar="1" Cut="1.4705292880535126e-01" cType="1" res="1.6151830554008484e-02" rms="4.2938992381095886e-01" purity="6.5190154314041138e-01" nType="0">
              <Node pos="l" depth="4" NCoef="0" IVar="-1" Cut="0.0000000000000000e+00" cType="1" res="5.6452082935720682e-04" rms="4.3118983507156372e-01" purity="6.3281375169754028e-01" nType="-99"/>
              <Node pos="r" depth="4" NCoef="0" IVar="-1" Cut="0.0000000000000000e+00" cType="1" res="1.1869252659380436e-02" rms="4.2674773931503296e-01" purity="6.7351645231246948e-01" nType="-99"/>
            </Node>
          </Node>
        </Node>
      </Node>
    </BinaryTree>
    <BinaryTree type="DecisionTree" boostWeight="1.0000000000000000e+00" itree="61">
      <Node pos="s" depth="0" NCoef="0" IVar="4" Cut="9.3717007812500000e+04" cType="1" res="1.1828811839222908e-02" rms="4.2451727390289307e-01" purity="5.0957340002059937e-01" nType="0">
        <Node pos="l" depth="1" NCoef="0" IVar="8" Cut="2.9467427730560303e+00" cType="1" res="6.0967016033828259e-03" rms="4.2281609773635864e-01" purity="4.8357081413269043e-01" nType="0">
          <Node pos="l" depth="2" NCoef="0" IVar="2" Cut="2.3986244201660156e+00" cType="1" res="0.0000000000000000e+00" rms="0.0000000000000000e+00" purity="4.2641931772232056e-01" nType="0">
            <Node pos="l" depth="3" NCoef="0" IVar="-1" Cut="0.0000000000000000e+00" cType="1" res="-1.0918220505118370e-02" rms="4.3597730994224548e-01" purity="3.7660771608352661e-01" nType="-99"/>
            <Node pos="r" depth="3" NCoef="0" IVar="-1" Cut="0.0000000000000000e+00" cType="1" res="1.6450854018330574e-03" rms="4.5735609531402588e-01" purity="5.1758325099945068e-01" nType="-99"/>
          </Node>
          <Node pos="r" depth="2" NCoef="0" IVar="7" Cut="1.2217550659179688e+02" cType="1" res="1.9925268366932869e-02" rms="4.1030922532081604e-01" purity="5.1424658298492432e-01" nType="0">
            <Node pos="l" depth="3" NCoef="0" IVar="-1" Cut="0.0000000000000000e+00" cType="1" res="-7.3530315421521664e-03" rms="3.8301014900207520e-01" purity="2.4840305745601654e-01" nType="-99"/>
            <Node pos="r" depth="3" NCoef="0" IVar="7" Cut="1.7497108459472656e+02" cType="1" res="3.6215119063854218e-02" rms="4.1570574045181274e-01" purity="5.8454084396362305e-01" nType="0">
              <Node pos="l" depth="4" NCoef="0" IVar="-1" Cut="0.0000000000000000e+00" cType="1" res="1.9382996484637260e-02" rms="4.2072683572769165e-01" purity="4.3871864676475525e-01" nType="-99"/>
              <Node pos="r" depth="4" NCoef="0" IVar="-1" Cut="0.0000000000000000e+00" cType="1" res="7.0367339067161083e-03" rms="4.1293859481811523e-01" purity="6.3297778367996216e-01" nType="-99"/>
            </Node>
          </Node>
        </Node>
        <Node pos="r" depth="1" NCoef="0" IVar="-1" Cut="0.0000000000000000e+00" cType="1" res="1.5710260719060898e-02" rms="4.3337622284889221e-01" purity="6.7417311668395996e-01" nType="-99"/>
      </Node>
    </BinaryTree>
    <BinaryTree type="DecisionTree" boostWeight="1.0000000000000000e+00" itree="62">
      <Node pos="s" depth="0" NCoef="0" IVar="6" Cut="8.2388240098953247e-01" cType="1" res="-2.1306599956005812e-03" rms="4.2494004964828491e-01" purity="5.0031703710556030e-01" nType="0">
        <Node pos="l" depth="1" NCoef="0" IVar="6" Cut="6.8263196945190430e-01" cType="1" res="0.0000000000000000e+00" rms="0.0000000000000000e+00" purity="5.2165520191192627e-01" nType="0">
          <Node pos="l" depth="2" NCoef="0" IVar="4" Cut="5.9646085937500000e+04" cType="1" res="0.0000000000000000e+00" rms="0.0000000000000000e+00" purity="5.0604516267776489e-01" nType="0">
            <Node pos="l" depth="3" NCoef="0" IVar="6" Cut="6.0191661119461060e-01" cType="1" res="9.0746274217963219e-03" rms="4.3189030885696411e-01" purity="4.3664377927780151e-01" nType="0">
              <Node pos="l" depth="4" NCoef="0" IVar="-1" Cut="0.0000000000000000e+00" cType="1" res="-3.1071256380528212e-03" rms="4.2976945638656616e-01" purity="3.5971620678901672e-01" nType="-99"/>
              <Node pos="r" depth="4" NCoef="0" IVar="-1" Cut="0.0000000000000000e+00" cType="1" res="9.1573279350996017e-03" rms="4.3336626887321472e-01" purity="5.2313578128814697e-01" nType="-99"/>
            </Node>
            <Node pos="r" depth="3" NCoef="0" IVar="8" Cut="2.9106166362762451e+00" cType="1" res="-2.3236898705363274e-02" rms="4.4770967960357666e-01" purity="5.5197137594223022e-01" nType="0">
              <Node pos="l" depth="4" NCoef="0" IVar="-1" Cut="0.0000000000000000e+00" cType="1" res="4.1110264137387276e-03" rms="4.6810734272003174e-01" purity="5.4680848121643066e-01" nType="-99"/>
              <Node pos="r" depth="4" NCoef="0" IVar="-1" Cut="0.0000000000000000e+00" cType="1" res="-1.0518948547542095e-02" rms="4.3396693468093872e-01" purity="5.5492079257965088e-01" nType="-99"/>
            </Node>
          </Node>
          <Node pos="r" depth="2" NCoef="0" IVar="6" Cut="7.4989229440689087e-01" cType="1" res="0.0000000000000000e+00" rms="0.0000000000000000e+00" purity="5.5419766902923584e-01" nType="0">
            <Node pos="l" depth="3" NCoef="0" IVar="-1" Cut="0.0000000000000000e+00" cType="1" res="1.3471409678459167e-02" rms="4.0058887004852295e-01" purity="6.0706347227096558e-01" nType="-99"/>
            <Node pos="r" depth="3" NCoef="0" IVar="-1" Cut="0.0000000000000000e+00" cType="1" res="8.7468686979264021e-04" rms="3.9786890149116516e-01" purity="4.7524118423461914e-01" nType="-99"/>
          </Node>
        </Node>
        <Node pos="r" depth="1" NCoef="0" IVar="-1" Cut="0.0000000000000000e+00" cType="1" res="-9.1843474656343460e-03" rms="3.8504219055175781e-01" purity="3.0959373712539673e-01" nType="-99"/>
      </Node>
    </BinaryTree>
    <BinaryTree type="DecisionTree" boostWeight="1.0000000000000000e+00" itree="63">
      <Node pos="s" depth="0" NCoef="0" IVar="7" Cut="4.1040222167968750e+02" cType="1" res="0.0000000000000000e+00" rms="0.0000000000000000e+00" purity="4.9298682808876038e-01" nType="0">
        <Node pos="l" depth="1" NCoef="0" IVar="1" Cut="-1.9450390338897705e+00" cType="1" res="-1.2329277582466602e-02" rms="4.2654561996459961e-01" purity="4.6262261271476746e-01" nType="0">
          <Node pos="l" depth="2" NCoef="0" IVar="0" Cut="2.0063401562500000e+05" cType="1" res="1.1744070798158646e-02" rms="4.2505022883415222e-01" purity="5.0323182344436646e-01" nType="0">
            <Node pos="l" depth="3" NCoef="0" IVar="-1" Cut="0.0000000000000000e+00" cType="1" res="8.2946894690394402e-03" rms="4.4166660308837891e-01" purity="6.2945729494094849e-01" nType="-99"/>
            <Node pos="r" depth="3" NCoef="0" IVar="-1" Cut="0.0000000000000000e+00" cType="1" res="-4.9017099663615227e-03" rms="4.0359523892402649e-01" purity="3.5686251521110535e-01" nType="-99"/>
          </Node>
          <Node pos="r" depth="2" NCoef="0" IVar="9" Cut="3.0000000000000000e+00" cType="1" res="-2.1266572177410126e-02" rms="4.2670947313308716e-01" purity="4.4734650850296021e-01" nType="0">
            <Node pos="l" depth="3" NCoef="0" IVar="0" Cut="1.8215196875000000e+05" cType="1" res="-4.4119399972259998e-03" rms="4.2081373929977417e-01" purity="3.9978769421577454e-01" nType="0">
              <Node pos="l" depth="4" NCoef="0" IVar="-1" Cut="0.0000000000000000e+00" cType="1" res="7.6647684909403324e-03" rms="4.6012473106384277e-01" purity="5.6066983938217163e-01" nType="-99"/>
              <Node pos="r" depth="4" NCoef="0" IVar="-1" Cut="0.0000000000000000e+00" cType="1" res="-1.1841627769172192e-02" rms="3.8252630829811096e-01" purity="2.6455003023147583e-01" nType="-99"/>
            </Node>
            <Node pos="r" depth="3" NCoef="0" IVar="1" Cut="9.6094161272048950e-01" cType="1" res="-3.7928946316242218e-02" rms="4.3182677030563354e-01" purity="4.9370276927947998e-01" nType="0">
              <Node pos="l" depth="4" NCoef="0" IVar="-1" Cut="0.0000000000000000e+00" cType="1" res="-1.5807120129466057e-02" rms="4.3132150173187256e-01" purity="4.6733942627906799e-01" nType="-99"/>
              <Node pos="r" depth="4" NCoef="0" IVar="-1" Cut="0.0000000000000000e+00" cType="1" res="-6.3437791541218758e-03" rms="4.3151187896728516e-01" purity="5.1807266473770142e-01" nType="-99"/>
            </Node>
          </Node>
        </Node>
        <Node pos="r" depth="1" NCoef="0" IVar="-1" Cut="0.0000000000000000e+00" cType="1" res="1.0146869346499443e-02" rms="4.0406006574630737e-01" purity="6.7901921272277832e-01" nType="-99"/>
      </Node>
    </BinaryTree>
    <BinaryTree type="DecisionTree" boostWeight="1.0000000000000000e+00" itree="64">
      <Node pos="s" depth="0" NCoef="0" IVar="7" Cut="1.5433448791503906e+02" cType="1" res="2.0414537284523249e-03" rms="4.2257055640220642e-01" purity="5.0479704141616821e-01" nType="0">
        <Node pos="l" depth="1" NCoef="0" IVar="6" Cut="7.1186161041259766e-01" cType="1" res="-2.3363573476672173e-02" rms="3.9861011505126953e-01" purity="2.7965199947357178e-01" nType="0">
          <Node pos="l" depth="2" NCoef="0" IVar="-1" Cut="0.0000000000000000e+00" cType="1" res="-9.3133072368800640e-04" rms="4.1510412096977234e-01" purity="3.2257726788520813e-01" nType="-99"/>
          <Node pos="r" depth="2" NCoef="0" IVar="-1" Cut="0.0000000000000000e+00" cType="1" res="-1.4916414394974709e-02" rms="3.8107916712760925e-01" purity="2.3811613023281097e-01" nType="-99"/>
        </Node>
        <Node pos="r" depth="1" NCoef="0" IVar="6" Cut="5.9799921512603760e-01" cType="1" res="8.8419960811734200e-03" rms="4.2850178480148315e-01" purity="5.6506496667861938e-01" nType="0">
          <Node pos="l" depth="2" NCoef="0" IVar="6" Cut="5.1320958137512207e-01" cType="1" res="-9.6416985616087914e-03" rms="4.5007875561714172e-01" purity="4.7463551163673401e-01" nType="0">
            <Node pos="l" depth="3" NCoef="0" IVar="-1" Cut="0.0000000000000000e+00" cType="1" res="2.9547428712248802e-03" rms="4.5873057842254639e-01" purity="4.2891806364059448e-01" nType="-99"/>
            <Node pos="r" depth="3" NCoef="0" IVar="-1" Cut="0.0000000000000000e+00" cType="1" res="-8.5512846708297729e-03" rms="4.4178384542465210e-01" purity="5.1288717985153198e-01" nType="-99"/>
          </Node>
          <Node pos="r" depth="2" NCoef="0" IVar="8" Cut="2.9041686058044434e+00" cType="1" res="2.1961543709039688e-02" rms="4.1199952363967896e-01" purity="6.2925094366073608e-01" nType="0">
            <Node pos="l" depth="3" NCoef="0" IVar="-1" Cut="0.0000000000000000e+00" cType="1" res="-4.2421272955834866e-03" rms="4.4324225187301636e-01" purity="5.1387274265289307e-01" nType="-99"/>
            <Node pos="r" depth="3" NCoef="0" IVar="1" Cut="-4.4838300347328186e-01" cType="1" res="3.6731712520122528e-02" rms="3.9815518260002136e-01" purity="6.7432916164398193e-01" nType="0">
              <Node pos="l" depth="4" NCoef="0" IVar="-1" Cut="0.0000000000000000e+00" cType="1" res="1.8833771347999573e-02" rms="3.9974769949913025e-01" purity="6.9766885042190552e-01" nType="-99"/>
              <Node pos="r" depth="4" NCoef="0" IVar="-1" Cut="0.0000000000000000e+00" cType="1" res="6.3902940601110458e-03" rms="3.9577111601829529e-01" purity="6.5412187576293945e-01" nType="-99"/>
            </Node>
          </Node>
        </Node>
      </Node>
    </BinaryTree>
    <BinaryTree type="DecisionTree" boostWeight="1.0000000000000000e+00" itree="65">
      <Node pos="s" depth="0" NCoef="0" IVar="1" Cut="4.4896364212036133e-01" cType="1" res="0.0000000000000000e+00" rms="0.0000000000000000e+00" purity="4.9411621689796448e-01" nType="0">
        <Node pos="l" depth="1" NCoef="0" IVar="8" Cut="3.0509676933288574e+00" cType="1" res="-1.1116513051092625e-02" rms="4.2376375198364258e-01" purity="4.8360458016395569e-01" nType="0">
          <Node pos="l" depth="2" NCoef="0" IVar="1" Cut="-1.9455494880676270e+00" cType="1" res="-2.7996601536870003e-02" rms="4.3057411909103394e-01" purity="4.5326289534568787e-01" nType="0">
            <Node pos="l" depth="3" NCoef="0" IVar="-1" Cut="0.0000000000000000e+00" cType="1" res="4.8197130672633648e-04" rms="4.3503701686859131e-01" purity="5.1605242490768433e-01" nType="-99"/>
            <Node pos="r" depth="3" NCoef="0" IVar="-1" Cut="0.0000000000000000e+00" cType="1" res="-1.6912300139665604e-02" rms="4.2413318157196045e-01" purity="3.9170387387275696e-01" nType="-99"/>
          </Node>
          <Node pos="r" depth="2" NCoef="0" IVar="-1" Cut="0.0000000000000000e+00" cType="1" res="7.9048583284020424e-03" rms="4.0826007723808289e-01" purity="5.4241126775741577e-01" nType="-99"/>
        </Node>
        <Node pos="r" depth="1" NCoef="0" IVar="1" Cut="1.9880374670028687e+00" cType="1" res="0.0000000000000000e+00" rms="0.0000000000000000e+00" purity="5.0691884756088257e-01" nType="0">
          <Node pos="l" depth="2" NCoef="0" IVar="-1" Cut="0.0000000000000000e+00" cType="1" res="7.6800677925348282e-03" rms="4.2867597937583923e-01" purity="4.9808433651924133e-01" nType="-99"/>
          <Node pos="r" depth="2" NCoef="0" IVar="8" Cut="3.0026652812957764e+00" cType="1" res="-3.7535619921982288e-03" rms="4.3323931097984314e-01" purity="5.1315951347351074e-01" nType="0">
            <Node pos="l" depth="3" NCoef="0" IVar="-1" Cut="0.0000000000000000e+00" cType="1" res="3.7367867771536112e-03" rms="4.3949702382087708e-01" purity="5.0387305021286011e-01" nType="-99"/>
            <Node pos="r" depth="3" NCoef="0" IVar="-1" Cut="0.0000000000000000e+00" cType="1" res="-7.3359091766178608e-03" rms="4.2571583390235901e-01" purity="5.2324390411376953e-01" nType="-99"/>
          </Node>
        </Node>
      </Node>
    </BinaryTree>
    <BinaryTree type="DecisionTree" boostWeight="1.0000000000000000e+00" itree="66">
      <Node pos="s" depth="0" NCoef="0" IVar="2" Cut="8.2671612501144409e-01" cType="1" res="3.5297330468893051e-03" rms="4.2221394181251526e-01" purity="5.0269263982772827e-01" nType="0">
        <Node pos="l" depth="1" NCoef="0" IVar="-1" Cut="0.0000000000000000e+00" cType="1" res="-1.0860302485525608e-02" rms="3.3288103342056274e-01" purity="2.3332239687442780e-01" nType="-99"/>
        <Node pos="r" depth="1" NCoef="0" IVar="0" Cut="2.7700937500000000e+05" cType="1" res="9.1452710330486298e-03" rms="4.3626427650451660e-01" purity="5.5167829990386963e-01" nType="0">
          <Node pos="l" depth="2" NCoef="0" IVar="0" Cut="1.3495037500000000e+05" cType="1" res="3.3933373633772135e-03" rms="4.4491985440254211e-01" purity="6.0161924362182617e-01" nType="0">
            <Node pos="l" depth="3" NCoef="0" IVar="-1" Cut="0.0000000000000000e+00" cType="1" res="-1.6457168385386467e-02" rms="4.7524732351303101e-01" purity="5.2919167280197144e-01" nType="-99"/>
            <Node pos="r" depth="3" NCoef="0" IVar="0" Cut="2.1608146875000000e+05" cType="1" res="1.5919374302029610e-02" rms="4.3791219592094421e-01" purity="6.1507701873779297e-01" nType="0">
              <Node pos="l" depth="4" NCoef="0" IVar="-1" Cut="0.0000000000000000e+00" cType="1" res="7.2202403098344803e-03" rms="4.4055601954460144e-01" purity="6.5221053361892700e-01" nType="-99"/>
              <Node pos="r" depth="4" NCoef="0" IVar="-1" Cut="0.0000000000000000e+00" cType="1" res="-6.4977486617863178e-03" rms="4.2808234691619873e-01" purity="5.0966435670852661e-01" nType="-99"/>
            </Node>
          </Node>
          <Node pos="r" depth="2" NCoef="0" IVar="-1" Cut="0.0000000000000000e+00" cType="1" res="1.4029504731297493e-02" rms="3.9180275797843933e-01" purity="3.1643527746200562e-01" nType="-99"/>
        </Node>
      </Node>
    </BinaryTree>
    <BinaryTree type="DecisionTree" boostWeight="1.0000000000000000e+00" itree="67">
      <Node pos="s" depth="0" NCoef="0" IVar="9" Cut="4.0000000000000000e+00" cType="1" res="1.7765990924090147e-03" rms="4.2417150735855103e-01" purity="5.1022088527679443e-01" nType="0">
        <Node pos="l" depth="1" NCoef="0" IVar="1" Cut="-2.2433362007141113e+00" cType="1" res="-7.6649612747132778e-03" rms="4.2753604054450989e-01" purity="4.7568100690841675e-01" nType="0">
          <Node pos="l" depth="2" NCoef="0" IVar="-1" Cut="0.0000000000000000e+00" cType="1" res="4.0909270755946636e-03" rms="4.2792072892189026e-01" purity="5.4591906070709229e-01" nType="-99"/>
          <Node pos="r" depth="2" NCoef="0" IVar="4" Cut="7.7266937500000000e+04" cType="1" res="-1.5606248751282692e-02" rms="4.2709976434707642e-01" purity="4.5476663112640381e-01" nType="0">
            <Node pos="l" depth="3" NCoef="0" IVar="3" Cut="8.0175429687500000e+04" cType="1" res="-7.3275072500109673e-03" rms="4.2559027671813965e-01" purity="4.2862066626548767e-01" nType="0">
              <Node pos="l" depth="4" NCoef="0" IVar="-1" Cut="0.0000000000000000e+00" cType="1" res="-5.3189378231763840e-03" rms="4.1436123847961426e-01" purity="3.7899333238601685e-01" nType="-99"/>
              <Node pos="r" depth="4" NCoef="0" IVar="-1" Cut="0.0000000000000000e+00" cType="1" res="3.1312063802033663e-03" rms="4.4435214996337891e-01" purity="5.1709097623825073e-01" nType="-99"/>
            </Node>
            <Node pos="r" depth="3" NCoef="0" IVar="-1" Cut="0.0000000000000000e+00" cType="1" res="-1.4393383637070656e-02" rms="4.3114176392555237e-01" purity="5.4782557487487793e-01" nType="-99"/>
          </Node>
        </Node>
        <Node pos="r" depth="1" NCoef="0" IVar="-1" Cut="0.0000000000000000e+00" cType="1" res="1.0339268483221531e-02" rms="4.0953126549720764e-01" purity="6.3907569646835327e-01" nType="-99"/>
      </Node>
    </BinaryTree>
    <BinaryTree type="DecisionTree" boostWeight="1.0000000000000000e+00" itree="68">
      <Node pos="s" depth="0" NCoef="0" IVar="8" Cut="2.9927747249603271e+00" cType="1" res="-6.0565094463527203e-03" rms="4.2671093344688416e-01" purity="4.9269855022430420e-01" nType="0">
        <Node pos="l" depth="1" NCoef="0" IVar="1" Cut="1.9437254667282104e+00" cType="1" res="0.0000000000000000e+00" rms="0.0000000000000000e+00" purity="4.5520168542861938e-01" nType="0">
          <Node pos="l" depth="2" NCoef="0" IVar="8" Cut="2.8651719093322754e+00" cType="1" res="0.0000000000000000e+00" rms="0.0000000000000000e+00" purity="4.2787054181098938e-01" nType="0">
            <Node pos="l" depth="3" NCoef="0" IVar="-1" Cut="0.0000000000000000e+00" cType="1" res="-1.1433865875005722e-03" rms="4.5408841967582703e-01" purity="4.5771220326423645e-01" nType="-99"/>
            <Node pos="r" depth="3" NCoef="0" IVar="-1" Cut="0.0000000000000000e+00" cType="1" res="-1.6718452796339989e-02" rms="4.2572709918022156e-01" purity="4.0064254403114319e-01" nType="-99"/>
          </Node>
          <Node pos="r" depth="2" NCoef="0" IVar="-1" Cut="0.0000000000000000e+00" cType="1" res="5.0804321654140949e-03" rms="4.4401854276657104e-01" purity="5.2638918161392212e-01" nType="-99"/>
        </Node>
        <Node pos="r" depth="1" NCoef="0" IVar="7" Cut="1.1922291564941406e+02" cType="1" res="4.2831483297049999e-03" rms="4.1198676824569702e-01" purity="5.2752566337585449e-01" nType="0">
          <Node pos="l" depth="2" NCoef="0" IVar="-1" Cut="0.0000000000000000e+00" cType="1" res="-6.8583870306611061e-03" rms="3.8899609446525574e-01" purity="2.6607772707939148e-01" nType="-99"/>
          <Node pos="r" depth="2" NCoef="0" IVar="1" Cut="1.6453446149826050e+00" cType="1" res="1.5353181399405003e-02" rms="4.1751232743263245e-01" purity="6.0056626796722412e-01" nType="0">
            <Node pos="l" depth="3" NCoef="0" IVar="7" Cut="2.2232708740234375e+02" cType="1" res="2.9103985056281090e-02" rms="4.1924074292182922e-01" purity="6.1051261425018311e-01" nType="0">
              <Node pos="l" depth="4" NCoef="0" IVar="-1" Cut="0.0000000000000000e+00" cType="1" res="1.2143218889832497e-02" rms="4.3335956335067749e-01" purity="4.8826268315315247e-01" nType="-99"/>
              <Node pos="r" depth="4" NCoef="0" IVar="-1" Cut="0.0000000000000000e+00" cType="1" res="5.2341069094836712e-03" rms="4.0853303670883179e-01" purity="6.9551825523376465e-01" nType="-99"/>
            </Node>
            <Node pos="r" depth="3" NCoef="0" IVar="-1" Cut="0.0000000000000000e+00" cType="1" res="-5.1571098156273365e-03" rms="4.1219422221183777e-01" purity="5.7909053564071655e-01" nType="-99"/>
          </Node>
        </Node>
      </Node>
    </BinaryTree>
    <BinaryTree type="DecisionTree" boostWeight="1.0000000000000000e+00" itree="69">
      <Node pos="s" depth="0" NCoef="0" IVar="6" Cut="6.8268501758575439e-01" cType="1" res="-2.1016960963606834e-03" rms="4.2405635118484497e-01" purity="5.0048863887786865e-01" nType="0">
        <Node pos="l" depth="1" NCoef="0" IVar="9" Cut="3.0000000000000000e+00" cType="1" res="-1.5663435682654381e-02" rms="4.3741634488105774e-01" purity="5.0000566244125366e-01" nType="0">
          <Node pos="l" depth="2" NCoef="0" IVar="1" Cut="-1.4885608851909637e-01" cType="1" res="0.0000000000000000e+00" rms="0.0000000000000000e+00" purity="4.0221759676933289e-01" nType="0">
            <Node pos="l" depth="3" NCoef="0" IVar="-1" Cut="0.0000000000000000e+00" cType="1" res="-7.2436621412634850e-03" rms="4.4810065627098083e-01" purity="3.9217790961265564e-01" nType="-99"/>
            <Node pos="r" depth="3" NCoef="0" IVar="-1" Cut="0.0000000000000000e+00" cType="1" res="-7.4985092505812645e-03" rms="4.5196986198425293e-01" purity="4.1251286864280701e-01" nType="-99"/>
          </Node>
          <Node pos="r" depth="2" NCoef="0" IVar="2" Cut="1.2879070043563843e+00" cType="1" res="-2.6042296085506678e-03" rms="4.3004953861236572e-01" purity="5.5080014467239380e-01" nType="0">
            <Node pos="l" depth="3" NCoef="0" IVar="-1" Cut="0.0000000000000000e+00" cType="1" res="-1.7588214948773384e-02" rms="4.0458095073699951e-01" purity="3.6449128389358521e-01" nType="-99"/>
            <Node pos="r" depth="3" NCoef="0" IVar="4" Cut="5.9428410156250000e+04" cType="1" res="1.8016412854194641e-02" rms="4.3772605061531067e-01" purity="6.2258493900299072e-01" nType="0">
              <Node pos="l" depth="4" NCoef="0" IVar="-1" Cut="0.0000000000000000e+00" cType="1" res="-2.0162404980510473e-03" rms="4.5271837711334229e-01" purity="5.2892601490020752e-01" nType="-99"/>
              <Node pos="r" depth="4" NCoef="0" IVar="-1" Cut="0.0000000000000000e+00" cType="1" res="1.0457511059939861e-02" rms="4.2666321992874146e-01" purity="6.8482434749603271e-01" nType="-99"/>
            </Node>
          </Node>
        </Node>
        <Node pos="r" depth="1" NCoef="0" IVar="5" Cut="2.1187680053710938e+02" cType="1" res="1.9529206678271294e-02" rms="4.0089136362075806e-01" purity="5.0125783681869507e-01" nType="0">
          <Node pos="l" depth="2" NCoef="0" IVar="7" Cut="2.0842134094238281e+02" cType="1" res="2.4109433870762587e-03" rms="4.0010172128677368e-01" purity="4.8163703083992004e-01" nType="0">
            <Node pos="l" depth="3" NCoef="0" IVar="-1" Cut="0.0000000000000000e+00" cType="1" res="-3.4585846588015556e-03" rms="3.9936012029647827e-01" purity="3.3805003762245178e-01" nType="-99"/>
            <Node pos="r" depth="3" NCoef="0" IVar="-1" Cut="0.0000000000000000e+00" cType="1" res="7.2269015945494175e-03" rms="4.0033364295959473e-01" purity="6.7155927419662476e-01" nType="-99"/>
          </Node>
          <Node pos="r" depth="2" NCoef="0" IVar="-1" Cut="0.0000000000000000e+00" cType="1" res="1.2938486412167549e-02" rms="4.0012532472610474e-01" purity="5.4320544004440308e-01" nType="-99"/>
        </Node>
      </Node>
    </BinaryTree>
    <BinaryTree type="DecisionTree" boostWeight="1.0000000000000000e+00" itree="70">
      <Node pos="s" depth="0" NCoef="0" IVar="5" Cut="1.5228694152832031e+02" cType="1" res="4.4568772427737713e-03" rms="4.2197445034980774e-01" purity="5.1163709163665771e-01" nType="0">
        <Node pos="l" depth="1" NCoef="0" IVar="-1" Cut="0.0000000000000000e+00" cType="1" res="-1.4380507171154022e-02" rms="4.1736969351768494e-01" purity="4.6272417902946472e-01" nType="-99"/>
        <Node pos="r" depth="1" NCoef="0" IVar="6" Cut="6.5461826324462891e-01" cType="1" res="1.2659322470426559e-02" rms="4.2213594913482666e-01" purity="5.1950639486312866e-01" nType="0">
          <Node pos="l" depth="2" NCoef="0" IVar="9" Cut="3.0000000000000000e+00" cType="1" res="-4.1828649118542671e-03" rms="4.3451082706451416e-01" purity="5.0223618745803833e-01" nType="0">
            <Node pos="l" depth="3" NCoef="0" IVar="-1" Cut="0.0000000000000000e+00" cType="1" res="-9.3357702717185020e-03" rms="4.4212350249290466e-01" purity="3.5668325424194336e-01" nType="-99"/>
            <Node pos="r" depth="3" NCoef="0" IVar="5" Cut="2.0589048767089844e+02" cType="1" res="2.0256102085113525e-02" rms="4.2861551046371460e-01" purity="5.7374721765518188e-01" nType="0">
              <Node pos="l" depth="4" NCoef="0" IVar="-1" Cut="0.0000000000000000e+00" cType="1" res="1.3993197120726109e-02" rms="4.2420154809951782e-01" purity="6.5062737464904785e-01" nType="-99"/>
              <Node pos="r" depth="4" NCoef="0" IVar="-1" Cut="0.0000000000000000e+00" cType="1" res="-1.0161436162889004e-02" rms="4.3079918622970581e-01" purity="4.3780100345611572e-01" nType="-99"/>
            </Node>
          </Node>
          <Node pos="r" depth="2" NCoef="0" IVar="8" Cut="2.9613900184631348e+00" cType="1" res="3.1893886625766754e-02" rms="4.0669247508049011e-01" purity="5.3922343254089355e-01" nType="0">
            <Node pos="l" depth="3" NCoef="0" IVar="-1" Cut="0.0000000000000000e+00" cType="1" res="-1.3728430494666100e-03" rms="4.2852377891540527e-01" purity="4.8102203011512756e-01" nType="-99"/>
            <Node pos="r" depth="3" NCoef="0" IVar="9" Cut="3.0000000000000000e+00" cType="1" res="4.6158060431480408e-02" rms="3.9680629968643188e-01" purity="5.6214225292205811e-01" nType="0">
              <Node pos="l" depth="4" NCoef="0" IVar="-1" Cut="0.0000000000000000e+00" cType="1" res="1.4050415717065334e-02" rms="4.0946957468986511e-01" purity="5.1371747255325317e-01" nType="-99"/>
              <Node pos="r" depth="4" NCoef="0" IVar="-1" Cut="0.0000000000000000e+00" cType="1" res="7.5057013891637325e-03" rms="3.7311494350433350e-01" purity="6.4456516504287720e-01" nType="-99"/>
            </Node>
          </Node>
        </Node>
      </Node>
    </BinaryTree>
    <BinaryTree type="DecisionTree" boostWeight="1.0000000000000000e+00" itree="71">
      <Node pos="s" depth="0" NCoef="0" IVar="4" Cut="4.2348175781250000e+04" cType="1" res="-7.3407869786024094e-03" rms="4.1996452212333679e-01" purity="4.9192512035369873e-01" nType="0">
        <Node pos="l" depth="1" NCoef="0" IVar="4" Cut="3.4190375000000000e+04" cType="1" res="-3.8588158786296844e-02" rms="3.9636334776878357e-01" purity="3.1369000673294067e-01" nType="0">
          <Node pos="l" depth="2" NCoef="0" IVar="-1" Cut="0.0000000000000000e+00" cType="1" res="-2.7554644271731377e-02" rms="3.6332744359970093e-01" purity="2.1620643138885498e-01" nType="-99"/>
          <Node pos="r" depth="2" NCoef="0" IVar="-1" Cut="0.0000000000000000e+00" cType="1" res="-4.0233964100480080e-03" rms="4.1807523369789124e-01" purity="3.8872048258781433e-01" nType="-99"/>
        </Node>
        <Node pos="r" depth="1" NCoef="0" IVar="1" Cut="-2.2444369792938232e+00" cType="1" res="3.0140208546072245e-03" rms="4.2699405550956726e-01" purity="5.5098891258239746e-01" nType="0">
          <Node pos="l" depth="2" NCoef="0" IVar="-1" Cut="0.0000000000000000e+00" cType="1" res="1.2228055857121944e-02" rms="4.1581425070762634e-01" purity="6.2040084600448608e-01" nType="-99"/>
          <Node pos="r" depth="2" NCoef="0" IVar="4" Cut="5.5666320312500000e+04" cType="1" res="-1.0124263353645802e-02" rms="4.2957645654678345e-01" purity="5.2934420108795166e-01" nType="0">
            <Node pos="l" depth="3" NCoef="0" IVar="-1" Cut="0.0000000000000000e+00" cType="1" res="7.0050749927759171e-03" rms="4.3071666359901428e-01" purity="4.9292299151420593e-01" nType="-99"/>
            <Node pos="r" depth="3" NCoef="0" IVar="7" Cut="2.5079939270019531e+02" cType="1" res="-2.5980284437537193e-02" rms="4.2812022566795349e-01" purity="5.4612505435943604e-01" nType="0">
              <Node pos="l" depth="4" NCoef="0" IVar="-1" Cut="0.0000000000000000e+00" cType="1" res="-1.4641601592302322e-02" rms="4.2457437515258789e-01" purity="4.0570399165153503e-01" nType="-99"/>
              <Node pos="r" depth="4" NCoef="0" IVar="-1" Cut="0.0000000000000000e+00" cType="1" res="-3.2687783241271973e-03" rms="4.2963591217994690e-01" purity="6.3457101583480835e-01" nType="-99"/>
            </Node>
          </Node>
        </Node>
      </Node>
    </BinaryTree>
    <BinaryTree type="DecisionTree" boostWeight="1.0000000000000000e+00" itree="72">
      <Node pos="s" depth="0" NCoef="0" IVar="7" Cut="3.7861584472656250e+02" cType="1" res="4.9826782196760178e-03" rms="4.2078736424446106e-01" purity="5.1077783107757568e-01" nType="0">
        <Node pos="l" depth="1" NCoef="0" IVar="0" Cut="2.7324093750000000e+05" cType="1" res="-1.2608728138729930e-04" rms="4.2221751809120178e-01" purity="4.7493156790733337e-01" nType="0">
          <Node pos="l" depth="2" NCoef="0" IVar="0" Cut="1.3459548437500000e+05" cType="1" res="8.5631776601076126e-03" rms="4.4796246290206909e-01" purity="5.6497424840927124e-01" nType="0">
            <Node pos="l" depth="3" NCoef="0" IVar="-1" Cut="0.0000000000000000e+00" cType="1" res="-9.1026648879051208e-03" rms="4.6575987339019775e-01" purity="5.0501084327697754e-01" nType="-99"/>
            <Node pos="r" depth="3" NCoef="0" IVar="0" Cut="1.7417045312500000e+05" cType="1" res="1.8258959054946899e-02" rms="4.4382217526435852e-01" purity="5.7642740011215210e-01" nType="0">
              <Node pos="l" depth="4" NCoef="0" IVar="-1" Cut="0.0000000000000000e+00" cType="1" res="7.1412622928619385e-03" rms="4.3983879685401917e-01" purity="6.3057953119277954e-01" nType="-99"/>
              <Node pos="r" depth="4" NCoef="0" IVar="-1" Cut="0.0000000000000000e+00" cType="1" res="1.0320935398340225e-03" rms="4.4628670811653137e-01" purity="5.3477197885513306e-01" nType="-99"/>
            </Node>
          </Node>
          <Node pos="r" depth="2" NCoef="0" IVar="-1" Cut="0.0000000000000000e+00" cType="1" res="-1.9456803798675537e-02" rms="3.0782136321067810e-01" purity="1.4446902275085449e-01" nType="-99"/>
        </Node>
        <Node pos="r" depth="1" NCoef="0" IVar="-1" Cut="0.0000000000000000e+00" cType="1" res="1.0175110772252083e-02" rms="4.1296187043190002e-01" purity="6.8310123682022095e-01" nType="-99"/>
      </Node>
    </BinaryTree>
    <BinaryTree type="DecisionTree" boostWeight="1.0000000000000000e+00" itree="73">
      <Node pos="s" depth="0" NCoef="0" IVar="1" Cut="-1.3464151620864868e+00" cType="1" res="-2.5814066175371408e-03" rms="4.2038294672966003e-01" purity="4.9617093801498413e-01" nType="0">
        <Node pos="l" depth="1" NCoef="0" IVar="1" Cut="-2.4588048458099365e+00" cType="1" res="1.5376380644738674e-02" rms="4.1992443799972534e-01" purity="5.4026228189468384e-01" nType="0">
          <Node pos="l" depth="2" NCoef="0" IVar="-1" Cut="0.0000000000000000e+00" cType="1" res="-6.4095889683812857e-04" rms="4.2440852522850037e-01" purity="5.2932220697402954e-01" nType="-99"/>
          <Node pos="r" depth="2" NCoef="0" IVar="-1" Cut="0.0000000000000000e+00" cType="1" res="9.1205406934022903e-03" rms="4.1513764858245850e-01" purity="5.5024641752243042e-01" nType="-99"/>
        </Node>
        <Node pos="r" depth="1" NCoef="0" IVar="1" Cut="1.4322162866592407e+00" cType="1" res="-1.2707451358437538e-02" rms="4.2030310630798340e-01" purity="4.7130864858627319e-01" nType="0">
          <Node pos="l" depth="2" NCoef="0" IVar="6" Cut="7.1108281612396240e-01" cType="1" res="-2.9920259490609169e-02" rms="4.1026058793067932e-01" purity="4.1342425346374512e-01" nType="0">
            <Node pos="l" depth="3" NCoef="0" IVar="-1" Cut="0.0000000000000000e+00" cType="1" res="-4.5408401638269424e-03" rms="4.3254423141479492e-01" purity="4.8261600732803345e-01" nType="-99"/>
            <Node pos="r" depth="3" NCoef="0" IVar="-1" Cut="0.0000000000000000e+00" cType="1" res="-1.5407972037792206e-02" rms="3.6807751655578613e-01" purity="2.9608175158500671e-01" nType="-99"/>
          </Node>
          <Node pos="r" depth="2" NCoef="0" IVar="8" Cut="2.9563717842102051e+00" cType="1" res="0.0000000000000000e+00" rms="0.0000000000000000e+00" purity="5.2144438028335571e-01" nType="0">
            <Node pos="l" depth="3" NCoef="0" IVar="-1" Cut="0.0000000000000000e+00" cType="1" res="5.3763389587402344e-03" rms="4.5325744152069092e-01" purity="5.0843191146850586e-01" nType="-99"/>
            <Node pos="r" depth="3" NCoef="0" IVar="8" Cut="3.0622224807739258e+00" cType="1" res="0.0000000000000000e+00" rms="0.0000000000000000e+00" purity="5.3013944625854492e-01" nType="0">
              <Node pos="l" depth="4" NCoef="0" IVar="-1" Cut="0.0000000000000000e+00" cType="1" res="-5.0731510855257511e-03" rms="4.1987261176109314e-01" purity="5.0410979986190796e-01" nType="-99"/>
              <Node pos="r" depth="4" NCoef="0" IVar="-1" Cut="0.0000000000000000e+00" cType="1" res="-5.5253005120903254e-04" rms="4.0069368481636047e-01" purity="5.5580282211303711e-01" nType="-99"/>
            </Node>
          </Node>
        </Node>
      </Node>
    </BinaryTree>
    <BinaryTree type="DecisionTree" boostWeight="1.0000000000000000e+00" itree="74">
      <Node pos="s" depth="0" NCoef="0" IVar="6" Cut="7.1103900671005249e-01" cType="1" res="-9.5050018280744553e-03" rms="4.2715391516685486e-01" purity="4.9213472008705139e-01" nType="0">
        <Node pos="l" depth="1" NCoef="0" IVar="8" Cut="2.7526524066925049e+00" cType="1" res="-2.1303702145814896e-02" rms="4.3791961669921875e-01" purity="5.0083559751510620e-01" nType="0">
          <Node pos="l" depth="2" NCoef="0" IVar="-1" Cut="0.0000000000000000e+00" cType="1" res="6.0924771241843700e-03" rms="4.6366226673126221e-01" purity="4.8686558008193970e-01" nType="-99"/>
          <Node pos="r" depth="2" NCoef="0" IVar="9" Cut="3.0000000000000000e+00" cType="1" res="-2.8384342789649963e-02" rms="4.3293309211730957e-01" purity="5.0323528051376343e-01" nType="0">
            <Node pos="l" depth="3" NCoef="0" IVar="1" Cut="-1.4974714815616608e-01" cType="1" res="-4.7926291823387146e-02" rms="4.3954217433929443e-01" purity="4.0438601374626160e-01" nType="0">
              <Node pos="l" depth="4" NCoef="0" IVar="-1" Cut="0.0000000000000000e+00" cType="1" res="-8.2574347034096718e-03" rms="4.2949730157852173e-01" purity="3.9650452136993408e-01" nType="-99"/>
              <Node pos="r" depth="4" NCoef="0" IVar="-1" Cut="0.0000000000000000e+00" cType="1" res="-9.5338886603713036e-03" rms="4.4920378923416138e-01" purity="4.1266375780105591e-01" nType="-99"/>
            </Node>
            <Node pos="r" depth="3" NCoef="0" IVar="6" Cut="5.7794660329818726e-01" cType="1" res="0.0000000000000000e+00" rms="0.0000000000000000e+00" purity="5.5704063177108765e-01" nType="0">
              <Node pos="l" depth="4" NCoef="0" IVar="-1" Cut="0.0000000000000000e+00" cType="1" res="-9.1006634756922722e-03" rms="4.5250526070594788e-01" purity="4.6036025881767273e-01" nType="-99"/>
              <Node pos="r" depth="4" NCoef="0" IVar="-1" Cut="0.0000000000000000e+00" cType="1" res="-5.5477349087595940e-04" rms="4.0700897574424744e-01" purity="6.3971549272537231e-01" nType="-99"/>
            </Node>
          </Node>
        </Node>
        <Node pos="r" depth="1" NCoef="0" IVar="2" Cut="1.9564458131790161e+00" cType="1" res="1.5973841771483421e-02" rms="4.0174534916877747e-01" purity="4.7334548830986023e-01" nType="0">
          <Node pos="l" depth="2" NCoef="0" IVar="-1" Cut="0.0000000000000000e+00" cType="1" res="-1.1142316507175565e-03" rms="3.7755468487739563e-01" purity="3.6368647217750549e-01" nType="-99"/>
          <Node pos="r" depth="2" NCoef="0" IVar="-1" Cut="0.0000000000000000e+00" cType="1" res="9.5976786687970161e-03" rms="4.2574992775917053e-01" purity="5.9366005659103394e-01" nType="-99"/>
        </Node>
      </Node>
    </BinaryTree>
    <BinaryTree type="DecisionTree" boostWeight="1.0000000000000000e+00" itree="75">
      <Node pos="s" depth="0" NCoef="0" IVar="3" Cut="5.4588378906250000e+04" cType="1" res="-9.7238309681415558e-03" rms="4.2096823453903198e-01" purity="4.9107578396797180e-01" nType="0">
        <Node pos="l" depth="1" NCoef="0" IVar="-1" Cut="0.0000000000000000e+00" cType="1" res="-1.6382744535803795e-02" rms="3.9961504936218262e-01" purity="2.9171523451805115e-01" nType="-99"/>
        <Node pos="r" depth="1" NCoef="0" IVar="4" Cut="9.4402718750000000e+04" cType="1" res="-3.2457201741635799e-03" rms="4.2479208111763000e-01" purity="5.3074860572814941e-01" nType="0">
          <Node pos="l" depth="2" NCoef="0" IVar="8" Cut="2.7943835258483887e+00" cType="1" res="0.0000000000000000e+00" rms="0.0000000000000000e+00" purity="5.0988841056823730e-01" nType="0">
            <Node pos="l" depth="3" NCoef="0" IVar="-1" Cut="0.0000000000000000e+00" cType="1" res="-1.2357418425381184e-02" rms="4.6032753586769104e-01" purity="4.1270679235458374e-01" nType="-99"/>
            <Node pos="r" depth="3" NCoef="0" IVar="4" Cut="5.1572207031250000e+04" cType="1" res="-1.6663820715621114e-03" rms="4.1866946220397949e-01" purity="5.2747625112533569e-01" nType="0">
              <Node pos="l" depth="4" NCoef="0" IVar="-1" Cut="0.0000000000000000e+00" cType="1" res="4.4876281172037125e-03" rms="4.0914288163185120e-01" purity="4.5477110147476196e-01" nType="-99"/>
              <Node pos="r" depth="4" NCoef="0" IVar="-1" Cut="0.0000000000000000e+00" cType="1" res="-2.9067341238260269e-03" rms="4.2336517572402954e-01" purity="5.6641441583633423e-01" nType="-99"/>
            </Node>
          </Node>
          <Node pos="r" depth="2" NCoef="0" IVar="-1" Cut="0.0000000000000000e+00" cType="1" res="6.3016545027494431e-03" rms="4.1981586813926697e-01" purity="6.3483804464340210e-01" nType="-99"/>
        </Node>
      </Node>
    </BinaryTree>
    <BinaryTree type="DecisionTree" boostWeight="1.0000000000000000e+00" itree="76">
      <Node pos="s" depth="0" NCoef="0" IVar="1" Cut="1.4968731999397278e-01" cType="1" res="3.3101227018050849e-04" rms="4.2177036404609680e-01" purity="5.0125730037689209e-01" nType="0">
        <Node pos="l" depth="1" NCoef="0" IVar="2" Cut="1.9998316764831543e+00" cType="1" res="-1.1713026091456413e-02" rms="4.2093580961227417e-01" purity="4.8604497313499451e-01" nType="0">
          <Node pos="l" depth="2" NCoef="0" IVar="7" Cut="2.4563607788085938e+02" cType="1" res="0.0000000000000000e+00" rms="0.0000000000000000e+00" purity="4.4342979788780212e-01" nType="0">
            <Node pos="l" depth="3" NCoef="0" IVar="-1" Cut="0.0000000000000000e+00" cType="1" res="5.2080894820392132e-03" rms="3.8693642616271973e-01" purity="3.2320570945739746e-01" nType="-99"/>
            <Node pos="r" depth="3" NCoef="0" IVar="-1" Cut="0.0000000000000000e+00" cType="1" res="-9.4782275846228004e-04" rms="4.2259895801544189e-01" purity="5.6747055053710938e-01" nType="-99"/>
          </Node>
          <Node pos="r" depth="2" NCoef="0" IVar="9" Cut="3.0000000000000000e+00" cType="1" res="0.0000000000000000e+00" rms="0.0000000000000000e+00" purity="5.3103363513946533e-01" nType="0">
            <Node pos="l" depth="3" NCoef="0" IVar="-1" Cut="0.0000000000000000e+00" cType="1" res="-7.7867484651505947e-03" rms="4.4453048706054688e-01" purity="4.2663583159446716e-01" nType="-99"/>
            <Node pos="r" depth="3" NCoef="0" IVar="-1" Cut="0.0000000000000000e+00" cType="1" res="-1.9517184700816870e-03" rms="4.2846679687500000e-01" purity="6.1393564939498901e-01" nType="-99"/>
          </Node>
        </Node>
        <Node pos="r" depth="1" NCoef="0" IVar="5" Cut="1.8968783569335938e+02" cType="1" res="1.3438582420349121e-02" rms="4.2228657007217407e-01" purity="5.1781284809112549e-01" nType="0">
          <Node pos="l" depth="2" NCoef="0" IVar="6" Cut="6.5447753667831421e-01" cType="1" res="2.6440849527716637e-02" rms="4.1054213047027588e-01" purity="5.6363809108734131e-01" nType="0">
            <Node pos="l" depth="3" NCoef="0" IVar="-1" Cut="0.0000000000000000e+00" cType="1" res="1.4216877520084381e-02" rms="4.2258840799331665e-01" purity="6.0474550724029541e-01" nType="-99"/>
            <Node pos="r" depth="3" NCoef="0" IVar="-1" Cut="0.0000000000000000e+00" cType="1" res="3.5302112810313702e-03" rms="3.9619034528732300e-01" purity="5.1860630512237549e-01" nType="-99"/>
          </Node>
          <Node pos="r" depth="2" NCoef="0" IVar="9" Cut="3.0000000000000000e+00" cType="1" res="-1.6714036464691162e-03" rms="4.3487900495529175e-01" purity="4.6505227684974670e-01" nType="0">
            <Node pos="l" depth="3" NCoef="0" IVar="-1" Cut="0.0000000000000000e+00" cType="1" res="4.6823676675558090e-03" rms="4.3685284256935120e-01" purity="4.3238821625709534e-01" nType="-99"/>
            <Node pos="r" depth="3" NCoef="0" IVar="-1" Cut="0.0000000000000000e+00" cType="1" res="-5.8941198512911797e-03" rms="4.3207171559333801e-01" purity="5.0119459629058838e-01" nType="-99"/>
          </Node>
        </Node>
      </Node>
    </BinaryTree>
    <BinaryTree type="DecisionTree" boostWeight="1.0000000000000000e+00" itree="77">
      <Node pos="s" depth="0" NCoef="0" IVar="6" Cut="7.6758575439453125e-01" cType="1" res="6.7198988981544971e-03" rms="4.2509362101554871e-01" purity="5.0719112157821655e-01" nType="0">
        <Node pos="l" depth="1" NCoef="0" IVar="1" Cut="7.4682873487472534e-01" cType="1" res="2.5299431290477514e-03" rms="4.2998144030570984e-01" purity="5.2465718984603882e-01" nType="0">
          <Node pos="l" depth="2" NCoef="0" IVar="4" Cut="6.8562921875000000e+04" cType="1" res="0.0000000000000000e+00" rms="0.0000000000000000e+00" purity="5.0816744565963745e-01" nType="0">
            <Node pos="l" depth="3" NCoef="0" IVar="8" Cut="2.9430744647979736e+00" cType="1" res="-1.9548915326595306e-02" rms="4.2635914683341980e-01" purity="4.5108592510223389e-01" nType="0">
              <Node pos="l" depth="4" NCoef="0" IVar="-1" Cut="0.0000000000000000e+00" cType="1" res="-1.6856085509061813e-02" rms="4.3162560462951660e-01" purity="3.5069963335990906e-01" nType="-99"/>
              <Node pos="r" depth="4" NCoef="0" IVar="-1" Cut="0.0000000000000000e+00" cType="1" res="7.4908667011186481e-04" rms="4.2142114043235779e-01" purity="5.1194906234741211e-01" nType="-99"/>
            </Node>
            <Node pos="r" depth="3" NCoef="0" IVar="-1" Cut="0.0000000000000000e+00" cType="1" res="2.1499518770724535e-03" rms="4.4096294045448303e-01" purity="5.9506499767303467e-01" nType="-99"/>
          </Node>
          <Node pos="r" depth="2" NCoef="0" IVar="6" Cut="5.9251725673675537e-01" cType="1" res="1.7152985557913780e-02" rms="4.2626604437828064e-01" purity="5.4662173986434937e-01" nType="0">
            <Node pos="l" depth="3" NCoef="0" IVar="-1" Cut="0.0000000000000000e+00" cType="1" res="1.3222035951912403e-02" rms="4.4878312945365906e-01" purity="5.0788700580596924e-01" nType="-99"/>
            <Node pos="r" depth="3" NCoef="0" IVar="6" Cut="6.7577731609344482e-01" cType="1" res="-1.7109025502577424e-03" rms="4.0914332866668701e-01" purity="5.7301640510559082e-01" nType="0">
              <Node pos="l" depth="4" NCoef="0" IVar="-1" Cut="0.0000000000000000e+00" cType="1" res="-2.6255769189447165e-03" rms="4.1404962539672852e-01" purity="5.8229076862335205e-01" nType="-99"/>
              <Node pos="r" depth="4" NCoef="0" IVar="-1" Cut="0.0000000000000000e+00" cType="1" res="1.5754700871184468e-03" rms="4.0406572818756104e-01" purity="5.6371855735778809e-01" nType="-99"/>
            </Node>
          </Node>
        </Node>
        <Node pos="r" depth="1" NCoef="0" IVar="-1" Cut="0.0000000000000000e+00" cType="1" res="9.2755211517214775e-03" rms="4.0103504061698914e-01" purity="4.2605459690093994e-01" nType="-99"/>
      </Node>
    </BinaryTree>
    <BinaryTree type="DecisionTree" boostWeight="1.0000000000000000e+00" itree="78">
      <Node pos="s" depth="0" NCoef="0" IVar="5" Cut="2.1388946533203125e+02" cType="1" res="-7.0595747092738748e-04" rms="4.2085132002830505e-01" purity="4.9810808897018433e-01" nType="0">
        <Node pos="l" depth="1" NCoef="0" IVar="5" Cut="1.8581100463867188e+02" cType="1" res="1.0788414627313614e-02" rms="4.1724017262458801e-01" purity="5.3316545486450195e-01" nType="0">
          <Node pos="l" depth="2" NCoef="0" IVar="5" Cut="1.5588183593750000e+02" cType="1" res="2.3477645590901375e-02" rms="4.1384917497634888e-01" purity="5.6049424409866333e-01" nType="0">
            <Node pos="l" depth="3" NCoef="0" IVar="-1" Cut="0.0000000000000000e+00" cType="1" res="-4.0431129746139050e-03" rms="4.1465297341346741e-01" purity="5.0156033039093018e-01" nType="-99"/>
            <Node pos="r" depth="3" NCoef="0" IVar="6" Cut="6.4998251199722290e-01" cType="1" res="3.8811445236206055e-02" rms="4.1256582736968994e-01" purity="5.8663940429687500e-01" nType="0">
              <Node pos="l" depth="4" NCoef="0" IVar="-1" Cut="0.0000000000000000e+00" cType="1" res="1.4787494204938412e-02" rms="4.2906740307807922e-01" purity="6.1959803104400635e-01" nType="-99"/>
              <Node pos="r" depth="4" NCoef="0" IVar="-1" Cut="0.0000000000000000e+00" cType="1" res="4.9713212065398693e-03" rms="3.9282101392745972e-01" purity="5.5120128393173218e-01" nType="-99"/>
            </Node>
          </Node>
          <Node pos="r" depth="2" NCoef="0" IVar="-1" Cut="0.0000000000000000e+00" cType="1" res="-5.5478555150330067e-03" rms="4.2497551441192627e-01" purity="4.5130360126495361e-01" nType="-99"/>
        </Node>
        <Node pos="r" depth="1" NCoef="0" IVar="7" Cut="1.9927856445312500e+02" cType="1" res="-2.6934646070003510e-02" rms="4.2782291769981384e-01" purity="4.1811153292655945e-01" nType="0">
          <Node pos="l" depth="2" NCoef="0" IVar="-1" Cut="0.0000000000000000e+00" cType="1" res="-1.0169947054237127e-03" rms="4.0109404921531677e-01" purity="2.8491532802581787e-01" nType="-99"/>
          <Node pos="r" depth="2" NCoef="0" IVar="-1" Cut="0.0000000000000000e+00" cType="1" res="-1.2465794570744038e-02" rms="4.4044846296310425e-01" purity="4.8661908507347107e-01" nType="-99"/>
        </Node>
      </Node>
    </BinaryTree>
    <BinaryTree type="DecisionTree" boostWeight="1.0000000000000000e+00" itree="79">
      <Node pos="s" depth="0" NCoef="0" IVar="2" Cut="2.8421649932861328e+00" cType="1" res="-8.7808473035693169e-03" rms="4.2219492793083191e-01" purity="4.9089145660400391e-01" nType="0">
        <Node pos="l" depth="1" NCoef="0" IVar="2" Cut="2.3142440319061279e+00" cType="1" res="-3.1536794267594814e-03" rms="4.1759961843490601e-01" purity="4.8711180686950684e-01" nType="0">
          <Node pos="l" depth="2" NCoef="0" IVar="9" Cut="4.0000000000000000e+00" cType="1" res="-1.3154720887541771e-02" rms="4.1171503067016602e-01" purity="4.5463305711746216e-01" nType="0">
            <Node pos="l" depth="3" NCoef="0" IVar="2" Cut="1.4678113460540771e+00" cType="1" res="-1.9889090210199356e-02" rms="4.1213732957839966e-01" purity="4.1862419247627258e-01" nType="0">
              <Node pos="l" depth="4" NCoef="0" IVar="-1" Cut="0.0000000000000000e+00" cType="1" res="-1.0154506890103221e-03" rms="3.8692504167556763e-01" purity="3.5388973355293274e-01" nType="-99"/>
              <Node pos="r" depth="4" NCoef="0" IVar="-1" Cut="0.0000000000000000e+00" cType="1" res="-1.0745399631559849e-02" rms="4.4617882370948792e-01" purity="5.1604413986206055e-01" nType="-99"/>
            </Node>
            <Node pos="r" depth="3" NCoef="0" IVar="-1" Cut="0.0000000000000000e+00" cType="1" res="4.2500430718064308e-03" rms="4.0934127569198608e-01" purity="5.9425210952758789e-01" nType="-99"/>
          </Node>
          <Node pos="r" depth="2" NCoef="0" IVar="-1" Cut="0.0000000000000000e+00" cType="1" res="9.6366927027702332e-03" rms="4.3599709868431091e-01" purity="6.0380488634109497e-01" nType="-99"/>
        </Node>
        <Node pos="r" depth="1" NCoef="0" IVar="-1" Cut="0.0000000000000000e+00" cType="1" res="-7.9661151394248009e-03" rms="4.4061276316642761e-01" purity="5.0716352462768555e-01" nType="-99"/>
      </Node>
    </BinaryTree>
    <BinaryTree type="DecisionTree" boostWeight="1.0000000000000000e+00" itree="80">
      <Node pos="s" depth="0" NCoef="0" IVar="1" Cut="1.9446142911911011e+00" cType="1" res="1.5500490553677082e-02" rms="4.2296871542930603e-01" purity="5.1144850254058838e-01" nType="0">
        <Node pos="l" depth="1" NCoef="0" IVar="3" Cut="8.2929460937500000e+04" cType="1" res="8.1971520557999611e-03" rms="4.2120152711868286e-01" purity="4.9238660931587219e-01" nType="0">
          <Node pos="l" depth="2" NCoef="0" IVar="8" Cut="2.9957258701324463e+00" cType="1" res="2.1523542702198029e-02" rms="4.0848883986473083e-01" purity="4.4083639979362488e-01" nType="0">
            <Node pos="l" depth="3" NCoef="0" IVar="-1" Cut="0.0000000000000000e+00" cType="1" res="-5.6023366050794721e-04" rms="4.1707080602645874e-01" purity="3.7943562865257263e-01" nType="-99"/>
            <Node pos="r" depth="3" NCoef="0" IVar="6" Cut="7.4059689044952393e-01" cType="1" res="0.0000000000000000e+00" rms="0.0000000000000000e+00" purity="4.9201792478561401e-01" nType="0">
              <Node pos="l" depth="4" NCoef="0" IVar="-1" Cut="0.0000000000000000e+00" cType="1" res="1.3393066823482513e-02" rms="4.0855413675308228e-01" purity="5.7034391164779663e-01" nType="-99"/>
              <Node pos="r" depth="4" NCoef="0" IVar="-1" Cut="0.0000000000000000e+00" cType="1" res="1.1263142339885235e-02" rms="3.9119008183479309e-01" purity="4.1046634316444397e-01" nType="-99"/>
            </Node>
          </Node>
          <Node pos="r" depth="2" NCoef="0" IVar="2" Cut="1.4003576040267944e+00" cType="1" res="-6.3524828292429447e-03" rms="4.3418994545936584e-01" purity="5.4866868257522583e-01" nType="0">
            <Node pos="l" depth="3" NCoef="0" IVar="-1" Cut="0.0000000000000000e+00" cType="1" res="5.1604723557829857e-03" rms="4.2562919855117798e-01" purity="4.8053494095802307e-01" nType="-99"/>
            <Node pos="r" depth="3" NCoef="0" IVar="1" Cut="-1.4458814859390259e+00" cType="1" res="-1.8897138535976410e-02" rms="4.3816697597503662e-01" purity="5.8497321605682373e-01" nType="0">
              <Node pos="l" depth="4" NCoef="0" IVar="-1" Cut="0.0000000000000000e+00" cType="1" res="-5.9094452299177647e-03" rms="4.3556347489356995e-01" purity="5.8022522926330566e-01" nType="-99"/>
              <Node pos="r" depth="4" NCoef="0" IVar="-1" Cut="0.0000000000000000e+00" cType="1" res="-4.3426014599390328e-04" rms="4.4033420085906982e-01" purity="5.9010094404220581e-01" nType="-99"/>
            </Node>
          </Node>
        </Node>
        <Node pos="r" depth="1" NCoef="0" IVar="5" Cut="1.8758007812500000e+02" cType="1" res="3.4828271716833115e-02" rms="4.2700788378715515e-01" purity="5.6189447641372681e-01" nType="0">
          <Node pos="l" depth="2" NCoef="0" IVar="-1" Cut="0.0000000000000000e+00" cType="1" res="1.8518071621656418e-02" rms="4.1799613833427429e-01" purity="6.1584150791168213e-01" nType="-99"/>
          <Node pos="r" depth="2" NCoef="0" IVar="-1" Cut="0.0000000000000000e+00" cType="1" res="4.7961506061255932e-03" rms="4.3623235821723938e-01" purity="5.0046855211257935e-01" nType="-99"/>
        </Node>
      </Node>
    </BinaryTree>
    <BinaryTree type="DecisionTree" boostWeight="1.0000000000000000e+00" itree="81">
      <Node pos="s" depth="0" NCoef="0" IVar="3" Cut="1.1213459375000000e+05" cType="1" res="5.9144006809219718e-04" rms="4.1981297731399536e-01" purity="5.0062614679336548e-01" nType="0">
        <Node pos="l" depth="1" NCoef="0" IVar="5" Cut="1.8396502685546875e+02" cType="1" res="-6.7502064630389214e-03" rms="4.1487756371498108e-01" purity="4.7066700458526611e-01" nType="0">
          <Node pos="l" depth="2" NCoef="0" IVar="7" Cut="2.5318663024902344e+02" cType="1" res="6.3220099546015263e-03" rms="4.1725444793701172e-01" purity="5.2281320095062256e-01" nType="0">
            <Node pos="l" depth="3" NCoef="0" IVar="5" Cut="1.6367481994628906e+02" cType="1" res="-5.8047203347086906e-03" rms="4.1323634982109070e-01" purity="4.2533543705940247e-01" nType="0">
              <Node pos="l" depth="4" NCoef="0" IVar="-1" Cut="0.0000000000000000e+00" cType="1" res="5.3687626495957375e-03" rms="4.0515658259391785e-01" purity="4.3530544638633728e-01" nType="-99"/>
              <Node pos="r" depth="4" NCoef="0" IVar="-1" Cut="0.0000000000000000e+00" cType="1" res="-9.1332439333200455e-03" rms="4.2057868838310242e-01" purity="4.1434839367866516e-01" nType="-99"/>
            </Node>
            <Node pos="r" depth="3" NCoef="0" IVar="-1" Cut="0.0000000000000000e+00" cType="1" res="8.1389648839831352e-03" rms="4.2261347174644470e-01" purity="6.7069250345230103e-01" nType="-99"/>
          </Node>
          <Node pos="r" depth="2" NCoef="0" IVar="2" Cut="1.4041353464126587e+00" cType="1" res="-2.2984908893704414e-02" rms="4.1132864356040955e-01" purity="4.0590530633926392e-01" nType="0">
            <Node pos="l" depth="3" NCoef="0" IVar="-1" Cut="0.0000000000000000e+00" cType="1" res="-2.1128706634044647e-02" rms="3.5251757502555847e-01" purity="2.5258776545524597e-01" nType="-99"/>
            <Node pos="r" depth="3" NCoef="0" IVar="5" Cut="2.2373666381835938e+02" cType="1" res="-1.1123928241431713e-02" rms="4.3801626563072205e-01" purity="4.8468077182769775e-01" nType="0">
              <Node pos="l" depth="4" NCoef="0" IVar="-1" Cut="0.0000000000000000e+00" cType="1" res="-8.4122382104396820e-03" rms="4.2642703652381897e-01" purity="4.5260518789291382e-01" nType="-99"/>
              <Node pos="r" depth="4" NCoef="0" IVar="-1" Cut="0.0000000000000000e+00" cType="1" res="5.7146884500980377e-03" rms="4.4691994786262512e-01" purity="5.1756173372268677e-01" nType="-99"/>
            </Node>
          </Node>
        </Node>
        <Node pos="r" depth="1" NCoef="0" IVar="8" Cut="2.9562442302703857e+00" cType="1" res="2.0789163187146187e-02" rms="4.3245807290077209e-01" purity="5.8304733037948608e-01" nType="0">
          <Node pos="l" depth="2" NCoef="0" IVar="-1" Cut="0.0000000000000000e+00" cType="1" res="1.2734000571072102e-02" rms="4.5001918077468872e-01" purity="5.7764291763305664e-01" nType="-99"/>
          <Node pos="r" depth="2" NCoef="0" IVar="-1" Cut="0.0000000000000000e+00" cType="1" res="-6.7100604064762592e-04" rms="4.1729572415351868e-01" purity="5.8711910247802734e-01" nType="-99"/>
        </Node>
      </Node>
    </BinaryTree>
    <BinaryTree type="DecisionTree" boostWeight="1.0000000000000000e+00" itree="82">
      <Node pos="s" depth="0" NCoef="0" IVar="1" Cut="-4.4863155484199524e-01" cType="1" res="4.5997537672519684e-03" rms="4.2248255014419556e-01" purity="5.0316977500915527e-01" nType="0">
        <Node pos="l" depth="1" NCoef="0" IVar="9" Cut="3.0000000000000000e+00" cType="1" res="0.0000000000000000e+00" rms="0.0000000000000000e+00" purity="5.1981765031814575e-01" nType="0">
          <Node pos="l" depth="2" NCoef="0" IVar="2" Cut="1.8618787527084351e+00" cType="1" res="0.0000000000000000e+00" rms="0.0000000000000000e+00" purity="4.3890371918678284e-01" nType="0">
            <Node pos="l" depth="3" NCoef="0" IVar="-1" Cut="0.0000000000000000e+00" cType="1" res="5.5905468761920929e-03" rms="3.9355909824371338e-01" purity="3.9341574907302856e-01" nType="-99"/>
            <Node pos="r" depth="3" NCoef="0" IVar="-1" Cut="0.0000000000000000e+00" cType="1" res="-4.5059020631015301e-03" rms="4.5653274655342102e-01" purity="4.8298791050910950e-01" nType="-99"/>
          </Node>
          <Node pos="r" depth="2" NCoef="0" IVar="8" Cut="3.0015656948089600e+00" cType="1" res="3.2068841159343719e-02" rms="4.2295414209365845e-01" purity="5.9326612949371338e-01" nType="0">
            <Node pos="l" depth="3" NCoef="0" IVar="-1" Cut="0.0000000000000000e+00" cType="1" res="3.0916403047740459e-03" rms="4.4385537505149841e-01" purity="5.3564035892486572e-01" nType="-99"/>
            <Node pos="r" depth="3" NCoef="0" IVar="-1" Cut="0.0000000000000000e+00" cType="1" res="1.8347185105085373e-02" rms="3.9829668402671814e-01" purity="6.5515947341918945e-01" nType="-99"/>
          </Node>
        </Node>
        <Node pos="r" depth="1" NCoef="0" IVar="2" Cut="1.7003976106643677e+00" cType="1" res="-4.5495103113353252e-03" rms="4.1996252536773682e-01" purity="4.8952168226242065e-01" nType="0">
          <Node pos="l" depth="2" NCoef="0" IVar="1" Cut="2.1145086288452148e+00" cType="1" res="-2.2109419107437134e-02" rms="4.0014842152595520e-01" purity="3.7488040328025818e-01" nType="0">
            <Node pos="l" depth="3" NCoef="0" IVar="-1" Cut="0.0000000000000000e+00" cType="1" res="-1.5406818129122257e-02" rms="3.9389240741729736e-01" purity="3.2619053125381470e-01" nType="-99"/>
            <Node pos="r" depth="3" NCoef="0" IVar="-1" Cut="0.0000000000000000e+00" cType="1" res="1.4974913028709125e-05" rms="4.0649846196174622e-01" purity="4.3386664986610413e-01" nType="-99"/>
          </Node>
          <Node pos="r" depth="2" NCoef="0" IVar="8" Cut="2.9574697017669678e+00" cType="1" res="9.5510482788085938e-03" rms="4.3470752239227295e-01" purity="5.8157825469970703e-01" nType="0">
            <Node pos="l" depth="3" NCoef="0" IVar="-1" Cut="0.0000000000000000e+00" cType="1" res="6.5071964636445045e-03" rms="4.4730523228645325e-01" purity="5.7908612489700317e-01" nType="-99"/>
            <Node pos="r" depth="3" NCoef="0" IVar="-1" Cut="0.0000000000000000e+00" cType="1" res="-3.3925138995982707e-04" rms="4.2590343952178955e-01" purity="5.8321368694305420e-01" nType="-99"/>
          </Node>
        </Node>
      </Node>
    </BinaryTree>
    <BinaryTree type="DecisionTree" boostWeight="1.0000000000000000e+00" itree="83">
      <Node pos="s" depth="0" NCoef="0" IVar="6" Cut="4.8480477929115295e-01" cType="1" res="-3.9774347096681595e-03" rms="4.2174017429351807e-01" purity="4.9611884355545044e-01" nType="0">
        <Node pos="l" depth="1" NCoef="0" IVar="-1" Cut="0.0000000000000000e+00" cType="1" res="-8.8780466467142105e-03" rms="4.4249248504638672e-01" purity="3.4038022160530090e-01" nType="-99"/>
        <Node pos="r" depth="1" NCoef="0" IVar="7" Cut="1.9139851379394531e+02" cType="1" res="1.6733998199924827e-04" rms="4.1885051131248474e-01" purity="5.1588684320449829e-01" nType="0">
          <Node pos="l" depth="2" NCoef="0" IVar="2" Cut="2.1501471996307373e+00" cType="1" res="9.8127294331789017e-03" rms="4.0814405679702759e-01" purity="3.4887108206748962e-01" nType="0">
            <Node pos="l" depth="3" NCoef="0" IVar="-1" Cut="0.0000000000000000e+00" cType="1" res="7.9381475225090981e-03" rms="3.8054060935974121e-01" purity="3.0088847875595093e-01" nType="-99"/>
            <Node pos="r" depth="3" NCoef="0" IVar="-1" Cut="0.0000000000000000e+00" cType="1" res="-1.3440951006487012e-03" rms="4.4102516770362854e-01" purity="4.1149929165840149e-01" nType="-99"/>
          </Node>
          <Node pos="r" depth="2" NCoef="0" IVar="9" Cut="4.0000000000000000e+00" cType="1" res="0.0000000000000000e+00" rms="0.0000000000000000e+00" purity="6.0769468545913696e-01" nType="0">
            <Node pos="l" depth="3" NCoef="0" IVar="7" Cut="2.3980899047851562e+02" cType="1" res="0.0000000000000000e+00" rms="0.0000000000000000e+00" purity="5.7539057731628418e-01" nType="0">
              <Node pos="l" depth="4" NCoef="0" IVar="-1" Cut="0.0000000000000000e+00" cType="1" res="3.4059355966746807e-03" rms="4.3568509817123413e-01" purity="5.2886247634887695e-01" nType="-99"/>
              <Node pos="r" depth="4" NCoef="0" IVar="-1" Cut="0.0000000000000000e+00" cType="1" res="-9.1064237058162689e-03" rms="4.3322676420211792e-01" purity="5.9680497646331787e-01" nType="-99"/>
            </Node>
            <Node pos="r" depth="3" NCoef="0" IVar="-1" Cut="0.0000000000000000e+00" cType="1" res="9.5694717019796371e-03" rms="3.9502605795860291e-01" purity="6.9485855102539062e-01" nType="-99"/>
          </Node>
        </Node>
      </Node>
    </BinaryTree>
    <BinaryTree type="DecisionTree" boostWeight="1.0000000000000000e+00" itree="84">
      <Node pos="s" depth="0" NCoef="0" IVar="9" Cut="2.0000000000000000e+00" cType="1" res="-4.1226958855986595e-03" rms="4.2359212040901184e-01" purity="4.9830645322799683e-01" nType="0">
        <Node pos="l" depth="1" NCoef="0" IVar="-1" Cut="0.0000000000000000e+00" cType="1" res="-9.6784131601452827e-03" rms="4.2430979013442993e-01" purity="3.7101796269416809e-01" nType="-99"/>
        <Node pos="r" depth="1" NCoef="0" IVar="2" Cut="2.9991636276245117e+00" cType="1" res="1.1377797927707434e-03" rms="4.2328074574470520e-01" purity="5.1770508289337158e-01" nType="0">
          <Node pos="l" depth="2" NCoef="0" IVar="2" Cut="2.3067545890808105e+00" cType="1" res="5.4099103435873985e-03" rms="4.1955408453941345e-01" purity="5.1793521642684937e-01" nType="0">
            <Node pos="l" depth="3" NCoef="0" IVar="2" Cut="1.8846957683563232e+00" cType="1" res="-5.7748281396925449e-03" rms="4.1433626413345337e-01" purity="4.7423413395881653e-01" nType="0">
              <Node pos="l" depth="4" NCoef="0" IVar="-1" Cut="0.0000000000000000e+00" cType="1" res="1.0138584766536951e-03" rms="4.0529915690422058e-01" purity="4.4976323843002319e-01" nType="-99"/>
              <Node pos="r" depth="4" NCoef="0" IVar="-1" Cut="0.0000000000000000e+00" cType="1" res="-1.1809411458671093e-02" rms="4.4501599669456482e-01" purity="5.6584894657135010e-01" nType="-99"/>
            </Node>
            <Node pos="r" depth="3" NCoef="0" IVar="-1" Cut="0.0000000000000000e+00" cType="1" res="1.0717601515352726e-02" rms="4.3153905868530273e-01" purity="6.3227248191833496e-01" nType="-99"/>
          </Node>
          <Node pos="r" depth="2" NCoef="0" IVar="-1" Cut="0.0000000000000000e+00" cType="1" res="-6.7736431956291199e-03" rms="4.4380140304565430e-01" purity="5.1634722948074341e-01" nType="-99"/>
        </Node>
      </Node>
    </BinaryTree>
    <BinaryTree type="DecisionTree" boostWeight="1.0000000000000000e+00" itree="85">
      <Node pos="s" depth="0" NCoef="0" IVar="1" Cut="2.2437086105346680e+00" cType="1" res="-7.5968769378960133e-03" rms="4.2239913344383240e-01" purity="4.9105900526046753e-01" nType="0">
        <Node pos="l" depth="1" NCoef="0" IVar="7" Cut="1.6825189208984375e+02" cType="1" res="-1.4033479616045952e-02" rms="4.2230114340782166e-01" purity="4.7457990050315857e-01" nType="0">
          <Node pos="l" depth="2" NCoef="0" IVar="1" Cut="-8.3399909734725952e-01" cType="1" res="1.3850868679583073e-02" rms="3.9756494760513306e-01" purity="3.0540087819099426e-01" nType="0">
            <Node pos="l" depth="3" NCoef="0" IVar="-1" Cut="0.0000000000000000e+00" cType="1" res="1.3570677489042282e-02" rms="4.1880154609680176e-01" purity="3.5114008188247681e-01" nType="-99"/>
            <Node pos="r" depth="3" NCoef="0" IVar="-1" Cut="0.0000000000000000e+00" cType="1" res="-2.7117212302982807e-03" rms="3.7237048149108887e-01" purity="2.5728431344032288e-01" nType="-99"/>
          </Node>
          <Node pos="r" depth="2" NCoef="0" IVar="2" Cut="1.1320413351058960e+00" cType="1" res="-2.4095267057418823e-02" rms="4.3043518066406250e-01" purity="5.3562647104263306e-01" nType="0">
            <Node pos="l" depth="3" NCoef="0" IVar="-1" Cut="0.0000000000000000e+00" cType="1" res="1.2974285054951906e-03" rms="4.0613129734992981e-01" purity="3.8280946016311646e-01" nType="-99"/>
            <Node pos="r" depth="3" NCoef="0" IVar="9" Cut="3.0000000000000000e+00" cType="1" res="-3.2354265451431274e-02" rms="4.3712219595909119e-01" purity="5.8146959543228149e-01" nType="0">
              <Node pos="l" depth="4" NCoef="0" IVar="-1" Cut="0.0000000000000000e+00" cType="1" res="-1.6472149640321732e-02" rms="4.5687755942344666e-01" purity="4.9642002582550049e-01" nType="-99"/>
              <Node pos="r" depth="4" NCoef="0" IVar="-1" Cut="0.0000000000000000e+00" cType="1" res="-5.4252534173429012e-03" rms="4.2660087347030640e-01" purity="6.2264060974121094e-01" nType="-99"/>
            </Node>
          </Node>
        </Node>
        <Node pos="r" depth="1" NCoef="0" IVar="1" Cut="2.7568738460540771e+00" cType="1" res="1.5795327723026276e-02" rms="4.2192894220352173e-01" purity="5.5094796419143677e-01" nType="0">
          <Node pos="l" depth="2" NCoef="0" IVar="-1" Cut="0.0000000000000000e+00" cType="1" res="1.1655386537313461e-02" rms="4.2112624645233154e-01" purity="5.8632415533065796e-01" nType="-99"/>
          <Node pos="r" depth="2" NCoef="0" IVar="-1" Cut="0.0000000000000000e+00" cType="1" res="-1.1306519154459238e-03" rms="4.2190420627593994e-01" purity="5.1470363140106201e-01" nType="-99"/>
        </Node>
      </Node>
    </BinaryTree>
    <BinaryTree type="DecisionTree" boostWeight="1.0000000000000000e+00" itree="86">
      <Node pos="s" depth="0" NCoef="0" IVar="9" Cut="3.0000000000000000e+00" cType="1" res="9.2167379334568977e-03" rms="4.1884961724281311e-01" purity="5.1349264383316040e-01" nType="0">
        <Node pos="l" depth="1" NCoef="0" IVar="1" Cut="-2.2434115409851074e+00" cType="1" res="0.0000000000000000e+00" rms="0.0000000000000000e+00" purity="4.2831286787986755e-01" nType="0">
          <Node pos="l" depth="2" NCoef="0" IVar="-1" Cut="0.0000000000000000e+00" cType="1" res="6.7921034060418606e-03" rms="4.1026994585990906e-01" purity="5.3710889816284180e-01" nType="-99"/>
          <Node pos="r" depth="2" NCoef="0" IVar="1" Cut="1.6025893688201904e+00" cType="1" res="-1.5813976526260376e-02" rms="4.1882750391960144e-01" purity="3.9177349209785461e-01" nType="0">
            <Node pos="l" depth="3" NCoef="0" IVar="-1" Cut="0.0000000000000000e+00" cType="1" res="-1.0699541307985783e-02" rms="4.0455907583236694e-01" purity="3.0087381601333618e-01" nType="-99"/>
            <Node pos="r" depth="3" NCoef="0" IVar="-1" Cut="0.0000000000000000e+00" cType="1" res="3.5679338034242392e-03" rms="4.3241554498672485e-01" purity="4.9265235662460327e-01" nType="-99"/>
          </Node>
        </Node>
        <Node pos="r" depth="1" NCoef="0" IVar="2" Cut="1.6932065486907959e+00" cType="1" res="2.2687111049890518e-02" rms="4.2029148340225220e-01" purity="5.8952087163925171e-01" nType="0">
          <Node pos="l" depth="2" NCoef="0" IVar="1" Cut="1.4926464855670929e-01" cType="1" res="-1.4819870702922344e-03" rms="4.1617017984390259e-01" purity="4.6340733766555786e-01" nType="0">
            <Node pos="l" depth="3" NCoef="0" IVar="-1" Cut="0.0000000000000000e+00" cType="1" res="-3.1476414296776056e-03" rms="4.0740001201629639e-01" purity="4.5025864243507385e-01" nType="-99"/>
            <Node pos="r" depth="3" NCoef="0" IVar="-1" Cut="0.0000000000000000e+00" cType="1" res="2.1765655837953091e-03" rms="4.2479905486106873e-01" purity="4.7681111097335815e-01" nType="-99"/>
          </Node>
          <Node pos="r" depth="2" NCoef="0" IVar="2" Cut="2.6341152191162109e+00" cType="1" res="3.8858406245708466e-02" rms="4.2225483059883118e-01" purity="6.7390215396881104e-01" nType="0">
            <Node pos="l" depth="3" NCoef="0" IVar="-1" Cut="0.0000000000000000e+00" cType="1" res="1.9456999376416206e-02" rms="4.1486001014709473e-01" purity="7.1617311239242554e-01" nType="-99"/>
            <Node pos="r" depth="3" NCoef="0" IVar="-1" Cut="0.0000000000000000e+00" cType="1" res="5.4974304512143135e-03" rms="4.2984443902969360e-01" purity="6.2316411733627319e-01" nType="-99"/>
          </Node>
        </Node>
      </Node>
    </BinaryTree>
    <BinaryTree type="DecisionTree" boostWeight="1.0000000000000000e+00" itree="87">
      <Node pos="s" depth="0" NCoef="0" IVar="4" Cut="9.7338367187500000e+04" cType="1" res="-1.4557158574461937e-03" rms="4.1930565237998962e-01" purity="5.0485795736312866e-01" nType="0">
        <Node pos="l" depth="1" NCoef="0" IVar="1" Cut="-7.4757391214370728e-01" cType="1" res="-7.5109838508069515e-03" rms="4.1863706707954407e-01" purity="4.8243996500968933e-01" nType="0">
          <Node pos="l" depth="2" NCoef="0" IVar="4" Cut="5.2692527343750000e+04" cType="1" res="8.1479614600539207e-03" rms="4.2001187801361084e-01" purity="5.1166939735412598e-01" nType="0">
            <Node pos="l" depth="3" NCoef="0" IVar="-1" Cut="0.0000000000000000e+00" cType="1" res="-3.5744411870837212e-03" rms="4.1073334217071533e-01" purity="3.9739730954170227e-01" nType="-99"/>
            <Node pos="r" depth="3" NCoef="0" IVar="-1" Cut="0.0000000000000000e+00" cType="1" res="5.5100182071328163e-03" rms="4.2671206593513489e-01" purity="6.0187053680419922e-01" nType="-99"/>
          </Node>
          <Node pos="r" depth="2" NCoef="0" IVar="8" Cut="2.8493144512176514e+00" cType="1" res="-1.8541287630796432e-02" rms="4.1731333732604980e-01" purity="4.6185046434402466e-01" nType="0">
            <Node pos="l" depth="3" NCoef="0" IVar="-1" Cut="0.0000000000000000e+00" cType="1" res="-1.4557936228811741e-02" rms="4.4626393914222717e-01" purity="4.0910932421684265e-01" nType="-99"/>
            <Node pos="r" depth="3" NCoef="0" IVar="1" Cut="2.5850389003753662e+00" cType="1" res="-9.5184650272130966e-03" rms="4.0936458110809326e-01" purity="4.7484362125396729e-01" nType="0">
              <Node pos="l" depth="4" NCoef="0" IVar="-1" Cut="0.0000000000000000e+00" cType="1" res="-2.1795902284793556e-04" rms="4.0411028265953064e-01" purity="4.7702699899673462e-01" nType="-99"/>
              <Node pos="r" depth="4" NCoef="0" IVar="-1" Cut="0.0000000000000000e+00" cType="1" res="-1.1252683587372303e-02" rms="4.2330667376518250e-01" purity="4.6846398711204529e-01" nType="-99"/>
            </Node>
          </Node>
        </Node>
        <Node pos="r" depth="1" NCoef="0" IVar="-1" Cut="0.0000000000000000e+00" cType="1" res="1.1197376996278763e-02" rms="4.2152783274650574e-01" purity="6.6789495944976807e-01" nType="-99"/>
      </Node>
    </BinaryTree>
    <BinaryTree type="DecisionTree" boostWeight="1.0000000000000000e+00" itree="88">
      <Node pos="s" depth="0" NCoef="0" IVar="1" Cut="2.5424683094024658e+00" cType="1" res="2.5760018615983427e-04" rms="4.1583734750747681e-01" purity="5.0343459844589233e-01" nType="0">
        <Node pos="l" depth="1" NCoef="0" IVar="8" Cut="2.7943804264068604e+00" cType="1" res="-4.3887901119887829e-03" rms="4.1478127241134644e-01" purity="4.9479320645332336e-01" nType="0">
          <Node pos="l" depth="2" NCoef="0" IVar="-1" Cut="0.0000000000000000e+00" cType="1" res="-1.1967315338551998e-02" rms="4.4746348261833191e-01" purity="4.1932594776153564e-01" nType="-99"/>
          <Node pos="r" depth="2" NCoef="0" IVar="2" Cut="2.8421649932861328e+00" cType="1" res="3.0054114758968353e-03" rms="4.0791049599647522e-01" purity="5.0900709629058838e-01" nType="0">
            <Node pos="l" depth="3" NCoef="0" IVar="7" Cut="3.5073684692382812e+02" cType="1" res="-6.1995638534426689e-03" rms="4.0328785777091980e-01" purity="4.9540933966636658e-01" nType="0">
              <Node pos="l" depth="4" NCoef="0" IVar="-1" Cut="0.0000000000000000e+00" cType="1" res="-5.1212324760854244e-03" rms="4.1109549999237061e-01" purity="4.2935040593147278e-01" nType="-99"/>
              <Node pos="r" depth="4" NCoef="0" IVar="-1" Cut="0.0000000000000000e+00" cType="1" res="1.1342295445501804e-02" rms="3.6778569221496582e-01" purity="7.6204681396484375e-01" nType="-99"/>
            </Node>
            <Node pos="r" depth="3" NCoef="0" IVar="-1" Cut="0.0000000000000000e+00" cType="1" res="1.3382347300648689e-02" rms="4.2568248510360718e-01" purity="5.7037174701690674e-01" nType="-99"/>
          </Node>
        </Node>
        <Node pos="r" depth="1" NCoef="0" IVar="-1" Cut="0.0000000000000000e+00" cType="1" res="7.1857497096061707e-03" rms="4.2040476202964783e-01" purity="5.4774194955825806e-01" nType="-99"/>
      </Node>
    </BinaryTree>
    <BinaryTree type="DecisionTree" boostWeight="1.0000000000000000e+00" itree="89">
      <Node pos="s" depth="0" NCoef="0" IVar="1" Cut="-4.4914981722831726e-01" cType="1" res="-7.3102768510580063e-03" rms="4.1871643066406250e-01" purity="4.9911546707153320e-01" nType="0">
        <Node pos="l" depth="1" NCoef="0" IVar="4" Cut="7.6701867187500000e+04" cType="1" res="1.1714101769030094e-02" rms="4.1674461960792542e-01" purity="5.2105051279067993e-01" nType="0">
          <Node pos="l" depth="2" NCoef="0" IVar="1" Cut="-1.7313297986984253e+00" cType="1" res="1.9347976893186569e-02" rms="4.1517955064773560e-01" purity="4.8686122894287109e-01" nType="0">
            <Node pos="l" depth="3" NCoef="0" IVar="4" Cut="4.9799398437500000e+04" cType="1" res="2.6446502655744553e-02" rms="4.1377094388008118e-01" purity="5.1982027292251587e-01" nType="0">
              <Node pos="l" depth="4" NCoef="0" IVar="-1" Cut="0.0000000000000000e+00" cType="1" res="-2.4900431744754314e-03" rms="4.1598972678184509e-01" purity="4.0015941858291626e-01" nType="-99"/>
              <Node pos="r" depth="4" NCoef="0" IVar="-1" Cut="0.0000000000000000e+00" cType="1" res="1.4489130116999149e-02" rms="4.0947544574737549e-01" purity="6.2719553709030151e-01" nType="-99"/>
            </Node>
            <Node pos="r" depth="3" NCoef="0" IVar="-1" Cut="0.0000000000000000e+00" cType="1" res="1.9194267224520445e-03" rms="4.1764372587203979e-01" purity="4.2025110125541687e-01" nType="-99"/>
          </Node>
          <Node pos="r" depth="2" NCoef="0" IVar="-1" Cut="0.0000000000000000e+00" cType="1" res="-2.5189034640789032e-03" rms="4.2018556594848633e-01" purity="6.1140221357345581e-01" nType="-99"/>
        </Node>
        <Node pos="r" depth="1" NCoef="0" IVar="3" Cut="9.8736367187500000e+04" cType="1" res="-2.2527994588017464e-02" rms="4.1966664791107178e-01" purity="4.8156955838203430e-01" nType="0">
          <Node pos="l" depth="2" NCoef="0" IVar="2" Cut="1.6572039127349854e+00" cType="1" res="-3.8345228880643845e-02" rms="4.1204690933227539e-01" purity="4.1450244188308716e-01" nType="0">
            <Node pos="l" depth="3" NCoef="0" IVar="-1" Cut="0.0000000000000000e+00" cType="1" res="-2.7198227122426033e-02" rms="3.6243805289268494e-01" purity="2.7046146988868713e-01" nType="-99"/>
            <Node pos="r" depth="3" NCoef="0" IVar="-1" Cut="0.0000000000000000e+00" cType="1" res="-6.7318654619157314e-03" rms="4.4315427541732788e-01" purity="5.1645445823669434e-01" nType="-99"/>
          </Node>
          <Node pos="r" depth="2" NCoef="0" IVar="-1" Cut="0.0000000000000000e+00" cType="1" res="1.2007365003228188e-03" rms="4.3089282512664795e-01" purity="5.9460115432739258e-01" nType="-99"/>
        </Node>
      </Node>
    </BinaryTree>
    <BinaryTree type="DecisionTree" boostWeight="1.0000000000000000e+00" itree="90">
      <Node pos="s" depth="0" NCoef="0" IVar="8" Cut="3.0919702053070068e+00" cType="1" res="0.0000000000000000e+00" rms="0.0000000000000000e+00" purity="4.9178391695022583e-01" nType="0">
        <Node pos="l" depth="1" NCoef="0" IVar="5" Cut="1.6032269287109375e+02" cType="1" res="2.6821612846106291e-03" rms="4.2473801970481873e-01" purity="4.9334675073623657e-01" nType="0">
          <Node pos="l" depth="2" NCoef="0" IVar="-1" Cut="0.0000000000000000e+00" cType="1" res="-9.2777898535132408e-03" rms="4.1484078764915466e-01" purity="4.7657185792922974e-01" nType="-99"/>
          <Node pos="r" depth="2" NCoef="0" IVar="6" Cut="7.6644414663314819e-01" cType="1" res="1.0718092322349548e-02" rms="4.2692562937736511e-01" purity="4.9773648381233215e-01" nType="0">
            <Node pos="l" depth="3" NCoef="0" IVar="8" Cut="2.9030110836029053e+00" cType="1" res="4.0143430233001709e-03" rms="4.2822831869125366e-01" purity="5.0718772411346436e-01" nType="0">
              <Node pos="l" depth="4" NCoef="0" IVar="-1" Cut="0.0000000000000000e+00" cType="1" res="5.4175509139895439e-03" rms="4.4833016395568848e-01" purity="4.9550658464431763e-01" nType="-99"/>
              <Node pos="r" depth="4" NCoef="0" IVar="-1" Cut="0.0000000000000000e+00" cType="1" res="-1.9623369444161654e-03" rms="4.1487804055213928e-01" purity="5.1447719335556030e-01" nType="-99"/>
            </Node>
            <Node pos="r" depth="3" NCoef="0" IVar="-1" Cut="0.0000000000000000e+00" cType="1" res="1.3039565645158291e-02" rms="4.1824731230735779e-01" purity="4.4805002212524414e-01" nType="-99"/>
          </Node>
        </Node>
        <Node pos="r" depth="1" NCoef="0" IVar="-1" Cut="0.0000000000000000e+00" cType="1" res="-7.7309077605605125e-03" rms="4.1081029176712036e-01" purity="4.8514437675476074e-01" nType="-99"/>
      </Node>
    </BinaryTree>
    <BinaryTree type="DecisionTree" boostWeight="1.0000000000000000e+00" itree="91">
      <Node pos="s" depth="0" NCoef="0" IVar="8" Cut="2.9954371452331543e+00" cType="1" res="7.9562934115529060e-03" rms="4.2305821180343628e-01" purity="5.1370114088058472e-01" nType="0">
        <Node pos="l" depth="1" NCoef="0" IVar="2" Cut="1.2166252136230469e+00" cType="1" res="2.0731184631586075e-02" rms="4.4087532162666321e-01" purity="4.9879106879234314e-01" nType="0">
          <Node pos="l" depth="2" NCoef="0" IVar="-1" Cut="0.0000000000000000e+00" cType="1" res="1.6869520768523216e-02" rms="4.1611737012863159e-01" purity="3.9555028080940247e-01" nType="-99"/>
          <Node pos="r" depth="2" NCoef="0" IVar="1" Cut="1.4812868833541870e-01" cType="1" res="4.4924700632691383e-03" rms="4.5019710063934326e-01" purity="5.4345762729644775e-01" nType="0">
            <Node pos="l" depth="3" NCoef="0" IVar="-1" Cut="0.0000000000000000e+00" cType="1" res="-2.8074001893401146e-03" rms="4.5833733677864075e-01" purity="5.0906538963317871e-01" nType="-99"/>
            <Node pos="r" depth="3" NCoef="0" IVar="-1" Cut="0.0000000000000000e+00" cType="1" res="6.3228663057088852e-03" rms="4.4020912051200867e-01" purity="5.8230513334274292e-01" nType="-99"/>
          </Node>
        </Node>
        <Node pos="r" depth="1" NCoef="0" IVar="1" Cut="1.4954446256160736e-01" cType="1" res="-4.3218778446316719e-03" rms="4.0481644868850708e-01" purity="5.2803140878677368e-01" nType="0">
          <Node pos="l" depth="2" NCoef="0" IVar="1" Cut="-2.2014372348785400e+00" cType="1" res="1.7138183116912842e-02" rms="4.0826338529586792e-01" purity="5.5718809366226196e-01" nType="0">
            <Node pos="l" depth="3" NCoef="0" IVar="-1" Cut="0.0000000000000000e+00" cType="1" res="-4.2475652880966663e-03" rms="4.0679427981376648e-01" purity="5.6164520978927612e-01" nType="-99"/>
            <Node pos="r" depth="3" NCoef="0" IVar="-1" Cut="0.0000000000000000e+00" cType="1" res="1.8610004335641861e-02" rms="4.0666308999061584e-01" purity="5.5375593900680542e-01" nType="-99"/>
          </Node>
          <Node pos="r" depth="2" NCoef="0" IVar="6" Cut="6.5440118312835693e-01" cType="1" res="-2.7788309380412102e-02" rms="3.9969670772552490e-01" purity="4.9614867568016052e-01" nType="0">
            <Node pos="l" depth="3" NCoef="0" IVar="-1" Cut="0.0000000000000000e+00" cType="1" res="-1.5065417625010014e-02" rms="4.1681149601936340e-01" purity="4.9537223577499390e-01" nType="-99"/>
            <Node pos="r" depth="3" NCoef="0" IVar="-1" Cut="0.0000000000000000e+00" cType="1" res="-4.2533054947853088e-03" rms="3.8523352146148682e-01" purity="4.9675384163856506e-01" nType="-99"/>
          </Node>
        </Node>
      </Node>
    </BinaryTree>
    <BinaryTree type="DecisionTree" boostWeight="1.0000000000000000e+00" itree="92">
      <Node pos="s" depth="0" NCoef="0" IVar="8" Cut="2.9954411983489990e+00" cType="1" res="9.3598099192604423e-04" rms="4.2028445005416870e-01" purity="5.0138568878173828e-01" nType="0">
        <Node pos="l" depth="1" NCoef="0" IVar="2" Cut="1.4489403963088989e+00" cType="1" res="-1.2549138627946377e-02" rms="4.3654945492744446e-01" purity="4.6064347028732300e-01" nType="0">
          <Node pos="l" depth="2" NCoef="0" IVar="-1" Cut="0.0000000000000000e+00" cType="1" res="1.7765989759936929e-03" rms="4.2063882946968079e-01" purity="3.6570286750793457e-01" nType="-99"/>
          <Node pos="r" depth="2" NCoef="0" IVar="2" Cut="2.2693676948547363e+00" cType="1" res="-2.3155188187956810e-02" rms="4.4552004337310791e-01" purity="5.1780945062637329e-01" nType="0">
            <Node pos="l" depth="3" NCoef="0" IVar="-1" Cut="0.0000000000000000e+00" cType="1" res="-1.4077954925596714e-02" rms="4.5641368627548218e-01" purity="4.8820075392723083e-01" nType="-99"/>
            <Node pos="r" depth="3" NCoef="0" IVar="-1" Cut="0.0000000000000000e+00" cType="1" res="-2.5072954595088959e-03" rms="4.3895617127418518e-01" purity="5.3347963094711304e-01" nType="-99"/>
          </Node>
        </Node>
        <Node pos="r" depth="1" NCoef="0" IVar="6" Cut="6.5464574098587036e-01" cType="1" res="1.3575678691267967e-02" rms="4.0403729677200317e-01" purity="5.3957360982894897e-01" nType="0">
          <Node pos="l" depth="2" NCoef="0" IVar="4" Cut="6.6883109375000000e+04" cType="1" res="0.0000000000000000e+00" rms="0.0000000000000000e+00" purity="5.2424407005310059e-01" nType="0">
            <Node pos="l" depth="3" NCoef="0" IVar="-1" Cut="0.0000000000000000e+00" cType="1" res="1.0472896974533796e-03" rms="4.2195278406143188e-01" purity="4.6939086914062500e-01" nType="-99"/>
            <Node pos="r" depth="3" NCoef="0" IVar="-1" Cut="0.0000000000000000e+00" cType="1" res="-5.4136510007083416e-03" rms="4.2540723085403442e-01" purity="5.7785868644714355e-01" nType="-99"/>
          </Node>
          <Node pos="r" depth="2" NCoef="0" IVar="6" Cut="7.8379005193710327e-01" cType="1" res="3.2275363802909851e-02" rms="3.8762766122817993e-01" purity="5.5088323354721069e-01" nType="0">
            <Node pos="l" depth="3" NCoef="0" IVar="-1" Cut="0.0000000000000000e+00" cType="1" res="1.4942469075322151e-02" rms="3.8331753015518188e-01" purity="6.3586497306823730e-01" nType="-99"/>
            <Node pos="r" depth="3" NCoef="0" IVar="-1" Cut="0.0000000000000000e+00" cType="1" res="-1.3917668256908655e-03" rms="3.9346590638160706e-01" purity="3.8354223966598511e-01" nType="-99"/>
          </Node>
        </Node>
      </Node>
    </BinaryTree>
    <BinaryTree type="DecisionTree" boostWeight="1.0000000000000000e+00" itree="93">
      <Node pos="s" depth="0" NCoef="0" IVar="8" Cut="2.8935887813568115e+00" cType="1" res="-3.1375484541058540e-03" rms="4.2126372456550598e-01" purity="5.0050389766693115e-01" nType="0">
        <Node pos="l" depth="1" NCoef="0" IVar="6" Cut="5.6103646755218506e-01" cType="1" res="-3.0251363292336464e-02" rms="4.4396877288818359e-01" purity="4.3813517689704895e-01" nType="0">
          <Node pos="l" depth="2" NCoef="0" IVar="-1" Cut="0.0000000000000000e+00" cType="1" res="3.1494256108999252e-03" rms="4.4615802168846130e-01" purity="4.4037288427352905e-01" nType="-99"/>
          <Node pos="r" depth="2" NCoef="0" IVar="-1" Cut="0.0000000000000000e+00" cType="1" res="-1.8695849925279617e-02" rms="4.3954029679298401e-01" purity="4.3640086054801941e-01" nType="-99"/>
        </Node>
        <Node pos="r" depth="1" NCoef="0" IVar="6" Cut="5.4169732332229614e-01" cType="1" res="7.1016452275216579e-03" rms="4.1190037131309509e-01" purity="5.2405667304992676e-01" nType="0">
          <Node pos="l" depth="2" NCoef="0" IVar="-1" Cut="0.0000000000000000e+00" cType="1" res="-5.8501274324953556e-03" rms="4.4716587662696838e-01" purity="3.9760124683380127e-01" nType="-99"/>
          <Node pos="r" depth="2" NCoef="0" IVar="0" Cut="2.7701403125000000e+05" cType="1" res="1.3975591398775578e-02" rms="4.0395176410675049e-01" purity="5.4996526241302490e-01" nType="0">
            <Node pos="l" depth="3" NCoef="0" IVar="4" Cut="5.5880406250000000e+04" cType="1" res="2.1430002525448799e-02" rms="4.2692276835441589e-01" purity="6.4809465408325195e-01" nType="0">
              <Node pos="l" depth="4" NCoef="0" IVar="-1" Cut="0.0000000000000000e+00" cType="1" res="1.2734612450003624e-02" rms="4.4310575723648071e-01" purity="5.7986181974411011e-01" nType="-99"/>
              <Node pos="r" depth="4" NCoef="0" IVar="-1" Cut="0.0000000000000000e+00" cType="1" res="-3.0852211057208478e-04" rms="4.0733113884925842e-01" purity="7.2267144918441772e-01" nType="-99"/>
            </Node>
            <Node pos="r" depth="3" NCoef="0" IVar="-1" Cut="0.0000000000000000e+00" cType="1" res="-7.0346146821975708e-03" rms="3.0697798728942871e-01" purity="2.0015574991703033e-01" nType="-99"/>
          </Node>
        </Node>
      </Node>
    </BinaryTree>
    <BinaryTree type="DecisionTree" boostWeight="1.0000000000000000e+00" itree="94">
      <Node pos="s" depth="0" NCoef="0" IVar="3" Cut="7.8929335937500000e+04" cType="1" res="9.7191929817199707e-03" rms="4.2102253437042236e-01" purity="5.1076334714889526e-01" nType="0">
        <Node pos="l" depth="1" NCoef="0" IVar="2" Cut="2.5495812892913818e+00" cType="1" res="0.0000000000000000e+00" rms="0.0000000000000000e+00" purity="4.4083270430564880e-01" nType="0">
          <Node pos="l" depth="2" NCoef="0" IVar="0" Cut="2.0115862500000000e+05" cType="1" res="1.4694491401314735e-02" rms="4.0325725078582764e-01" purity="3.9946871995925903e-01" nType="0">
            <Node pos="l" depth="3" NCoef="0" IVar="-1" Cut="0.0000000000000000e+00" cType="1" res="1.4482062309980392e-02" rms="4.5885369181632996e-01" purity="5.7173532247543335e-01" nType="-99"/>
            <Node pos="r" depth="3" NCoef="0" IVar="-1" Cut="0.0000000000000000e+00" cType="1" res="-1.5259454026818275e-02" rms="3.2348969578742981e-01" purity="2.0307104289531708e-01" nType="-99"/>
          </Node>
          <Node pos="r" depth="2" NCoef="0" IVar="-1" Cut="0.0000000000000000e+00" cType="1" res="1.5894010663032532e-02" rms="4.4409722089767456e-01" purity="5.4047948122024536e-01" nType="-99"/>
        </Node>
        <Node pos="r" depth="1" NCoef="0" IVar="8" Cut="2.9563858509063721e+00" cType="1" res="-1.1106106685474515e-03" rms="4.2478236556053162e-01" purity="5.6658899784088135e-01" nType="0">
          <Node pos="l" depth="2" NCoef="0" IVar="1" Cut="1.4858971536159515e-01" cType="1" res="1.9905535504221916e-02" rms="4.5300418138504028e-01" purity="5.4314655065536499e-01" nType="0">
            <Node pos="l" depth="3" NCoef="0" IVar="-1" Cut="0.0000000000000000e+00" cType="1" res="-1.2370824115350842e-03" rms="4.2924094200134277e-01" purity="5.0688314437866211e-01" nType="-99"/>
            <Node pos="r" depth="3" NCoef="0" IVar="-1" Cut="0.0000000000000000e+00" cType="1" res="1.1496225371956825e-02" rms="4.7304466366767883e-01" purity="5.7709646224975586e-01" nType="-99"/>
          </Node>
          <Node pos="r" depth="2" NCoef="0" IVar="6" Cut="6.5459537506103516e-01" cType="1" res="-1.6137640923261642e-02" rms="4.0272244811058044e-01" purity="5.8335083723068237e-01" nType="0">
            <Node pos="l" depth="3" NCoef="0" IVar="-1" Cut="0.0000000000000000e+00" cType="1" res="-1.0591106489300728e-02" rms="4.1848072409629822e-01" purity="5.3047615289688110e-01" nType="-99"/>
            <Node pos="r" depth="3" NCoef="0" IVar="-1" Cut="0.0000000000000000e+00" cType="1" res="2.5774221867322922e-03" rms="3.7733706831932068e-01" purity="6.6023904085159302e-01" nType="-99"/>
          </Node>
        </Node>
      </Node>
    </BinaryTree>
    <BinaryTree type="DecisionTree" boostWeight="1.0000000000000000e+00" itree="95">
      <Node pos="s" depth="0" NCoef="0" IVar="2" Cut="2.9244980812072754e+00" cType="1" res="-2.7528048958629370e-03" rms="4.2202854156494141e-01" purity="4.9965795874595642e-01" nType="0">
        <Node pos="l" depth="1" NCoef="0" IVar="9" Cut="2.0000000000000000e+00" cType="1" res="2.6091595645993948e-03" rms="4.1777300834655762e-01" purity="5.0041979551315308e-01" nType="0">
          <Node pos="l" depth="2" NCoef="0" IVar="-1" Cut="0.0000000000000000e+00" cType="1" res="1.1786292307078838e-02" rms="4.4779372215270996e-01" purity="4.4418168067932129e-01" nType="-99"/>
          <Node pos="r" depth="2" NCoef="0" IVar="6" Cut="7.5507032871246338e-01" cType="1" res="-3.0599962919950485e-03" rms="4.1288641095161438e-01" purity="5.0874590873718262e-01" nType="0">
            <Node pos="l" depth="3" NCoef="0" IVar="3" Cut="7.7961664062500000e+04" cType="1" res="2.5020330213010311e-03" rms="4.2092990875244141e-01" purity="5.2912729978561401e-01" nType="0">
              <Node pos="l" depth="4" NCoef="0" IVar="-1" Cut="0.0000000000000000e+00" cType="1" res="-5.4180743172764778e-03" rms="4.2014285922050476e-01" purity="4.3177089095115662e-01" nType="-99"/>
              <Node pos="r" depth="4" NCoef="0" IVar="-1" Cut="0.0000000000000000e+00" cType="1" res="3.2747862860560417e-03" rms="4.2108666896820068e-01" purity="5.8022296428680420e-01" nType="-99"/>
            </Node>
            <Node pos="r" depth="3" NCoef="0" IVar="-1" Cut="0.0000000000000000e+00" cType="1" res="-1.4356913976371288e-02" rms="3.6303472518920898e-01" purity="3.9466896653175354e-01" nType="-99"/>
          </Node>
        </Node>
        <Node pos="r" depth="1" NCoef="0" IVar="-1" Cut="0.0000000000000000e+00" cType="1" res="-8.6032245308160782e-03" rms="4.4141387939453125e-01" purity="4.9586474895477295e-01" nType="-99"/>
      </Node>
    </BinaryTree>
    <BinaryTree type="DecisionTree" boostWeight="1.0000000000000000e+00" itree="96">
      <Node pos="s" depth="0" NCoef="0" IVar="8" Cut="3.0928506851196289e+00" cType="1" res="3.8940332160564139e-05" rms="4.2091077566146851e-01" purity="5.0024777650833130e-01" nType="0">
        <Node pos="l" depth="1" NCoef="0" IVar="5" Cut="1.5548898315429688e+02" cType="1" res="7.4059497565031052e-03" rms="4.2502558231353760e-01" purity="5.0528979301452637e-01" nType="0">
          <Node pos="l" depth="2" NCoef="0" IVar="-1" Cut="0.0000000000000000e+00" cType="1" res="-7.7883456833660603e-03" rms="4.1769728064537048e-01" purity="4.8138725757598877e-01" nType="-99"/>
          <Node pos="r" depth="2" NCoef="0" IVar="4" Cut="5.4242878906250000e+04" cType="1" res="1.4653748832643032e-02" rms="4.2614364624023438e-01" purity="5.1017189025878906e-01" nType="0">
            <Node pos="l" depth="3" NCoef="0" IVar="7" Cut="2.2563853454589844e+02" cType="1" res="0.0000000000000000e+00" rms="0.0000000000000000e+00" purity="3.9070555567741394e-01" nType="0">
              <Node pos="l" depth="4" NCoef="0" IVar="-1" Cut="0.0000000000000000e+00" cType="1" res="3.4420550800859928e-03" rms="3.9783287048339844e-01" purity="3.2478794455528259e-01" nType="-99"/>
              <Node pos="r" depth="4" NCoef="0" IVar="-1" Cut="0.0000000000000000e+00" cType="1" res="-6.6306437365710735e-03" rms="4.3220570683479309e-01" purity="4.7383719682693481e-01" nType="-99"/>
            </Node>
            <Node pos="r" depth="3" NCoef="0" IVar="7" Cut="3.5637145996093750e+02" cType="1" res="2.8027543798089027e-02" rms="4.3447422981262207e-01" purity="5.9677767753601074e-01" nType="0">
              <Node pos="l" depth="4" NCoef="0" IVar="-1" Cut="0.0000000000000000e+00" cType="1" res="1.1755928397178650e-02" rms="4.3717920780181885e-01" purity="5.7004231214523315e-01" nType="-99"/>
              <Node pos="r" depth="4" NCoef="0" IVar="-1" Cut="0.0000000000000000e+00" cType="1" res="-1.7569940537214279e-03" rms="4.2592337727546692e-01" purity="6.6079467535018921e-01" nType="-99"/>
            </Node>
          </Node>
        </Node>
        <Node pos="r" depth="1" NCoef="0" IVar="-1" Cut="0.0000000000000000e+00" cType="1" res="-4.7784121707081795e-03" rms="4.0159326791763306e-01" purity="4.7896552085876465e-01" nType="-99"/>
      </Node>
    </BinaryTree>
    <BinaryTree type="DecisionTree" boostWeight="1.0000000000000000e+00" itree="97">
      <Node pos="s" depth="0" NCoef="0" IVar="0" Cut="3.6247400000000000e+05" cType="1" res="1.1954143410548568e-03" rms="4.1918417811393738e-01" purity="5.0533187389373779e-01" nType="0">
        <Node pos="l" depth="1" NCoef="0" IVar="0" Cut="1.8924870312500000e+05" cType="1" res="5.1075178198516369e-03" rms="4.3299072980880737e-01" purity="5.5103564262390137e-01" nType="0">
          <Node pos="l" depth="2" NCoef="0" IVar="6" Cut="5.9790754318237305e-01" cType="1" res="-7.0930635556578636e-03" rms="4.4583156704902649e-01" purity="5.9613257646560669e-01" nType="0">
            <Node pos="l" depth="3" NCoef="0" IVar="-1" Cut="0.0000000000000000e+00" cType="1" res="-1.0105555877089500e-02" rms="4.5818236470222473e-01" purity="4.8799356818199158e-01" nType="-99"/>
            <Node pos="r" depth="3" NCoef="0" IVar="3" Cut="6.3970734375000000e+04" cType="1" res="1.3574024662375450e-02" rms="4.3698054552078247e-01" purity="6.6075140237808228e-01" nType="0">
              <Node pos="l" depth="4" NCoef="0" IVar="-1" Cut="0.0000000000000000e+00" cType="1" res="1.2297476641833782e-02" rms="4.5593065023422241e-01" purity="5.9797626733779907e-01" nType="-99"/>
              <Node pos="r" depth="4" NCoef="0" IVar="-1" Cut="0.0000000000000000e+00" cType="1" res="-1.9397666619624943e-04" rms="4.2630487680435181e-01" purity="6.9270116090774536e-01" nType="-99"/>
            </Node>
          </Node>
          <Node pos="r" depth="2" NCoef="0" IVar="6" Cut="6.5465414524078369e-01" cType="1" res="1.9683575257658958e-02" rms="4.1666373610496521e-01" purity="4.9715819954872131e-01" nType="0">
            <Node pos="l" depth="3" NCoef="0" IVar="0" Cut="2.3870951562500000e+05" cType="1" res="4.4911872595548630e-02" rms="4.3425643444061279e-01" purity="5.5233138799667358e-01" nType="0">
              <Node pos="l" depth="4" NCoef="0" IVar="-1" Cut="0.0000000000000000e+00" cType="1" res="2.0585993304848671e-02" rms="4.4096952676773071e-01" purity="6.4308243989944458e-01" nType="-99"/>
              <Node pos="r" depth="4" NCoef="0" IVar="-1" Cut="0.0000000000000000e+00" cType="1" res="7.3910299688577652e-03" rms="4.2646053433418274e-01" purity="4.5904916524887085e-01" nType="-99"/>
            </Node>
            <Node pos="r" depth="3" NCoef="0" IVar="-1" Cut="0.0000000000000000e+00" cType="1" res="-3.1048746313899755e-03" rms="3.9503687620162964e-01" purity="4.3771025538444519e-01" nType="-99"/>
          </Node>
        </Node>
        <Node pos="r" depth="1" NCoef="0" IVar="-1" Cut="0.0000000000000000e+00" cType="1" res="-2.1324316039681435e-02" rms="2.6759946346282959e-01" purity="1.0598792135715485e-01" nType="-99"/>
      </Node>
    </BinaryTree>
    <BinaryTree type="DecisionTree" boostWeight="1.0000000000000000e+00" itree="98">
      <Node pos="s" depth="0" NCoef="0" IVar="1" Cut="1.0463724136352539e+00" cType="1" res="-1.3306133914738894e-03" rms="4.1981583833694458e-01" purity="4.9955576658248901e-01" nType="0">
        <Node pos="l" depth="1" NCoef="0" IVar="8" Cut="2.8439905643463135e+00" cType="1" res="-8.4098568186163902e-03" rms="4.1746720671653748e-01" purity="4.8074978590011597e-01" nType="0">
          <Node pos="l" depth="2" NCoef="0" IVar="-1" Cut="0.0000000000000000e+00" cType="1" res="6.1120800673961639e-03" rms="4.2917600274085999e-01" purity="4.7068667411804199e-01" nType="-99"/>
          <Node pos="r" depth="2" NCoef="0" IVar="2" Cut="1.6247898340225220e+00" cType="1" res="-1.6875892877578735e-02" rms="4.1392838954925537e-01" purity="4.8338592052459717e-01" nType="0">
            <Node pos="l" depth="3" NCoef="0" IVar="-1" Cut="0.0000000000000000e+00" cType="1" res="3.7111883284524083e-04" rms="3.8329872488975525e-01" purity="3.9240491390228271e-01" nType="-99"/>
            <Node pos="r" depth="3" NCoef="0" IVar="7" Cut="2.3150358581542969e+02" cType="1" res="0.0000000000000000e+00" rms="0.0000000000000000e+00" purity="5.4508638381958008e-01" nType="0">
              <Node pos="l" depth="4" NCoef="0" IVar="-1" Cut="0.0000000000000000e+00" cType="1" res="-1.9725032616406679e-03" rms="4.3548294901847839e-01" purity="4.4913539290428162e-01" nType="-99"/>
              <Node pos="r" depth="4" NCoef="0" IVar="-1" Cut="0.0000000000000000e+00" cType="1" res="-1.5094358474016190e-02" rms="4.2940220236778259e-01" purity="6.5023601055145264e-01" nType="-99"/>
            </Node>
          </Node>
        </Node>
        <Node pos="r" depth="1" NCoef="0" IVar="3" Cut="8.6658750000000000e+04" cType="1" res="9.4780754297971725e-03" rms="4.2314821481704712e-01" purity="5.2826899290084839e-01" nType="0">
          <Node pos="l" depth="2" NCoef="0" IVar="2" Cut="1.9367926120758057e+00" cType="1" res="-7.4545983225107193e-03" rms="4.2387732863426208e-01" purity="4.5797896385192871e-01" nType="0">
            <Node pos="l" depth="3" NCoef="0" IVar="-1" Cut="0.0000000000000000e+00" cType="1" res="-1.4947957824915648e-03" rms="4.0485966205596924e-01" purity="3.6306953430175781e-01" nType="-99"/>
            <Node pos="r" depth="3" NCoef="0" IVar="-1" Cut="0.0000000000000000e+00" cType="1" res="-3.6398547235876322e-03" rms="4.4219097495079041e-01" purity="5.5366885662078857e-01" nType="-99"/>
          </Node>
          <Node pos="r" depth="2" NCoef="0" IVar="-1" Cut="0.0000000000000000e+00" cType="1" res="9.1106686741113663e-03" rms="4.2160072922706604e-01" purity="6.0400593280792236e-01" nType="-99"/>
        </Node>
      </Node>
    </BinaryTree>
    <BinaryTree type="DecisionTree" boostWeight="1.0000000000000000e+00" itree="99">
      <Node pos="s" depth="0" NCoef="0" IVar="2" Cut="1.9278801679611206e+00" cType="1" res="-1.8087822245433927e-03" rms="4.2408362030982971e-01" purity="5.0720477104187012e-01" nType="0">
        <Node pos="l" depth="1" NCoef="0" IVar="1" Cut="-1.6455614566802979e+00" cType="1" res="1.1520527303218842e-02" rms="4.0286740660667419e-01" purity="4.5567238330841064e-01" nType="0">
          <Node pos="l" depth="2" NCoef="0" IVar="-1" Cut="0.0000000000000000e+00" cType="1" res="1.2447072193026543e-02" rms="4.0894743800163269e-01" purity="5.1146686077117920e-01" nType="-99"/>
          <Node pos="r" depth="2" NCoef="0" IVar="6" Cut="6.8077641725540161e-01" cType="1" res="-1.9342779414728284e-03" rms="3.9933893084526062e-01" purity="4.3020546436309814e-01" nType="0">
            <Node pos="l" depth="3" NCoef="0" IVar="-1" Cut="0.0000000000000000e+00" cType="1" res="5.0139641389250755e-03" rms="4.2216128110885620e-01" purity="4.8910969495773315e-01" nType="-99"/>
            <Node pos="r" depth="3" NCoef="0" IVar="-1" Cut="0.0000000000000000e+00" cType="1" res="-9.6700703725218773e-03" rms="3.6621049046516418e-01" purity="3.5299998521804810e-01" nType="-99"/>
          </Node>
        </Node>
        <Node pos="r" depth="1" NCoef="0" IVar="0" Cut="2.4654104687500000e+05" cType="1" res="-1.4768778346478939e-02" rms="4.4335636496543884e-01" purity="5.5730938911437988e-01" nType="0">
          <Node pos="l" depth="2" NCoef="0" IVar="6" Cut="7.0455992221832275e-01" cType="1" res="-2.4492781609296799e-02" rms="4.5247060060501099e-01" purity="6.1440670490264893e-01" nType="0">
            <Node pos="l" depth="3" NCoef="0" IVar="8" Cut="2.9562442302703857e+00" cType="1" res="0.0000000000000000e+00" rms="0.0000000000000000e+00" purity="5.8464807271957397e-01" nType="0">
              <Node pos="l" depth="4" NCoef="0" IVar="-1" Cut="0.0000000000000000e+00" cType="1" res="-3.1038436572998762e-03" rms="4.6785500645637512e-01" purity="5.7148772478103638e-01" nType="-99"/>
              <Node pos="r" depth="4" NCoef="0" IVar="-1" Cut="0.0000000000000000e+00" cType="1" res="-1.7269905656576157e-02" rms="4.4925913214683533e-01" purity="5.9706860780715942e-01" nType="-99"/>
            </Node>
            <Node pos="r" depth="3" NCoef="0" IVar="-1" Cut="0.0000000000000000e+00" cType="1" res="5.7222777977585793e-03" rms="4.3306148052215576e-01" purity="6.7709064483642578e-01" nType="-99"/>
          </Node>
          <Node pos="r" depth="2" NCoef="0" IVar="-1" Cut="0.0000000000000000e+00" cType="1" res="5.5951909162104130e-03" rms="4.1388988494873047e-01" purity="3.8840526342391968e-01" nType="-99"/>
        </Node>
      </Node>
    </BinaryTree>
    <BinaryTree type="DecisionTree" boostWeight="1.0000000000000000e+00" itree="100">
      <Node pos="s" depth="0" NCoef="0" IVar="8" Cut="2.7526633739471436e+00" cType="1" res="-7.8495685011148453e-03" rms="4.2234498262405396e-01" purity="4.8932194709777832e-01" nType="0">
        <Node pos="l" depth="1" NCoef="0" IVar="-1" Cut="0.0000000000000000e+00" cType="1" res="6.5479464828968048e-03" rms="4.5767083764076233e-01" purity="4.9008214473724365e-01" nType="-99"/>
        <Node pos="r" depth="1" NCoef="0" IVar="1" Cut="-2.2433378696441650e+00" cType="1" res="-1.1540406383574009e-02" rms="4.1756612062454224e-01" purity="4.8922684788703918e-01" nType="0">
          <Node pos="l" depth="2" NCoef="0" IVar="-1" Cut="0.0000000000000000e+00" cType="1" res="-1.1464573442935944e-02" rms="4.1876292228698730e-01" purity="4.8981991410255432e-01" nType="-99"/>
          <Node pos="r" depth="2" NCoef="0" IVar="3" Cut="1.0828150000000000e+05" cType="1" res="-4.2971409857273102e-03" rms="4.1694319248199463e-01" purity="4.8906123638153076e-01" nType="0">
            <Node pos="l" depth="3" NCoef="0" IVar="5" Cut="2.0110064697265625e+02" cType="1" res="3.4724914003163576e-03" rms="4.1219243407249451e-01" purity="4.6411317586898804e-01" nType="0">
              <Node pos="l" depth="4" NCoef="0" IVar="-1" Cut="0.0000000000000000e+00" cType="1" res="-2.3894442711025476e-03" rms="4.0398541092872620e-01" purity="4.7377550601959229e-01" nType="-99"/>
              <Node pos="r" depth="4" NCoef="0" IVar="-1" Cut="0.0000000000000000e+00" cType="1" res="7.0954710245132446e-03" rms="4.2820191383361816e-01" purity="4.4356748461723328e-01" nType="-99"/>
            </Node>
            <Node pos="r" depth="3" NCoef="0" IVar="-1" Cut="0.0000000000000000e+00" cType="1" res="-8.1229917705059052e-03" rms="4.2933198809623718e-01" purity="5.5960208177566528e-01" nType="-99"/>
          </Node>
        </Node>
      </Node>
    </BinaryTree>
    <BinaryTree type="DecisionTree" boostWeight="1.0000000000000000e+00" itree="101">
      <Node pos="s" depth="0" NCoef="0" IVar="6" Cut="4.8498052358627319e-01" cType="1" res="0.0000000000000000e+00" rms="0.0000000000000000e+00" purity="5.0522547960281372e-01" nType="0">
        <Node pos="l" depth="1" NCoef="0" IVar="-1" Cut="0.0000000000000000e+00" cType="1" res="-8.3242636173963547e-03" rms="4.4342681765556335e-01" purity="3.3861702680587769e-01" nType="-99"/>
        <Node pos="r" depth="1" NCoef="0" IVar="2" Cut="2.4731545448303223e+00" cType="1" res="9.9697094410657883e-03" rms="4.1543707251548767e-01" purity="5.2488523721694946e-01" nType="0">
          <Node pos="l" depth="2" NCoef="0" IVar="1" Cut="-1.3451721668243408e+00" cType="1" res="2.5522862561047077e-03" rms="4.0707609057426453e-01" purity="4.9196508526802063e-01" nType="0">
            <Node pos="l" depth="3" NCoef="0" IVar="8" Cut="3.0171351432800293e+00" cType="1" res="2.1383557468652725e-02" rms="4.1967427730560303e-01" purity="5.3623360395431519e-01" nType="0">
              <Node pos="l" depth="4" NCoef="0" IVar="-1" Cut="0.0000000000000000e+00" cType="1" res="1.2242022901773453e-02" rms="4.2754754424095154e-01" purity="5.3191167116165161e-01" nType="-99"/>
              <Node pos="r" depth="4" NCoef="0" IVar="-1" Cut="0.0000000000000000e+00" cType="1" res="-1.6998768842313439e-04" rms="4.0993821620941162e-01" purity="5.4084688425064087e-01" nType="-99"/>
            </Node>
            <Node pos="r" depth="3" NCoef="0" IVar="1" Cut="2.0733478069305420e+00" cType="1" res="-8.3802603185176849e-03" rms="3.9917257428169250e-01" purity="4.6626484394073486e-01" nType="0">
              <Node pos="l" depth="4" NCoef="0" IVar="-1" Cut="0.0000000000000000e+00" cType="1" res="-1.0743149556219578e-02" rms="3.9245042204856873e-01" purity="4.0137428045272827e-01" nType="-99"/>
              <Node pos="r" depth="4" NCoef="0" IVar="-1" Cut="0.0000000000000000e+00" cType="1" res="7.9551497474312782e-03" rms="4.0743812918663025e-01" purity="5.6766730546951294e-01" nType="-99"/>
            </Node>
          </Node>
          <Node pos="r" depth="2" NCoef="0" IVar="6" Cut="6.7886924743652344e-01" cType="1" res="2.5971030816435814e-02" rms="4.3249133229255676e-01" purity="5.9590262174606323e-01" nType="0">
            <Node pos="l" depth="3" NCoef="0" IVar="-1" Cut="0.0000000000000000e+00" cType="1" res="1.1276492848992348e-02" rms="4.4379815459251404e-01" purity="5.9934234619140625e-01" nType="-99"/>
            <Node pos="r" depth="3" NCoef="0" IVar="-1" Cut="0.0000000000000000e+00" cType="1" res="3.5729852970689535e-03" rms="4.1519561409950256e-01" purity="5.9094333648681641e-01" nType="-99"/>
          </Node>
        </Node>
      </Node>
    </BinaryTree>
    <BinaryTree type="DecisionTree" boostWeight="1.0000000000000000e+00" itree="102">
      <Node pos="s" depth="0" NCoef="0" IVar="2" Cut="2.1932926177978516e+00" cType="1" res="3.9207944646477699e-03" rms="4.1780337691307068e-01" purity="5.0904309749603271e-01" nType="0">
        <Node pos="l" depth="1" NCoef="0" IVar="8" Cut="2.9927704334259033e+00" cType="1" res="-5.8595552109181881e-03" rms="4.0592238306999207e-01" purity="4.5616185665130615e-01" nType="0">
          <Node pos="l" depth="2" NCoef="0" IVar="2" Cut="1.3071607351303101e+00" cType="1" res="-2.3939892649650574e-02" rms="4.2501485347747803e-01" purity="3.9656651020050049e-01" nType="0">
            <Node pos="l" depth="3" NCoef="0" IVar="-1" Cut="0.0000000000000000e+00" cType="1" res="-5.2058673463761806e-04" rms="4.0615475177764893e-01" purity="3.4046840667724609e-01" nType="-99"/>
            <Node pos="r" depth="3" NCoef="0" IVar="-1" Cut="0.0000000000000000e+00" cType="1" res="-1.6974247992038727e-02" rms="4.4892480969429016e-01" purity="4.7763907909393311e-01" nType="-99"/>
          </Node>
          <Node pos="r" depth="2" NCoef="0" IVar="1" Cut="4.4873234629631042e-01" cType="1" res="1.0043588466942310e-02" rms="3.8765737414360046e-01" purity="5.0858086347579956e-01" nType="0">
            <Node pos="l" depth="3" NCoef="0" IVar="-1" Cut="0.0000000000000000e+00" cType="1" res="3.4341843274887651e-05" rms="3.9013677835464478e-01" purity="5.0012570619583130e-01" nType="-99"/>
            <Node pos="r" depth="3" NCoef="0" IVar="-1" Cut="0.0000000000000000e+00" cType="1" res="6.6735935397446156e-03" rms="3.8437104225158691e-01" purity="5.1858425140380859e-01" nType="-99"/>
          </Node>
        </Node>
        <Node pos="r" depth="1" NCoef="0" IVar="6" Cut="5.6942999362945557e-01" cType="1" res="1.7101140692830086e-02" rms="4.3295022845268250e-01" purity="5.8030766248703003e-01" nType="0">
          <Node pos="l" depth="2" NCoef="0" IVar="-1" Cut="0.0000000000000000e+00" cType="1" res="1.5485775656998158e-02" rms="4.3819531798362732e-01" purity="5.5118745565414429e-01" nType="-99"/>
          <Node pos="r" depth="2" NCoef="0" IVar="7" Cut="2.3655845642089844e+02" cType="1" res="-3.7765803281217813e-03" rms="4.2897453904151917e-01" purity="5.9299105405807495e-01" nType="0">
            <Node pos="l" depth="3" NCoef="0" IVar="-1" Cut="0.0000000000000000e+00" cType="1" res="7.6728388667106628e-03" rms="4.3559956550598145e-01" purity="4.9907717108726501e-01" nType="-99"/>
            <Node pos="r" depth="3" NCoef="0" IVar="-1" Cut="0.0000000000000000e+00" cType="1" res="-1.1811696924269199e-02" rms="4.1808372735977173e-01" purity="7.0489108562469482e-01" nType="-99"/>
          </Node>
        </Node>
      </Node>
    </BinaryTree>
    <BinaryTree type="DecisionTree" boostWeight="1.0000000000000000e+00" itree="103">
      <Node pos="s" depth="0" NCoef="0" IVar="1" Cut="-4.4866603612899780e-01" cType="1" res="2.9846588149666786e-03" rms="4.2003521323204041e-01" purity="5.0468945503234863e-01" nType="0">
        <Node pos="l" depth="1" NCoef="0" IVar="5" Cut="2.4497068786621094e+02" cType="1" res="1.9023746252059937e-02" rms="4.2278477549552917e-01" purity="5.3288757801055908e-01" nType="0">
          <Node pos="l" depth="2" NCoef="0" IVar="2" Cut="2.1380717754364014e+00" cType="1" res="2.6653792709112167e-02" rms="4.1751208901405334e-01" purity="5.5373591184616089e-01" nType="0">
            <Node pos="l" depth="3" NCoef="0" IVar="-1" Cut="0.0000000000000000e+00" cType="1" res="1.3776926323771477e-02" rms="4.0583971142768860e-01" purity="5.1698404550552368e-01" nType="-99"/>
            <Node pos="r" depth="3" NCoef="0" IVar="-1" Cut="0.0000000000000000e+00" cType="1" res="2.1764289122074842e-03" rms="4.3076720833778381e-01" purity="5.9922587871551514e-01" nType="-99"/>
          </Node>
          <Node pos="r" depth="2" NCoef="0" IVar="-1" Cut="0.0000000000000000e+00" cType="1" res="-2.6630151551216841e-03" rms="4.3982899188995361e-01" purity="4.5932814478874207e-01" nType="-99"/>
        </Node>
        <Node pos="r" depth="1" NCoef="0" IVar="5" Cut="2.0079420471191406e+02" cType="1" res="-1.0395135730504990e-02" rms="4.1725626587867737e-01" purity="4.8116666078567505e-01" nType="0">
          <Node pos="l" depth="2" NCoef="0" IVar="1" Cut="1.0897480249404907e+00" cType="1" res="5.0136405043303967e-03" rms="4.1722786426544189e-01" purity="5.1995414495468140e-01" nType="0">
            <Node pos="l" depth="3" NCoef="0" IVar="-1" Cut="0.0000000000000000e+00" cType="1" res="-1.3356766663491726e-02" rms="4.1998463869094849e-01" purity="3.9159360527992249e-01" nType="-99"/>
            <Node pos="r" depth="3" NCoef="0" IVar="6" Cut="6.6511112451553345e-01" cType="1" res="2.2523859515786171e-02" rms="4.1481631994247437e-01" purity="5.7398474216461182e-01" nType="0">
              <Node pos="l" depth="4" NCoef="0" IVar="-1" Cut="0.0000000000000000e+00" cType="1" res="1.1635558679699898e-02" rms="4.2036437988281250e-01" purity="6.0215097665786743e-01" nType="-99"/>
              <Node pos="r" depth="4" NCoef="0" IVar="-1" Cut="0.0000000000000000e+00" cType="1" res="2.5958814658224583e-03" rms="4.0794402360916138e-01" purity="5.4204970598220825e-01" nType="-99"/>
            </Node>
          </Node>
          <Node pos="r" depth="2" NCoef="0" IVar="8" Cut="3.0030035972595215e+00" cType="1" res="-3.6179400980472565e-02" rms="4.1602918505668640e-01" purity="4.1626170277595520e-01" nType="0">
            <Node pos="l" depth="3" NCoef="0" IVar="-1" Cut="0.0000000000000000e+00" cType="1" res="-1.0292497463524342e-02" rms="4.3553519248962402e-01" purity="4.0201011300086975e-01" nType="-99"/>
            <Node pos="r" depth="3" NCoef="0" IVar="-1" Cut="0.0000000000000000e+00" cType="1" res="-1.2699004262685776e-02" rms="3.9511379599571228e-01" purity="4.3079930543899536e-01" nType="-99"/>
          </Node>
        </Node>
      </Node>
    </BinaryTree>
    <BinaryTree type="DecisionTree" boostWeight="1.0000000000000000e+00" itree="104">
      <Node pos="s" depth="0" NCoef="0" IVar="5" Cut="1.5833853149414062e+02" cType="1" res="5.2456106059253216e-03" rms="4.2074772715568542e-01" purity="5.0395870208740234e-01" nType="0">
        <Node pos="l" depth="1" NCoef="0" IVar="-1" Cut="0.0000000000000000e+00" cType="1" res="-7.5255236588418484e-03" rms="4.1324588656425476e-01" purity="4.8048016428947449e-01" nType="-99"/>
        <Node pos="r" depth="1" NCoef="0" IVar="4" Cut="9.4561148437500000e+04" cType="1" res="1.1482658796012402e-02" rms="4.2222011089324951e-01" purity="5.0939309597015381e-01" nType="0">
          <Node pos="l" depth="2" NCoef="0" IVar="1" Cut="-4.4866603612899780e-01" cType="1" res="7.1621681563556194e-03" rms="4.2213973402976990e-01" purity="4.8401060700416565e-01" nType="0">
            <Node pos="l" depth="3" NCoef="0" IVar="3" Cut="9.0968359375000000e+04" cType="1" res="0.0000000000000000e+00" rms="0.0000000000000000e+00" purity="4.7442921996116638e-01" nType="0">
              <Node pos="l" depth="4" NCoef="0" IVar="-1" Cut="0.0000000000000000e+00" cType="1" res="5.5492334067821503e-03" rms="4.1759505867958069e-01" purity="4.6660333871841431e-01" nType="-99"/>
              <Node pos="r" depth="4" NCoef="0" IVar="-1" Cut="0.0000000000000000e+00" cType="1" res="-1.5076685696840286e-02" rms="4.2352351546287537e-01" purity="4.8923841118812561e-01" nType="-99"/>
            </Node>
            <Node pos="r" depth="3" NCoef="0" IVar="8" Cut="2.9474389553070068e+00" cType="1" res="1.8676841631531715e-02" rms="4.2262870073318481e-01" purity="4.9185907840728760e-01" nType="0">
              <Node pos="l" depth="4" NCoef="0" IVar="-1" Cut="0.0000000000000000e+00" cType="1" res="1.1671571992337704e-02" rms="4.5879137516021729e-01" purity="4.8468738794326782e-01" nType="-99"/>
              <Node pos="r" depth="4" NCoef="0" IVar="-1" Cut="0.0000000000000000e+00" cType="1" res="1.1047925800085068e-03" rms="3.9849677681922913e-01" purity="4.9617671966552734e-01" nType="-99"/>
            </Node>
          </Node>
          <Node pos="r" depth="2" NCoef="0" IVar="-1" Cut="0.0000000000000000e+00" cType="1" res="9.3258973211050034e-03" rms="4.2182567715644836e-01" purity="6.5513461828231812e-01" nType="-99"/>
        </Node>
      </Node>
    </BinaryTree>
    <BinaryTree type="DecisionTree" boostWeight="1.0000000000000000e+00" itree="105">
      <Node pos="s" depth="0" NCoef="0" IVar="8" Cut="2.8935537338256836e+00" cType="1" res="5.1344698294997215e-04" rms="4.2005044221878052e-01" purity="4.9933567643165588e-01" nType="0">
        <Node pos="l" depth="1" NCoef="0" IVar="6" Cut="5.5471277236938477e-01" cType="1" res="1.4684351161122322e-02" rms="4.5113408565521240e-01" purity="4.8601520061492920e-01" nType="0">
          <Node pos="l" depth="2" NCoef="0" IVar="-1" Cut="0.0000000000000000e+00" cType="1" res="1.4418606646358967e-02" rms="4.5102834701538086e-01" purity="4.8111400008201599e-01" nType="-99"/>
          <Node pos="r" depth="2" NCoef="0" IVar="-1" Cut="0.0000000000000000e+00" cType="1" res="-4.3068546801805496e-03" rms="4.4866949319839478e-01" purity="4.8939347267150879e-01" nType="-99"/>
        </Node>
        <Node pos="r" depth="1" NCoef="0" IVar="3" Cut="1.0786957812500000e+05" cType="1" res="-5.0964006222784519e-03" rms="4.0695378184318542e-01" purity="5.0460886955261230e-01" nType="0">
          <Node pos="l" depth="2" NCoef="0" IVar="1" Cut="1.3449332714080811e+00" cType="1" res="3.9383764378726482e-03" rms="4.0537244081497192e-01" purity="4.8585021495819092e-01" nType="0">
            <Node pos="l" depth="3" NCoef="0" IVar="8" Cut="2.9999172687530518e+00" cType="1" res="0.0000000000000000e+00" rms="0.0000000000000000e+00" purity="4.8732504248619080e-01" nType="0">
              <Node pos="l" depth="4" NCoef="0" IVar="-1" Cut="0.0000000000000000e+00" cType="1" res="-6.2910113483667374e-03" rms="4.0135949850082397e-01" purity="4.1565123200416565e-01" nType="-99"/>
              <Node pos="r" depth="4" NCoef="0" IVar="-1" Cut="0.0000000000000000e+00" cType="1" res="1.1274742893874645e-02" rms="3.9858743548393250e-01" purity="5.2101862430572510e-01" nType="-99"/>
            </Node>
            <Node pos="r" depth="3" NCoef="0" IVar="-1" Cut="0.0000000000000000e+00" cType="1" res="-7.7513204887509346e-03" rms="4.1378545761108398e-01" purity="4.8297700285911560e-01" nType="-99"/>
          </Node>
          <Node pos="r" depth="2" NCoef="0" IVar="-1" Cut="0.0000000000000000e+00" cType="1" res="-1.0512607172131538e-02" rms="4.1032865643501282e-01" purity="5.5788862705230713e-01" nType="-99"/>
        </Node>
      </Node>
    </BinaryTree>
    <BinaryTree type="DecisionTree" boostWeight="1.0000000000000000e+00" itree="106">
      <Node pos="s" depth="0" NCoef="0" IVar="7" Cut="4.1240689086914062e+02" cType="1" res="-5.9741372242569923e-03" rms="4.2150515317916870e-01" purity="4.9499154090881348e-01" nType="0">
        <Node pos="l" depth="1" NCoef="0" IVar="7" Cut="1.4111524963378906e+02" cType="1" res="-1.1702899821102619e-02" rms="4.2372772097587585e-01" purity="4.6486085653305054e-01" nType="0">
          <Node pos="l" depth="2" NCoef="0" IVar="-1" Cut="0.0000000000000000e+00" cType="1" res="-6.8766437470912933e-03" rms="3.8225045800209045e-01" purity="2.4850866198539734e-01" nType="-99"/>
          <Node pos="r" depth="2" NCoef="0" IVar="6" Cut="6.2442827224731445e-01" cType="1" res="-5.1338518969714642e-03" rms="4.3328282237052917e-01" purity="5.1924794912338257e-01" nType="0">
            <Node pos="l" depth="3" NCoef="0" IVar="8" Cut="3.0108518600463867e+00" cType="1" res="-2.8570901602506638e-02" rms="4.5343211293220520e-01" purity="4.4844511151313782e-01" nType="0">
              <Node pos="l" depth="4" NCoef="0" IVar="-1" Cut="0.0000000000000000e+00" cType="1" res="-1.6493452712893486e-03" rms="4.6076643466949463e-01" purity="4.4368541240692139e-01" nType="-99"/>
              <Node pos="r" depth="4" NCoef="0" IVar="-1" Cut="0.0000000000000000e+00" cType="1" res="-2.4093242362141609e-02" rms="4.3504703044891357e-01" purity="4.5786234736442566e-01" nType="-99"/>
            </Node>
            <Node pos="r" depth="3" NCoef="0" IVar="0" Cut="1.8760965625000000e+05" cType="1" res="1.3513226062059402e-02" rms="4.1561293601989746e-01" purity="5.7558041810989380e-01" nType="0">
              <Node pos="l" depth="4" NCoef="0" IVar="-1" Cut="0.0000000000000000e+00" cType="1" res="1.1059637181460857e-02" rms="4.3213683366775513e-01" purity="7.0670878887176514e-01" nType="-99"/>
              <Node pos="r" depth="4" NCoef="0" IVar="-1" Cut="0.0000000000000000e+00" cType="1" res="-1.0613940656185150e-02" rms="3.9144882559776306e-01" purity="4.1694387793540955e-01" nType="-99"/>
            </Node>
          </Node>
        </Node>
        <Node pos="r" depth="1" NCoef="0" IVar="-1" Cut="0.0000000000000000e+00" cType="1" res="9.4662802293896675e-03" rms="4.0464395284652710e-01" purity="6.9237434864044189e-01" nType="-99"/>
      </Node>
    </BinaryTree>
    <BinaryTree type="DecisionTree" boostWeight="1.0000000000000000e+00" itree="107">
      <Node pos="s" depth="0" NCoef="0" IVar="2" Cut="1.9278801679611206e+00" cType="1" res="-5.9688175097107887e-03" rms="4.1902351379394531e-01" purity="4.9424430727958679e-01" nType="0">
        <Node pos="l" depth="1" NCoef="0" IVar="2" Cut="6.8986362218856812e-01" cType="1" res="1.0555513203144073e-02" rms="4.0057858824729919e-01" purity="4.4788518548011780e-01" nType="0">
          <Node pos="l" depth="2" NCoef="0" IVar="-1" Cut="0.0000000000000000e+00" cType="1" res="-1.1609381996095181e-02" rms="3.2755777239799500e-01" purity="2.1870471537113190e-01" nType="-99"/>
          <Node pos="r" depth="2" NCoef="0" IVar="1" Cut="-1.6457796096801758e+00" cType="1" res="2.0629981532692909e-02" rms="4.1710057854652405e-01" purity="5.0821679830551147e-01" nType="0">
            <Node pos="l" depth="3" NCoef="0" IVar="-1" Cut="0.0000000000000000e+00" cType="1" res="1.5303201042115688e-02" rms="4.1957986354827881e-01" purity="5.8584529161453247e-01" nType="-99"/>
            <Node pos="r" depth="3" NCoef="0" IVar="3" Cut="7.3945453125000000e+04" cType="1" res="7.4002346955239773e-03" rms="4.1533154249191284e-01" purity="4.7493514418601990e-01" nType="0">
              <Node pos="l" depth="4" NCoef="0" IVar="-1" Cut="0.0000000000000000e+00" cType="1" res="-6.7413640208542347e-03" rms="3.9864426851272583e-01" purity="3.3775544166564941e-01" nType="-99"/>
              <Node pos="r" depth="4" NCoef="0" IVar="-1" Cut="0.0000000000000000e+00" cType="1" res="7.2299181483685970e-03" rms="4.2552787065505981e-01" purity="5.6709319353103638e-01" nType="-99"/>
            </Node>
          </Node>
        </Node>
        <Node pos="r" depth="1" NCoef="0" IVar="5" Cut="2.4027795410156250e+02" cType="1" res="-2.2592246532440186e-02" rms="4.3616265058517456e-01" purity="5.4088145494461060e-01" nType="0">
          <Node pos="l" depth="2" NCoef="0" IVar="5" Cut="1.7840812683105469e+02" cType="1" res="-3.2097522169351578e-02" rms="4.3535134196281433e-01" purity="5.4986661672592163e-01" nType="0">
            <Node pos="l" depth="3" NCoef="0" IVar="4" Cut="5.1958417968750000e+04" cType="1" res="-7.5458963401615620e-03" rms="4.2819547653198242e-01" purity="5.9936231374740601e-01" nType="0">
              <Node pos="l" depth="4" NCoef="0" IVar="-1" Cut="0.0000000000000000e+00" cType="1" res="1.0709060588851571e-03" rms="4.3552783131599426e-01" purity="5.1454430818557739e-01" nType="-99"/>
              <Node pos="r" depth="4" NCoef="0" IVar="-1" Cut="0.0000000000000000e+00" cType="1" res="-4.8088459298014641e-03" rms="4.2113450169563293e-01" purity="6.7649662494659424e-01" nType="-99"/>
            </Node>
            <Node pos="r" depth="3" NCoef="0" IVar="-1" Cut="0.0000000000000000e+00" cType="1" res="-1.1441992595791817e-02" rms="4.4288468360900879e-01" purity="4.8069676756858826e-01" nType="-99"/>
          </Node>
          <Node pos="r" depth="2" NCoef="0" IVar="-1" Cut="0.0000000000000000e+00" cType="1" res="2.8814405668526888e-03" rms="4.3736732006072998e-01" purity="5.1054579019546509e-01" nType="-99"/>
        </Node>
      </Node>
    </BinaryTree>
    <BinaryTree type="DecisionTree" boostWeight="1.0000000000000000e+00" itree="108">
      <Node pos="s" depth="0" NCoef="0" IVar="3" Cut="6.7120101562500000e+04" cType="1" res="-1.5723182586953044e-03" rms="4.2233583331108093e-01" purity="5.0573021173477173e-01" nType="0">
        <Node pos="l" depth="1" NCoef="0" IVar="1" Cut="1.3460643291473389e+00" cType="1" res="-2.3987594991922379e-02" rms="4.0893724560737610e-01" purity="3.6489406228065491e-01" nType="0">
          <Node pos="l" depth="2" NCoef="0" IVar="-1" Cut="0.0000000000000000e+00" cType="1" res="-2.9878444038331509e-03" rms="4.0090063214302063e-01" purity="3.6188030242919922e-01" nType="-99"/>
          <Node pos="r" depth="2" NCoef="0" IVar="-1" Cut="0.0000000000000000e+00" cType="1" res="-1.8393933773040771e-02" rms="4.2249202728271484e-01" purity="3.7091943621635437e-01" nType="-99"/>
        </Node>
        <Node pos="r" depth="1" NCoef="0" IVar="8" Cut="3.0500183105468750e+00" cType="1" res="8.0706020817160606e-03" rms="4.2760947346687317e-01" purity="5.6631708145141602e-01" nType="0">
          <Node pos="l" depth="2" NCoef="0" IVar="2" Cut="1.0346720218658447e+00" cType="1" res="-6.8516251631081104e-03" rms="4.4353747367858887e-01" purity="5.3343182802200317e-01" nType="0">
            <Node pos="l" depth="3" NCoef="0" IVar="-1" Cut="0.0000000000000000e+00" cType="1" res="1.4815770089626312e-02" rms="4.3274915218353271e-01" purity="4.2811432480812073e-01" nType="-99"/>
            <Node pos="r" depth="3" NCoef="0" IVar="6" Cut="5.9318482875823975e-01" cType="1" res="-2.2716306149959564e-02" rms="4.4558539986610413e-01" purity="5.6567829847335815e-01" nType="0">
              <Node pos="l" depth="4" NCoef="0" IVar="-1" Cut="0.0000000000000000e+00" cType="1" res="-9.3329614028334618e-03" rms="4.6330597996711731e-01" purity="4.7953811287879944e-01" nType="-99"/>
              <Node pos="r" depth="4" NCoef="0" IVar="-1" Cut="0.0000000000000000e+00" cType="1" res="-5.4730096599087119e-04" rms="4.2733424901962280e-01" purity="6.4608806371688843e-01" nType="-99"/>
            </Node>
          </Node>
          <Node pos="r" depth="2" NCoef="0" IVar="-1" Cut="0.0000000000000000e+00" cType="1" res="1.0659630410373211e-02" rms="3.9156797528266907e-01" purity="6.3304615020751953e-01" nType="-99"/>
        </Node>
      </Node>
    </BinaryTree>
    <BinaryTree type="DecisionTree" boostWeight="1.0000000000000000e+00" itree="109">
      <Node pos="s" depth="0" NCoef="0" IVar="9" Cut="4.0000000000000000e+00" cType="1" res="-2.9628882184624672e-03" rms="4.2018875479698181e-01" purity="5.0072765350341797e-01" nType="0">
        <Node pos="l" depth="1" NCoef="0" IVar="8" Cut="3.0919702053070068e+00" cType="1" res="3.5217821132391691e-03" rms="4.2058777809143066e-01" purity="4.7529426217079163e-01" nType="0">
          <Node pos="l" depth="2" NCoef="0" IVar="5" Cut="2.6574328613281250e+02" cType="1" res="9.6851140260696411e-03" rms="4.2316216230392456e-01" purity="4.7896006703376770e-01" nType="0">
            <Node pos="l" depth="3" NCoef="0" IVar="0" Cut="2.1832703125000000e+05" cType="1" res="1.5212051803246140e-03" rms="4.1773915290832520e-01" purity="4.7644260525703430e-01" nType="0">
              <Node pos="l" depth="4" NCoef="0" IVar="-1" Cut="0.0000000000000000e+00" cType="1" res="3.5134204663336277e-03" rms="4.4785931706428528e-01" purity="5.9250360727310181e-01" nType="-99"/>
              <Node pos="r" depth="4" NCoef="0" IVar="-1" Cut="0.0000000000000000e+00" cType="1" res="-8.8066430762410164e-03" rms="3.5806813836097717e-01" purity="2.7342137694358826e-01" nType="-99"/>
            </Node>
            <Node pos="r" depth="3" NCoef="0" IVar="-1" Cut="0.0000000000000000e+00" cType="1" res="1.3756400905549526e-02" rms="4.4309985637664795e-01" purity="4.8926129937171936e-01" nType="-99"/>
          </Node>
          <Node pos="r" depth="2" NCoef="0" IVar="-1" Cut="0.0000000000000000e+00" cType="1" res="-7.6355296187102795e-03" rms="4.0799009799957275e-01" purity="4.5919597148895264e-01" nType="-99"/>
        </Node>
        <Node pos="r" depth="1" NCoef="0" IVar="-1" Cut="0.0000000000000000e+00" cType="1" res="-8.3905104547739029e-03" rms="4.1775175929069519e-01" purity="5.9738016128540039e-01" nType="-99"/>
      </Node>
    </BinaryTree>
    <BinaryTree type="DecisionTree" boostWeight="1.0000000000000000e+00" itree="110">
      <Node pos="s" depth="0" NCoef="0" IVar="6" Cut="5.1321935653686523e-01" cType="1" res="7.0381155237555504e-03" rms="4.1944107413291931e-01" purity="5.1086676120758057e-01" nType="0">
        <Node pos="l" depth="1" NCoef="0" IVar="-1" Cut="0.0000000000000000e+00" cType="1" res="6.3068084418773651e-03" rms="4.5785194635391235e-01" purity="4.2637908458709717e-01" nType="-99"/>
        <Node pos="r" depth="1" NCoef="0" IVar="1" Cut="2.2438879013061523e+00" cType="1" res="0.0000000000000000e+00" rms="0.0000000000000000e+00" purity="5.2736669778823853e-01" nType="0">
          <Node pos="l" depth="2" NCoef="0" IVar="2" Cut="2.8421649932861328e+00" cType="1" res="8.5684843361377716e-03" rms="4.0982851386070251e-01" purity="5.2024251222610474e-01" nType="0">
            <Node pos="l" depth="3" NCoef="0" IVar="8" Cut="2.9714341163635254e+00" cType="1" res="3.3933962695300579e-03" rms="4.0529459714889526e-01" purity="5.0410711765289307e-01" nType="0">
              <Node pos="l" depth="4" NCoef="0" IVar="-1" Cut="0.0000000000000000e+00" cType="1" res="-7.2766430675983429e-03" rms="4.3113815784454346e-01" purity="4.3879508972167969e-01" nType="-99"/>
              <Node pos="r" depth="4" NCoef="0" IVar="-1" Cut="0.0000000000000000e+00" cType="1" res="5.4625384509563446e-03" rms="3.8840565085411072e-01" purity="5.4270386695861816e-01" nType="-99"/>
            </Node>
            <Node pos="r" depth="3" NCoef="0" IVar="-1" Cut="0.0000000000000000e+00" cType="1" res="1.0002805851399899e-02" rms="4.2822584509849548e-01" purity="5.9026640653610229e-01" nType="-99"/>
          </Node>
          <Node pos="r" depth="2" NCoef="0" IVar="-1" Cut="0.0000000000000000e+00" cType="1" res="-5.6101386435329914e-03" rms="4.1615164279937744e-01" purity="5.5157530307769775e-01" nType="-99"/>
        </Node>
      </Node>
    </BinaryTree>
    <BinaryTree type="DecisionTree" boostWeight="1.0000000000000000e+00" itree="111">
      <Node pos="s" depth="0" NCoef="0" IVar="3" Cut="1.4021917187500000e+05" cType="1" res="-5.8691869489848614e-03" rms="4.1720563173294067e-01" purity="4.9457365274429321e-01" nType="0">
        <Node pos="l" depth="1" NCoef="0" IVar="2" Cut="1.3305783271789551e+00" cType="1" res="-4.6856238623149693e-04" rms="4.1474464535713196e-01" purity="4.8885831236839294e-01" nType="0">
          <Node pos="l" depth="2" NCoef="0" IVar="0" Cut="2.1409728125000000e+05" cType="1" res="-1.9347701221704483e-02" rms="3.7945300340652466e-01" purity="3.0717349052429199e-01" nType="0">
            <Node pos="l" depth="3" NCoef="0" IVar="-1" Cut="0.0000000000000000e+00" cType="1" res="4.5278882607817650e-03" rms="4.5173195004463196e-01" purity="4.8611873388290405e-01" nType="-99"/>
            <Node pos="r" depth="3" NCoef="0" IVar="-1" Cut="0.0000000000000000e+00" cType="1" res="-3.1853932887315750e-02" rms="2.8084221482276917e-01" purity="1.2150425463914871e-01" nType="-99"/>
          </Node>
          <Node pos="r" depth="2" NCoef="0" IVar="2" Cut="1.9070670604705811e+00" cType="1" res="0.0000000000000000e+00" rms="0.0000000000000000e+00" purity="5.7052093744277954e-01" nType="0">
            <Node pos="l" depth="3" NCoef="0" IVar="-1" Cut="0.0000000000000000e+00" cType="1" res="9.3475719913840294e-03" rms="4.2120835185050964e-01" purity="6.0086071491241455e-01" nType="-99"/>
            <Node pos="r" depth="3" NCoef="0" IVar="4" Cut="6.2276113281250000e+04" cType="1" res="-2.5918260216712952e-03" rms="4.3185323476791382e-01" purity="5.5945563316345215e-01" nType="0">
              <Node pos="l" depth="4" NCoef="0" IVar="-1" Cut="0.0000000000000000e+00" cType="1" res="-4.7167246229946613e-03" rms="4.4345140457153320e-01" purity="4.9621638655662537e-01" nType="-99"/>
              <Node pos="r" depth="4" NCoef="0" IVar="-1" Cut="0.0000000000000000e+00" cType="1" res="5.5381865240633488e-03" rms="4.1117656230926514e-01" purity="6.6245114803314209e-01" nType="-99"/>
            </Node>
          </Node>
        </Node>
        <Node pos="r" depth="1" NCoef="0" IVar="-1" Cut="0.0000000000000000e+00" cType="1" res="-1.0377032682299614e-02" rms="4.3056032061576843e-01" purity="5.2976626157760620e-01" nType="-99"/>
      </Node>
    </BinaryTree>
    <BinaryTree type="DecisionTree" boostWeight="1.0000000000000000e+00" itree="112">
      <Node pos="s" depth="0" NCoef="0" IVar="9" Cut="3.0000000000000000e+00" cType="1" res="9.3354880809783936e-03" rms="4.2092600464820862e-01" purity="5.1092082262039185e-01" nType="0">
        <Node pos="l" depth="1" NCoef="0" IVar="4" Cut="6.6883109375000000e+04" cType="1" res="0.0000000000000000e+00" rms="0.0000000000000000e+00" purity="4.2755636572837830e-01" nType="0">
          <Node pos="l" depth="2" NCoef="0" IVar="1" Cut="4.5056828856468201e-01" cType="1" res="-1.2151001021265984e-02" rms="4.2025923728942871e-01" purity="3.6658406257629395e-01" nType="0">
            <Node pos="l" depth="3" NCoef="0" IVar="-1" Cut="0.0000000000000000e+00" cType="1" res="-1.2680033221840858e-02" rms="4.0702924132347107e-01" purity="3.3760911226272583e-01" nType="-99"/>
            <Node pos="r" depth="3" NCoef="0" IVar="-1" Cut="0.0000000000000000e+00" cType="1" res="4.4690119102597237e-03" rms="4.3203431367874146e-01" purity="3.9698696136474609e-01" nType="-99"/>
          </Node>
          <Node pos="r" depth="2" NCoef="0" IVar="-1" Cut="0.0000000000000000e+00" cType="1" res="3.2306634820997715e-03" rms="4.3876311182975769e-01" purity="5.5496120452880859e-01" nType="-99"/>
        </Node>
        <Node pos="r" depth="1" NCoef="0" IVar="1" Cut="-2.2435963153839111e+00" cType="1" res="0.0000000000000000e+00" rms="0.0000000000000000e+00" purity="5.8087050914764404e-01" nType="0">
          <Node pos="l" depth="2" NCoef="0" IVar="-1" Cut="0.0000000000000000e+00" cType="1" res="-1.6903204377740622e-03" rms="4.0341922640800476e-01" purity="5.6312680244445801e-01" nType="-99"/>
          <Node pos="r" depth="2" NCoef="0" IVar="5" Cut="1.6496655273437500e+02" cType="1" res="2.6747070252895355e-02" rms="4.1883781552314758e-01" purity="5.8550715446472168e-01" nType="0">
            <Node pos="l" depth="3" NCoef="0" IVar="-1" Cut="0.0000000000000000e+00" cType="1" res="2.2565608844161034e-02" rms="3.9282566308975220e-01" purity="6.5572464466094971e-01" nType="-99"/>
            <Node pos="r" depth="3" NCoef="0" IVar="8" Cut="3.0482418537139893e+00" cType="1" res="1.4161835424602032e-02" rms="4.2800846695899963e-01" purity="5.5781626701354980e-01" nType="0">
              <Node pos="l" depth="4" NCoef="0" IVar="-1" Cut="0.0000000000000000e+00" cType="1" res="4.7129823360592127e-04" rms="4.3374052643775940e-01" purity="5.2019518613815308e-01" nType="-99"/>
              <Node pos="r" depth="4" NCoef="0" IVar="-1" Cut="0.0000000000000000e+00" cType="1" res="1.3798962347209454e-02" rms="4.1626092791557312e-01" purity="6.2702786922454834e-01" nType="-99"/>
            </Node>
          </Node>
        </Node>
      </Node>
    </BinaryTree>
    <BinaryTree type="DecisionTree" boostWeight="1.0000000000000000e+00" itree="113">
      <Node pos="s" depth="0" NCoef="0" IVar="6" Cut="4.8492011427879333e-01" cType="1" res="0.0000000000000000e+00" rms="0.0000000000000000e+00" purity="5.0294786691665649e-01" nType="0">
        <Node pos="l" depth="1" NCoef="0" IVar="-1" Cut="0.0000000000000000e+00" cType="1" res="-9.9822273477911949e-03" rms="4.4764998555183411e-01" purity="3.5230764746665955e-01" nType="-99"/>
        <Node pos="r" depth="1" NCoef="0" IVar="1" Cut="1.0473865270614624e+00" cType="1" res="9.9735390394926071e-03" rms="4.1876810789108276e-01" purity="5.2149462699890137e-01" nType="0">
          <Node pos="l" depth="2" NCoef="0" IVar="7" Cut="1.7709667968750000e+02" cType="1" res="-6.8240205291658640e-04" rms="4.1404867172241211e-01" purity="4.9563366174697876e-01" nType="0">
            <Node pos="l" depth="3" NCoef="0" IVar="-1" Cut="0.0000000000000000e+00" cType="1" res="-6.6008199937641621e-03" rms="3.9923849701881409e-01" purity="2.8701755404472351e-01" nType="-99"/>
            <Node pos="r" depth="3" NCoef="0" IVar="4" Cut="6.7784664062500000e+04" cType="1" res="1.0377462953329086e-02" rms="4.2031946778297424e-01" purity="5.9291517734527588e-01" nType="0">
              <Node pos="l" depth="4" NCoef="0" IVar="-1" Cut="0.0000000000000000e+00" cType="1" res="-5.9986143605783582e-04" rms="4.2835584282875061e-01" purity="5.1656430959701538e-01" nType="-99"/>
              <Node pos="r" depth="4" NCoef="0" IVar="-1" Cut="0.0000000000000000e+00" cType="1" res="8.7614962831139565e-03" rms="4.0696135163307190e-01" purity="7.1025472879409790e-01" nType="-99"/>
            </Node>
          </Node>
          <Node pos="r" depth="2" NCoef="0" IVar="1" Cut="2.6428997516632080e+00" cType="1" res="2.6588197797536850e-02" rms="4.2549023032188416e-01" purity="5.6181693077087402e-01" nType="0">
            <Node pos="l" depth="3" NCoef="0" IVar="1" Cut="2.0349099636077881e+00" cType="1" res="3.9066657423973083e-02" rms="4.2503494024276733e-01" purity="5.6438106298446655e-01" nType="0">
              <Node pos="l" depth="4" NCoef="0" IVar="-1" Cut="0.0000000000000000e+00" cType="1" res="4.2047593742609024e-03" rms="4.2241215705871582e-01" purity="5.0924211740493774e-01" nType="-99"/>
              <Node pos="r" depth="4" NCoef="0" IVar="-1" Cut="0.0000000000000000e+00" cType="1" res="2.0182596519589424e-02" rms="4.2608955502510071e-01" purity="6.2096023559570312e-01" nType="-99"/>
            </Node>
            <Node pos="r" depth="3" NCoef="0" IVar="-1" Cut="0.0000000000000000e+00" cType="1" res="3.8692183443345129e-04" rms="4.2528253793716431e-01" purity="5.5658006668090820e-01" nType="-99"/>
          </Node>
        </Node>
      </Node>
    </BinaryTree>
    <BinaryTree type="DecisionTree" boostWeight="1.0000000000000000e+00" itree="114">
      <Node pos="s" depth="0" NCoef="0" IVar="6" Cut="6.5459537506103516e-01" cType="1" res="-4.0025674388743937e-04" rms="4.1851496696472168e-01" purity="5.0320959091186523e-01" nType="0">
        <Node pos="l" depth="1" NCoef="0" IVar="8" Cut="2.7943198680877686e+00" cType="1" res="-1.1869813315570354e-02" rms="4.3561306595802307e-01" purity="4.9099165201187134e-01" nType="0">
          <Node pos="l" depth="2" NCoef="0" IVar="-1" Cut="0.0000000000000000e+00" cType="1" res="8.3625465631484985e-03" rms="4.4497346878051758e-01" purity="5.0101888179779053e-01" nType="-99"/>
          <Node pos="r" depth="2" NCoef="0" IVar="0" Cut="2.4309442187500000e+05" cType="1" res="-2.3710655048489571e-02" rms="4.3211778998374939e-01" purity="4.8805499076843262e-01" nType="0">
            <Node pos="l" depth="3" NCoef="0" IVar="5" Cut="2.0452975463867188e+02" cType="1" res="-4.0461104363203049e-02" rms="4.4968187808990479e-01" purity="5.5038142204284668e-01" nType="0">
              <Node pos="l" depth="4" NCoef="0" IVar="-1" Cut="0.0000000000000000e+00" cType="1" res="-4.2551136575639248e-03" rms="4.4379258155822754e-01" purity="6.2883877754211426e-01" nType="-99"/>
              <Node pos="r" depth="4" NCoef="0" IVar="-1" Cut="0.0000000000000000e+00" cType="1" res="-1.1177319101989269e-02" rms="4.5656278729438782e-01" purity="4.1573277115821838e-01" nType="-99"/>
            </Node>
            <Node pos="r" depth="3" NCoef="0" IVar="-1" Cut="0.0000000000000000e+00" cType="1" res="7.4469675309956074e-03" rms="3.8284891843795776e-01" purity="3.3595433831214905e-01" nType="-99"/>
          </Node>
        </Node>
        <Node pos="r" depth="1" NCoef="0" IVar="7" Cut="1.6332310485839844e+02" cType="1" res="1.2866279110312462e-02" rms="3.9740985631942749e-01" purity="5.1734179258346558e-01" nType="0">
          <Node pos="l" depth="2" NCoef="0" IVar="-1" Cut="0.0000000000000000e+00" cType="1" res="-2.8896110597997904e-03" rms="3.8481479883193970e-01" purity="2.8671178221702576e-01" nType="-99"/>
          <Node pos="r" depth="2" NCoef="0" IVar="6" Cut="7.5146925449371338e-01" cType="1" res="2.4027168750762939e-02" rms="4.0317073464393616e-01" purity="6.3398706912994385e-01" nType="0">
            <Node pos="l" depth="3" NCoef="0" IVar="-1" Cut="0.0000000000000000e+00" cType="1" res="1.2142145074903965e-02" rms="4.0306606888771057e-01" purity="6.8327963352203369e-01" nType="-99"/>
            <Node pos="r" depth="3" NCoef="0" IVar="-1" Cut="0.0000000000000000e+00" cType="1" res="2.3288624361157417e-03" rms="4.0274691581726074e-01" purity="5.4883021116256714e-01" nType="-99"/>
          </Node>
        </Node>
      </Node>
    </BinaryTree>
    <BinaryTree type="DecisionTree" boostWeight="1.0000000000000000e+00" itree="115">
      <Node pos="s" depth="0" NCoef="0" IVar="6" Cut="6.5456461906433105e-01" cType="1" res="-7.0312982425093651e-03" rms="4.1682964563369751e-01" purity="4.9065622687339783e-01" nType="0">
        <Node pos="l" depth="1" NCoef="0" IVar="8" Cut="2.9956972599029541e+00" cType="1" res="-2.0783357322216034e-02" rms="4.3492087721824646e-01" purity="4.7384494543075562e-01" nType="0">
          <Node pos="l" depth="2" NCoef="0" IVar="2" Cut="1.4451072216033936e+00" cType="1" res="-2.8960003983229399e-03" rms="4.4420695304870605e-01" purity="4.6973198652267456e-01" nType="0">
            <Node pos="l" depth="3" NCoef="0" IVar="-1" Cut="0.0000000000000000e+00" cType="1" res="5.3495694883167744e-03" rms="4.3368905782699585e-01" purity="4.0563192963600159e-01" nType="-99"/>
            <Node pos="r" depth="3" NCoef="0" IVar="-1" Cut="0.0000000000000000e+00" cType="1" res="-3.9156414568424225e-03" rms="4.5017066597938538e-01" purity="5.0992798805236816e-01" nType="-99"/>
          </Node>
          <Node pos="r" depth="2" NCoef="0" IVar="3" Cut="9.9210171875000000e+04" cType="1" res="0.0000000000000000e+00" rms="0.0000000000000000e+00" purity="4.7998687624931335e-01" nType="0">
            <Node pos="l" depth="3" NCoef="0" IVar="-1" Cut="0.0000000000000000e+00" cType="1" res="-1.3150845654308796e-02" rms="4.1503331065177917e-01" purity="4.5352575182914734e-01" nType="-99"/>
            <Node pos="r" depth="3" NCoef="0" IVar="-1" Cut="0.0000000000000000e+00" cType="1" res="-1.6883762553334236e-02" rms="4.2351472377777100e-01" purity="5.0786250829696655e-01" nType="-99"/>
          </Node>
        </Node>
        <Node pos="r" depth="1" NCoef="0" IVar="0" Cut="2.7714365625000000e+05" cType="1" res="8.4385341033339500e-03" rms="3.9491885900497437e-01" purity="5.0956732034683228e-01" nType="0">
          <Node pos="l" depth="2" NCoef="0" IVar="2" Cut="2.3897535800933838e+00" cType="1" res="0.0000000000000000e+00" rms="0.0000000000000000e+00" purity="6.2023669481277466e-01" nType="0">
            <Node pos="l" depth="3" NCoef="0" IVar="0" Cut="1.7992928125000000e+05" cType="1" res="2.0550938788801432e-03" rms="4.1250962018966675e-01" purity="5.6808412075042725e-01" nType="0">
              <Node pos="l" depth="4" NCoef="0" IVar="-1" Cut="0.0000000000000000e+00" cType="1" res="7.3193418793380260e-03" rms="4.2006358504295349e-01" purity="6.5564107894897461e-01" nType="-99"/>
              <Node pos="r" depth="4" NCoef="0" IVar="-1" Cut="0.0000000000000000e+00" cType="1" res="-7.2221430018544197e-03" rms="4.0218415856361389e-01" purity="4.6732664108276367e-01" nType="-99"/>
            </Node>
            <Node pos="r" depth="3" NCoef="0" IVar="-1" Cut="0.0000000000000000e+00" cType="1" res="1.4926856383681297e-02" rms="4.3350535631179810e-01" purity="7.1074688434600830e-01" nType="-99"/>
          </Node>
          <Node pos="r" depth="2" NCoef="0" IVar="-1" Cut="0.0000000000000000e+00" cType="1" res="-2.0964410156011581e-02" rms="2.8634363412857056e-01" purity="1.3656015694141388e-01" nType="-99"/>
        </Node>
      </Node>
    </BinaryTree>
    <BinaryTree type="DecisionTree" boostWeight="1.0000000000000000e+00" itree="116">
      <Node pos="s" depth="0" NCoef="0" IVar="6" Cut="4.8501980304718018e-01" cType="1" res="-3.7254863418638706e-03" rms="4.1931504011154175e-01" purity="4.9405407905578613e-01" nType="0">
        <Node pos="l" depth="1" NCoef="0" IVar="-1" Cut="0.0000000000000000e+00" cType="1" res="-7.4863028712570667e-03" rms="4.4056877493858337e-01" purity="3.3603939414024353e-01" nType="-99"/>
        <Node pos="r" depth="1" NCoef="0" IVar="3" Cut="1.0713095312500000e+05" cType="1" res="1.5999125025700778e-04" rms="4.1643789410591125e-01" purity="5.1366209983825684e-01" nType="0">
          <Node pos="l" depth="2" NCoef="0" IVar="4" Cut="5.6047343750000000e+04" cType="1" res="0.0000000000000000e+00" rms="0.0000000000000000e+00" purity="4.6779072284698486e-01" nType="0">
            <Node pos="l" depth="3" NCoef="0" IVar="4" Cut="3.6965460937500000e+04" cType="1" res="7.1396268904209137e-03" rms="4.0983968973159790e-01" purity="4.1558843851089478e-01" nType="0">
              <Node pos="l" depth="4" NCoef="0" IVar="-1" Cut="0.0000000000000000e+00" cType="1" res="-4.5514125376939774e-03" rms="3.8348042964935303e-01" purity="2.9197701811790466e-01" nType="-99"/>
              <Node pos="r" depth="4" NCoef="0" IVar="-1" Cut="0.0000000000000000e+00" cType="1" res="5.0931368023157120e-03" rms="4.2144829034805298e-01" purity="4.7409173846244812e-01" nType="-99"/>
            </Node>
            <Node pos="r" depth="3" NCoef="0" IVar="4" Cut="6.7974687500000000e+04" cType="1" res="0.0000000000000000e+00" rms="0.0000000000000000e+00" purity="5.5235064029693604e-01" nType="0">
              <Node pos="l" depth="4" NCoef="0" IVar="-1" Cut="0.0000000000000000e+00" cType="1" res="-1.0612371377646923e-02" rms="4.3945109844207764e-01" purity="4.6818810701370239e-01" nType="-99"/>
              <Node pos="r" depth="4" NCoef="0" IVar="-1" Cut="0.0000000000000000e+00" cType="1" res="-2.9626048635691404e-03" rms="4.1017547249794006e-01" purity="6.3825547695159912e-01" nType="-99"/>
            </Node>
          </Node>
          <Node pos="r" depth="2" NCoef="0" IVar="1" Cut="4.4896364212036133e-01" cType="1" res="2.5028279051184654e-02" rms="4.1524714231491089e-01" purity="6.4585620164871216e-01" nType="0">
            <Node pos="l" depth="3" NCoef="0" IVar="-1" Cut="0.0000000000000000e+00" cType="1" res="2.7295246254652739e-03" rms="4.0443688631057739e-01" purity="6.1883163452148438e-01" nType="-99"/>
            <Node pos="r" depth="3" NCoef="0" IVar="-1" Cut="0.0000000000000000e+00" cType="1" res="1.2819246388971806e-02" rms="4.2607438564300537e-01" purity="6.7534530162811279e-01" nType="-99"/>
          </Node>
        </Node>
      </Node>
    </BinaryTree>
    <BinaryTree type="DecisionTree" boostWeight="1.0000000000000000e+00" itree="117">
      <Node pos="s" depth="0" NCoef="0" IVar="1" Cut="-1.3464151620864868e+00" cType="1" res="-5.6938207708299160e-03" rms="4.1869282722473145e-01" purity="4.9232569336891174e-01" nType="0">
        <Node pos="l" depth="1" NCoef="0" IVar="5" Cut="2.0697111511230469e+02" cType="1" res="1.1662692762911320e-02" rms="4.1698303818702698e-01" purity="5.3294545412063599e-01" nType="0">
          <Node pos="l" depth="2" NCoef="0" IVar="6" Cut="6.4023894071578979e-01" cType="1" res="0.0000000000000000e+00" rms="0.0000000000000000e+00" purity="5.4840892553329468e-01" nType="0">
            <Node pos="l" depth="3" NCoef="0" IVar="-1" Cut="0.0000000000000000e+00" cType="1" res="5.7013989426195621e-03" rms="4.2009037733078003e-01" purity="5.5962032079696655e-01" nType="-99"/>
            <Node pos="r" depth="3" NCoef="0" IVar="-1" Cut="0.0000000000000000e+00" cType="1" res="-9.2078009620308876e-03" rms="3.9738962054252625e-01" purity="5.3794139623641968e-01" nType="-99"/>
          </Node>
          <Node pos="r" depth="2" NCoef="0" IVar="-1" Cut="0.0000000000000000e+00" cType="1" res="1.1764485388994217e-02" rms="4.2914423346519470e-01" purity="5.0556474924087524e-01" nType="-99"/>
        </Node>
        <Node pos="r" depth="1" NCoef="0" IVar="1" Cut="2.0738103389739990e+00" cType="1" res="-1.5237815678119659e-02" rms="4.1932398080825806e-01" purity="4.6998974680900574e-01" nType="0">
          <Node pos="l" depth="2" NCoef="0" IVar="9" Cut="3.0000000000000000e+00" cType="1" res="-2.6288678869605064e-02" rms="4.1634675860404968e-01" purity="4.2326885461807251e-01" nType="0">
            <Node pos="l" depth="3" NCoef="0" IVar="-1" Cut="0.0000000000000000e+00" cType="1" res="-1.1926427483558655e-02" rms="3.9786812663078308e-01" purity="2.9540526866912842e-01" nType="-99"/>
            <Node pos="r" depth="3" NCoef="0" IVar="1" Cut="4.4641163945198059e-01" cType="1" res="-1.2560675852000713e-02" rms="4.2917641997337341e-01" purity="5.1919215917587280e-01" nType="0">
              <Node pos="l" depth="4" NCoef="0" IVar="-1" Cut="0.0000000000000000e+00" cType="1" res="-7.2172521613538265e-03" rms="4.3816885352134705e-01" purity="4.8662179708480835e-01" nType="-99"/>
              <Node pos="r" depth="4" NCoef="0" IVar="-1" Cut="0.0000000000000000e+00" cType="1" res="-7.8169192420318723e-04" rms="4.1972625255584717e-01" purity="5.5186790227890015e-01" nType="-99"/>
            </Node>
          </Node>
          <Node pos="r" depth="2" NCoef="0" IVar="9" Cut="3.0000000000000000e+00" cType="1" res="8.8509649503976107e-04" rms="4.2250195145606995e-01" purity="5.4156833887100220e-01" nType="0">
            <Node pos="l" depth="3" NCoef="0" IVar="-1" Cut="0.0000000000000000e+00" cType="1" res="5.9260018169879913e-03" rms="4.2816492915153503e-01" purity="5.2309560775756836e-01" nType="-99"/>
            <Node pos="r" depth="3" NCoef="0" IVar="-1" Cut="0.0000000000000000e+00" cType="1" res="-5.9528714045882225e-03" rms="4.1737300157546997e-01" purity="5.6098479032516479e-01" nType="-99"/>
          </Node>
        </Node>
      </Node>
    </BinaryTree>
    <BinaryTree type="DecisionTree" boostWeight="1.0000000000000000e+00" itree="118">
      <Node pos="s" depth="0" NCoef="0" IVar="9" Cut="2.0000000000000000e+00" cType="1" res="-3.6131697706878185e-03" rms="4.1655460000038147e-01" purity="4.9430188536643982e-01" nType="0">
        <Node pos="l" depth="1" NCoef="0" IVar="-1" Cut="0.0000000000000000e+00" cType="1" res="-8.2765379920601845e-03" rms="4.2617458105087280e-01" purity="3.9355903863906860e-01" nType="-99"/>
        <Node pos="r" depth="1" NCoef="0" IVar="7" Cut="2.1022785949707031e+02" cType="1" res="7.6454615918919444e-04" rms="4.1483211517333984e-01" purity="5.1058775186538696e-01" nType="0">
          <Node pos="l" depth="2" NCoef="0" IVar="9" Cut="3.0000000000000000e+00" cType="1" res="-9.7099272534251213e-03" rms="3.9856025576591492e-01" purity="3.3120030164718628e-01" nType="0">
            <Node pos="l" depth="3" NCoef="0" IVar="-1" Cut="0.0000000000000000e+00" cType="1" res="-9.8441736772656441e-03" rms="3.8839390873908997e-01" purity="2.7919375896453857e-01" nType="-99"/>
            <Node pos="r" depth="3" NCoef="0" IVar="-1" Cut="0.0000000000000000e+00" cType="1" res="1.0203822515904903e-02" rms="4.2102298140525818e-01" purity="4.0974923968315125e-01" nType="-99"/>
          </Node>
          <Node pos="r" depth="2" NCoef="0" IVar="6" Cut="6.4587312936782837e-01" cType="1" res="7.5839473865926266e-03" rms="4.2054396867752075e-01" purity="6.0269957780838013e-01" nType="0">
            <Node pos="l" depth="3" NCoef="0" IVar="4" Cut="7.1133359375000000e+04" cType="1" res="-5.0689801573753357e-03" rms="4.4474825263023376e-01" purity="5.3393220901489258e-01" nType="0">
              <Node pos="l" depth="4" NCoef="0" IVar="-1" Cut="0.0000000000000000e+00" cType="1" res="3.7158189807087183e-03" rms="4.4541612267494202e-01" purity="4.8770809173583984e-01" nType="-99"/>
              <Node pos="r" depth="4" NCoef="0" IVar="-1" Cut="0.0000000000000000e+00" cType="1" res="-5.9881359338760376e-03" rms="4.4339379668235779e-01" purity="5.8162122964859009e-01" nType="-99"/>
            </Node>
            <Node pos="r" depth="3" NCoef="0" IVar="1" Cut="-1.4977346360683441e-01" cType="1" res="2.7413100004196167e-02" rms="3.7866994738578796e-01" purity="7.1046894788742065e-01" nType="0">
              <Node pos="l" depth="4" NCoef="0" IVar="-1" Cut="0.0000000000000000e+00" cType="1" res="8.6587704718112946e-03" rms="3.7246665358543396e-01" purity="7.1704584360122681e-01" nType="-99"/>
              <Node pos="r" depth="4" NCoef="0" IVar="-1" Cut="0.0000000000000000e+00" cType="1" res="9.2528723180294037e-03" rms="3.8508862257003784e-01" purity="7.0352029800415039e-01" nType="-99"/>
            </Node>
          </Node>
        </Node>
      </Node>
    </BinaryTree>
    <BinaryTree type="DecisionTree" boostWeight="1.0000000000000000e+00" itree="119">
      <Node pos="s" depth="0" NCoef="0" IVar="2" Cut="1.9082796573638916e+00" cType="1" res="1.9512678263708949e-03" rms="4.2009511590003967e-01" purity="5.0096195936203003e-01" nType="0">
        <Node pos="l" depth="1" NCoef="0" IVar="7" Cut="1.6882051086425781e+02" cType="1" res="1.8334137275815010e-02" rms="4.0046963095664978e-01" purity="4.4797772169113159e-01" nType="0">
          <Node pos="l" depth="2" NCoef="0" IVar="-1" Cut="0.0000000000000000e+00" cType="1" res="-5.5490750819444656e-03" rms="3.6106929183006287e-01" purity="2.1781127154827118e-01" nType="-99"/>
          <Node pos="r" depth="2" NCoef="0" IVar="5" Cut="1.9923646545410156e+02" cType="1" res="2.9596989974379539e-02" rms="4.1302448511123657e-01" purity="5.3002649545669556e-01" nType="0">
            <Node pos="l" depth="3" NCoef="0" IVar="1" Cut="-1.4775094389915466e-01" cType="1" res="4.4901616871356964e-02" rms="4.0315106511116028e-01" purity="5.8044636249542236e-01" nType="0">
              <Node pos="l" depth="4" NCoef="0" IVar="-1" Cut="0.0000000000000000e+00" cType="1" res="1.8766963854432106e-02" rms="3.9802917838096619e-01" purity="5.9938180446624756e-01" nType="-99"/>
              <Node pos="r" depth="4" NCoef="0" IVar="-1" Cut="0.0000000000000000e+00" cType="1" res="9.9805695936083794e-03" rms="4.0711498260498047e-01" purity="5.6400841474533081e-01" nType="-99"/>
            </Node>
            <Node pos="r" depth="3" NCoef="0" IVar="-1" Cut="0.0000000000000000e+00" cType="1" res="1.5784486895427108e-03" rms="4.2714229226112366e-01" purity="4.4976657629013062e-01" nType="-99"/>
          </Node>
        </Node>
        <Node pos="r" depth="1" NCoef="0" IVar="5" Cut="2.4248867797851562e+02" cType="1" res="-1.4451368711888790e-02" rms="4.3825286626815796e-01" purity="5.5401003360748291e-01" nType="0">
          <Node pos="l" depth="2" NCoef="0" IVar="5" Cut="1.8074157714843750e+02" cType="1" res="0.0000000000000000e+00" rms="0.0000000000000000e+00" purity="5.5718314647674561e-01" nType="0">
            <Node pos="l" depth="3" NCoef="0" IVar="4" Cut="5.4121265625000000e+04" cType="1" res="-8.4629384800791740e-03" rms="4.3081045150756836e-01" purity="6.1079305410385132e-01" nType="0">
              <Node pos="l" depth="4" NCoef="0" IVar="-1" Cut="0.0000000000000000e+00" cType="1" res="6.0995747335255146e-03" rms="4.2773622274398804e-01" purity="5.6244868040084839e-01" nType="-99"/>
              <Node pos="r" depth="4" NCoef="0" IVar="-1" Cut="0.0000000000000000e+00" cType="1" res="-7.6614986173808575e-03" rms="4.3214118480682373e-01" purity="6.5777921676635742e-01" nType="-99"/>
            </Node>
            <Node pos="r" depth="3" NCoef="0" IVar="-1" Cut="0.0000000000000000e+00" cType="1" res="-6.6331629641354084e-03" rms="4.4345691800117493e-01" purity="4.7586062550544739e-01" nType="-99"/>
          </Node>
          <Node pos="r" depth="2" NCoef="0" IVar="-1" Cut="0.0000000000000000e+00" cType="1" res="1.0763707570731640e-02" rms="4.4235241413116455e-01" purity="5.4178929328918457e-01" nType="-99"/>
        </Node>
      </Node>
    </BinaryTree>
    <BinaryTree type="DecisionTree" boostWeight="1.0000000000000000e+00" itree="120">
      <Node pos="s" depth="0" NCoef="0" IVar="2" Cut="8.0129718780517578e-01" cType="1" res="-1.2126188725233078e-02" rms="4.1883042454719543e-01" purity="4.9221602082252502e-01" nType="0">
        <Node pos="l" depth="1" NCoef="0" IVar="-1" Cut="0.0000000000000000e+00" cType="1" res="-2.0414570346474648e-02" rms="3.2452908158302307e-01" purity="2.0843812823295593e-01" nType="-99"/>
        <Node pos="r" depth="1" NCoef="0" IVar="9" Cut="3.0000000000000000e+00" cType="1" res="0.0000000000000000e+00" rms="0.0000000000000000e+00" purity="5.3878003358840942e-01" nType="0">
          <Node pos="l" depth="2" NCoef="0" IVar="6" Cut="6.8277907371520996e-01" cType="1" res="-2.6342898607254028e-02" rms="4.3592324852943420e-01" purity="4.3754789233207703e-01" nType="0">
            <Node pos="l" depth="3" NCoef="0" IVar="-1" Cut="0.0000000000000000e+00" cType="1" res="-1.2534305453300476e-02" rms="4.4621449708938599e-01" purity="3.8816159963607788e-01" nType="-99"/>
            <Node pos="r" depth="3" NCoef="0" IVar="6" Cut="7.7162408828735352e-01" cType="1" res="-2.5391236413270235e-03" rms="4.2654725909233093e-01" purity="4.7431626915931702e-01" nType="0">
              <Node pos="l" depth="4" NCoef="0" IVar="-1" Cut="0.0000000000000000e+00" cType="1" res="2.5426845531910658e-03" rms="4.4224396347999573e-01" purity="5.4910564422607422e-01" nType="-99"/>
              <Node pos="r" depth="4" NCoef="0" IVar="-1" Cut="0.0000000000000000e+00" cType="1" res="-4.6086786314845085e-03" rms="4.1010344028472900e-01" purity="4.0098470449447632e-01" nType="-99"/>
            </Node>
          </Node>
          <Node pos="r" depth="2" NCoef="0" IVar="8" Cut="3.0509433746337891e+00" cType="1" res="0.0000000000000000e+00" rms="0.0000000000000000e+00" purity="6.2491959333419800e-01" nType="0">
            <Node pos="l" depth="3" NCoef="0" IVar="1" Cut="-1.0481832027435303e+00" cType="1" res="2.3888438940048218e-02" rms="4.3460619449615479e-01" purity="6.1964333057403564e-01" nType="0">
              <Node pos="l" depth="4" NCoef="0" IVar="-1" Cut="0.0000000000000000e+00" cType="1" res="1.9886774942278862e-02" rms="4.2572262883186340e-01" purity="6.7186486721038818e-01" nType="-99"/>
              <Node pos="r" depth="4" NCoef="0" IVar="-1" Cut="0.0000000000000000e+00" cType="1" res="-5.5635161697864532e-04" rms="4.3849307298660278e-01" purity="5.8503359556198120e-01" nType="-99"/>
            </Node>
            <Node pos="r" depth="3" NCoef="0" IVar="-1" Cut="0.0000000000000000e+00" cType="1" res="-7.2095119394361973e-03" rms="4.1339966654777527e-01" purity="6.3550019264221191e-01" nType="-99"/>
          </Node>
        </Node>
      </Node>
    </BinaryTree>
    <BinaryTree type="DecisionTree" boostWeight="1.0000000000000000e+00" itree="121">
      <Node pos="s" depth="0" NCoef="0" IVar="6" Cut="4.8498842120170593e-01" cType="1" res="-2.4152379482984543e-03" rms="4.2194512486457825e-01" purity="4.9954232573509216e-01" nType="0">
        <Node pos="l" depth="1" NCoef="0" IVar="-1" Cut="0.0000000000000000e+00" cType="1" res="-9.6280574798583984e-03" rms="4.3565508723258972e-01" purity="3.2754868268966675e-01" nType="-99"/>
        <Node pos="r" depth="1" NCoef="0" IVar="1" Cut="-2.2440943717956543e+00" cType="1" res="1.6857243608683348e-03" rms="4.2010805010795593e-01" purity="5.1984053850173950e-01" nType="0">
          <Node pos="l" depth="2" NCoef="0" IVar="-1" Cut="0.0000000000000000e+00" cType="1" res="-6.6973431967198849e-03" rms="4.1671344637870789e-01" purity="5.4269456863403320e-01" nType="-99"/>
          <Node pos="r" depth="2" NCoef="0" IVar="1" Cut="-7.0463567972183228e-01" cType="1" res="8.0349994823336601e-03" rms="4.2086806893348694e-01" purity="5.1324939727783203e-01" nType="0">
            <Node pos="l" depth="3" NCoef="0" IVar="-1" Cut="0.0000000000000000e+00" cType="1" res="9.0355295687913895e-03" rms="4.2615517973899841e-01" purity="5.2804273366928101e-01" nType="-99"/>
            <Node pos="r" depth="3" NCoef="0" IVar="7" Cut="1.7964315795898438e+02" cType="1" res="-4.3223050306551158e-04" rms="4.1850867867469788e-01" purity="5.0756001472473145e-01" nType="0">
              <Node pos="l" depth="4" NCoef="0" IVar="-1" Cut="0.0000000000000000e+00" cType="1" res="7.5047789141535759e-03" rms="4.0035030245780945e-01" purity="3.3780810236930847e-01" nType="-99"/>
              <Node pos="r" depth="4" NCoef="0" IVar="-1" Cut="0.0000000000000000e+00" cType="1" res="-4.3129147961735725e-03" rms="4.2675957083702087e-01" purity="5.9207761287689209e-01" nType="-99"/>
            </Node>
          </Node>
        </Node>
      </Node>
    </BinaryTree>
    <BinaryTree type="DecisionTree" boostWeight="1.0000000000000000e+00" itree="122">
      <Node pos="s" depth="0" NCoef="0" IVar="7" Cut="1.6825189208984375e+02" cType="1" res="2.3631383373867720e-04" rms="4.1882920265197754e-01" purity="5.0114369392395020e-01" nType="0">
        <Node pos="l" depth="1" NCoef="0" IVar="8" Cut="3.0410890579223633e+00" cType="1" res="2.2049702703952789e-02" rms="4.0516170859336853e-01" purity="3.3743867278099060e-01" nType="0">
          <Node pos="l" depth="2" NCoef="0" IVar="-1" Cut="0.0000000000000000e+00" cType="1" res="-2.2077108733355999e-03" rms="4.0211430191993713e-01" purity="3.1418934464454651e-01" nType="-99"/>
          <Node pos="r" depth="2" NCoef="0" IVar="-1" Cut="0.0000000000000000e+00" cType="1" res="1.4983487315475941e-02" rms="4.0604832768440247e-01" purity="3.5626333951950073e-01" nType="-99"/>
        </Node>
        <Node pos="r" depth="1" NCoef="0" IVar="6" Cut="6.2584686279296875e-01" cType="1" res="0.0000000000000000e+00" rms="0.0000000000000000e+00" purity="5.5597656965255737e-01" nType="0">
          <Node pos="l" depth="2" NCoef="0" IVar="2" Cut="2.5915701389312744e+00" cType="1" res="-1.8506908789277077e-02" rms="4.4275778532028198e-01" purity="4.9603739380836487e-01" nType="0">
            <Node pos="l" depth="3" NCoef="0" IVar="8" Cut="2.9431500434875488e+00" cType="1" res="-3.2478668726980686e-03" rms="4.3731468915939331e-01" purity="5.0162416696548462e-01" nType="0">
              <Node pos="l" depth="4" NCoef="0" IVar="-1" Cut="0.0000000000000000e+00" cType="1" res="5.6885662488639355e-03" rms="4.3826466798782349e-01" purity="4.7775512933731079e-01" nType="-99"/>
              <Node pos="r" depth="4" NCoef="0" IVar="-1" Cut="0.0000000000000000e+00" cType="1" res="-8.2262651994824409e-03" rms="4.3496558070182800e-01" purity="5.2719044685363770e-01" nType="-99"/>
            </Node>
            <Node pos="r" depth="3" NCoef="0" IVar="-1" Cut="0.0000000000000000e+00" cType="1" res="-1.2795454822480679e-02" rms="4.5454332232475281e-01" purity="4.8100820183753967e-01" nType="-99"/>
          </Node>
          <Node pos="r" depth="2" NCoef="0" IVar="8" Cut="3.0276367664337158e+00" cType="1" res="5.0411033444106579e-03" rms="4.0078577399253845e-01" purity="6.1944973468780518e-01" nType="0">
            <Node pos="l" depth="3" NCoef="0" IVar="9" Cut="3.0000000000000000e+00" cType="1" res="0.0000000000000000e+00" rms="0.0000000000000000e+00" purity="5.3796154260635376e-01" nType="0">
              <Node pos="l" depth="4" NCoef="0" IVar="-1" Cut="0.0000000000000000e+00" cType="1" res="2.4722918169572949e-04" rms="4.4928506016731262e-01" purity="5.1458245515823364e-01" nType="-99"/>
              <Node pos="r" depth="4" NCoef="0" IVar="-1" Cut="0.0000000000000000e+00" cType="1" res="-7.1329274214804173e-03" rms="3.8641113042831421e-01" purity="5.6068527698516846e-01" nType="-99"/>
            </Node>
            <Node pos="r" depth="3" NCoef="0" IVar="-1" Cut="0.0000000000000000e+00" cType="1" res="1.0904274880886078e-02" rms="3.7367761135101318e-01" purity="7.3135840892791748e-01" nType="-99"/>
          </Node>
        </Node>
      </Node>
    </BinaryTree>
    <BinaryTree type="DecisionTree" boostWeight="1.0000000000000000e+00" itree="123">
      <Node pos="s" depth="0" NCoef="0" IVar="4" Cut="8.2977703125000000e+04" cType="1" res="-1.3263992965221405e-02" rms="4.1873037815093994e-01" purity="4.8363775014877319e-01" nType="0">
        <Node pos="l" depth="1" NCoef="0" IVar="1" Cut="-1.4999237656593323e-01" cType="1" res="-2.0908825099468231e-02" rms="4.1777083277702332e-01" purity="4.4025421142578125e-01" nType="0">
          <Node pos="l" depth="2" NCoef="0" IVar="2" Cut="2.3344795703887939e+00" cType="1" res="-3.5775635391473770e-02" rms="4.1333076357841492e-01" purity="4.3546923995018005e-01" nType="0">
            <Node pos="l" depth="3" NCoef="0" IVar="5" Cut="1.8023045349121094e+02" cType="1" res="-4.6498164534568787e-02" rms="3.9458730816841125e-01" purity="3.8689267635345459e-01" nType="0">
              <Node pos="l" depth="4" NCoef="0" IVar="-1" Cut="0.0000000000000000e+00" cType="1" res="-1.2588918209075928e-02" rms="3.9628082513809204e-01" purity="4.3761435151100159e-01" nType="-99"/>
              <Node pos="r" depth="4" NCoef="0" IVar="-1" Cut="0.0000000000000000e+00" cType="1" res="-1.2591525912284851e-02" rms="3.9259710907936096e-01" purity="3.4127217531204224e-01" nType="-99"/>
            </Node>
            <Node pos="r" depth="3" NCoef="0" IVar="-1" Cut="0.0000000000000000e+00" cType="1" res="-4.2279306799173355e-03" rms="4.4417235255241394e-01" purity="5.2213752269744873e-01" nType="-99"/>
          </Node>
          <Node pos="r" depth="2" NCoef="0" IVar="1" Cut="1.1047029495239258e+00" cType="1" res="-7.1730399504303932e-03" rms="4.2136561870574951e-01" purity="4.4467526674270630e-01" nType="0">
            <Node pos="l" depth="3" NCoef="0" IVar="-1" Cut="0.0000000000000000e+00" cType="1" res="1.1434805579483509e-02" rms="4.0601539611816406e-01" purity="4.1186818480491638e-01" nType="-99"/>
            <Node pos="r" depth="3" NCoef="0" IVar="2" Cut="1.5643751621246338e+00" cType="1" res="-2.3861855268478394e-02" rms="4.2564365267753601e-01" purity="4.5671519637107849e-01" nType="0">
              <Node pos="l" depth="4" NCoef="0" IVar="-1" Cut="0.0000000000000000e+00" cType="1" res="4.3151446152478456e-04" rms="4.0136823058128357e-01" purity="3.7190750241279602e-01" nType="-99"/>
              <Node pos="r" depth="4" NCoef="0" IVar="-1" Cut="0.0000000000000000e+00" cType="1" res="-1.3024924322962761e-02" rms="4.3962389230728149e-01" purity="5.1054733991622925e-01" nType="-99"/>
            </Node>
          </Node>
        </Node>
        <Node pos="r" depth="1" NCoef="0" IVar="-1" Cut="0.0000000000000000e+00" cType="1" res="5.0442223437130451e-03" rms="4.2106649279594421e-01" purity="6.4532119035720825e-01" nType="-99"/>
      </Node>
    </BinaryTree>
    <BinaryTree type="DecisionTree" boostWeight="1.0000000000000000e+00" itree="124">
      <Node pos="s" depth="0" NCoef="0" IVar="7" Cut="1.6825189208984375e+02" cType="1" res="3.9890687912702560e-03" rms="4.1922289133071899e-01" purity="5.0383412837982178e-01" nType="0">
        <Node pos="l" depth="1" NCoef="0" IVar="0" Cut="2.4454434375000000e+05" cType="1" res="2.4219686165452003e-02" rms="4.0388938784599304e-01" purity="3.3287137746810913e-01" nType="0">
          <Node pos="l" depth="2" NCoef="0" IVar="-1" Cut="0.0000000000000000e+00" cType="1" res="8.6028315126895905e-03" rms="4.6647790074348450e-01" purity="4.9590128660202026e-01" nType="-99"/>
          <Node pos="r" depth="2" NCoef="0" IVar="-1" Cut="0.0000000000000000e+00" cType="1" res="-3.9907274767756462e-03" rms="2.9360496997833252e-01" purity="1.0700375586748123e-01" nType="-99"/>
        </Node>
        <Node pos="r" depth="1" NCoef="0" IVar="8" Cut="2.7943921089172363e+00" cType="1" res="0.0000000000000000e+00" rms="0.0000000000000000e+00" purity="5.6453722715377808e-01" nType="0">
          <Node pos="l" depth="2" NCoef="0" IVar="-1" Cut="0.0000000000000000e+00" cType="1" res="-6.3846725970506668e-03" rms="4.4112929701805115e-01" purity="4.4603073596954346e-01" nType="-99"/>
          <Node pos="r" depth="2" NCoef="0" IVar="6" Cut="5.4153299331665039e-01" cType="1" res="0.0000000000000000e+00" rms="0.0000000000000000e+00" purity="5.9515792131423950e-01" nType="0">
            <Node pos="l" depth="3" NCoef="0" IVar="-1" Cut="0.0000000000000000e+00" cType="1" res="-8.8792573660612106e-03" rms="4.4888979196548462e-01" purity="4.0328586101531982e-01" nType="-99"/>
            <Node pos="r" depth="3" NCoef="0" IVar="2" Cut="1.9269807338714600e+00" cType="1" res="1.1314673349261284e-02" rms="4.1095429658889771e-01" purity="6.4693737030029297e-01" nType="0">
              <Node pos="l" depth="4" NCoef="0" IVar="-1" Cut="0.0000000000000000e+00" cType="1" res="1.1404043994843960e-02" rms="3.9720204472541809e-01" purity="6.1275899410247803e-01" nType="-99"/>
              <Node pos="r" depth="4" NCoef="0" IVar="-1" Cut="0.0000000000000000e+00" cType="1" res="-3.5631535574793816e-03" rms="4.2267134785652161e-01" purity="6.7960721254348755e-01" nType="-99"/>
            </Node>
          </Node>
        </Node>
      </Node>
    </BinaryTree>
    <BinaryTree type="DecisionTree" boostWeight="1.0000000000000000e+00" itree="125">
      <Node pos="s" depth="0" NCoef="0" IVar="9" Cut="3.0000000000000000e+00" cType="1" res="-4.7902681399136782e-04" rms="4.1858631372451782e-01" purity="5.0322204828262329e-01" nType="0">
        <Node pos="l" depth="1" NCoef="0" IVar="0" Cut="1.7833987500000000e+05" cType="1" res="-1.3000532984733582e-02" rms="4.1945868730545044e-01" purity="4.1665714979171753e-01" nType="0">
          <Node pos="l" depth="2" NCoef="0" IVar="2" Cut="1.9603850841522217e+00" cType="1" res="9.6802627667784691e-03" rms="4.5948153734207153e-01" purity="5.5974495410919189e-01" nType="0">
            <Node pos="l" depth="3" NCoef="0" IVar="-1" Cut="0.0000000000000000e+00" cType="1" res="1.1820611543953419e-02" rms="4.5803442597389221e-01" purity="5.7108950614929199e-01" nType="-99"/>
            <Node pos="r" depth="3" NCoef="0" IVar="-1" Cut="0.0000000000000000e+00" cType="1" res="-6.2107541598379612e-03" rms="4.5771655440330505e-01" purity="5.4789400100708008e-01" nType="-99"/>
          </Node>
          <Node pos="r" depth="2" NCoef="0" IVar="2" Cut="1.7122136354446411e+00" cType="1" res="-3.3092435449361801e-02" rms="3.7937298417091370e-01" purity="2.8990206122398376e-01" nType="0">
            <Node pos="l" depth="3" NCoef="0" IVar="-1" Cut="0.0000000000000000e+00" cType="1" res="-2.8495449572801590e-02" rms="3.2587325572967529e-01" purity="1.8705259263515472e-01" nType="-99"/>
            <Node pos="r" depth="3" NCoef="0" IVar="-1" Cut="0.0000000000000000e+00" cType="1" res="-9.6309499349445105e-04" rms="4.2628991603851318e-01" purity="3.9790824055671692e-01" nType="-99"/>
          </Node>
        </Node>
        <Node pos="r" depth="1" NCoef="0" IVar="2" Cut="1.1322149038314819e+00" cType="1" res="0.0000000000000000e+00" rms="0.0000000000000000e+00" purity="5.7497936487197876e-01" nType="0">
          <Node pos="l" depth="2" NCoef="0" IVar="-1" Cut="0.0000000000000000e+00" cType="1" res="-1.3542442582547665e-02" rms="3.7248051166534424e-01" purity="3.2045841217041016e-01" nType="-99"/>
          <Node pos="r" depth="2" NCoef="0" IVar="6" Cut="6.0002571344375610e-01" cType="1" res="0.0000000000000000e+00" rms="0.0000000000000000e+00" purity="6.5461850166320801e-01" nType="0">
            <Node pos="l" depth="3" NCoef="0" IVar="-1" Cut="0.0000000000000000e+00" cType="1" res="1.1289140209555626e-02" rms="4.4371694326400757e-01" purity="6.1102420091629028e-01" nType="-99"/>
            <Node pos="r" depth="3" NCoef="0" IVar="-1" Cut="0.0000000000000000e+00" cType="1" res="2.1409375767689198e-04" rms="4.1522556543350220e-01" purity="6.9466131925582886e-01" nType="-99"/>
          </Node>
        </Node>
      </Node>
    </BinaryTree>
    <BinaryTree type="DecisionTree" boostWeight="1.0000000000000000e+00" itree="126">
      <Node pos="s" depth="0" NCoef="0" IVar="1" Cut="-2.2439908981323242e+00" cType="1" res="0.0000000000000000e+00" rms="0.0000000000000000e+00" purity="4.9577382206916809e-01" nType="0">
        <Node pos="l" depth="1" NCoef="0" IVar="1" Cut="-2.7147941589355469e+00" cType="1" res="2.0115057006478310e-02" rms="4.1025173664093018e-01" purity="5.5246108770370483e-01" nType="0">
          <Node pos="l" depth="2" NCoef="0" IVar="-1" Cut="0.0000000000000000e+00" cType="1" res="1.1119450442492962e-02" rms="4.0061333775520325e-01" purity="5.7631927728652954e-01" nType="-99"/>
          <Node pos="r" depth="2" NCoef="0" IVar="-1" Cut="0.0000000000000000e+00" cType="1" res="-4.8991371877491474e-03" rms="4.1826990246772766e-01" purity="5.2464646100997925e-01" nType="-99"/>
        </Node>
        <Node pos="r" depth="1" NCoef="0" IVar="8" Cut="2.8005995750427246e+00" cType="1" res="-1.4264961704611778e-02" rms="4.1734823584556580e-01" purity="4.7857889533042908e-01" nType="0">
          <Node pos="l" depth="2" NCoef="0" IVar="-1" Cut="0.0000000000000000e+00" cType="1" res="-1.5449307858943939e-02" rms="4.5160600543022156e-01" purity="4.0295299887657166e-01" nType="-99"/>
          <Node pos="r" depth="2" NCoef="0" IVar="1" Cut="-1.4743735790252686e+00" cType="1" res="-7.1446071378886700e-03" rms="4.1034790873527527e-01" purity="4.9246865510940552e-01" nType="0">
            <Node pos="l" depth="3" NCoef="0" IVar="-1" Cut="0.0000000000000000e+00" cType="1" res="5.4588844068348408e-03" rms="4.1302961111068726e-01" purity="5.6207633018493652e-01" nType="-99"/>
            <Node pos="r" depth="3" NCoef="0" IVar="3" Cut="1.0225369531250000e+05" cType="1" res="-1.2376384809613228e-02" rms="4.0959769487380981e-01" purity="4.7812834382057190e-01" nType="0">
              <Node pos="l" depth="4" NCoef="0" IVar="-1" Cut="0.0000000000000000e+00" cType="1" res="-1.6565587138757110e-03" rms="4.0151718258857727e-01" purity="4.4693121314048767e-01" nType="-99"/>
              <Node pos="r" depth="4" NCoef="0" IVar="-1" Cut="0.0000000000000000e+00" cType="1" res="-1.0322227142751217e-02" rms="4.2704594135284424e-01" purity="5.4971355199813843e-01" nType="-99"/>
            </Node>
          </Node>
        </Node>
      </Node>
    </BinaryTree>
    <BinaryTree type="DecisionTree" boostWeight="1.0000000000000000e+00" itree="127">
      <Node pos="s" depth="0" NCoef="0" IVar="3" Cut="1.1184771875000000e+05" cType="1" res="4.7982279211282730e-03" rms="4.1635873913764954e-01" purity="5.0546652078628540e-01" nType="0">
        <Node pos="l" depth="1" NCoef="0" IVar="8" Cut="2.8012781143188477e+00" cType="1" res="-2.8011868707835674e-03" rms="4.1445273160934448e-01" purity="4.6941831707954407e-01" nType="0">
          <Node pos="l" depth="2" NCoef="0" IVar="-1" Cut="0.0000000000000000e+00" cType="1" res="-1.0900455527007580e-02" rms="4.4194775819778442e-01" purity="3.8509440422058105e-01" nType="-99"/>
          <Node pos="r" depth="2" NCoef="0" IVar="3" Cut="7.5029609375000000e+04" cType="1" res="3.3306574914604425e-03" rms="4.0927037596702576e-01" purity="4.8378035426139832e-01" nType="0">
            <Node pos="l" depth="3" NCoef="0" IVar="4" Cut="4.4094539062500000e+04" cType="1" res="-8.1104375422000885e-03" rms="4.0680167078971863e-01" purity="4.1053500771522522e-01" nType="0">
              <Node pos="l" depth="4" NCoef="0" IVar="-1" Cut="0.0000000000000000e+00" cType="1" res="3.1933966092765331e-03" rms="3.8846817612648010e-01" purity="3.5588353872299194e-01" nType="-99"/>
              <Node pos="r" depth="4" NCoef="0" IVar="-1" Cut="0.0000000000000000e+00" cType="1" res="-9.1745285317301750e-03" rms="4.2659479379653931e-01" purity="4.7481337189674377e-01" nType="-99"/>
            </Node>
            <Node pos="r" depth="3" NCoef="0" IVar="7" Cut="2.0691658020019531e+02" cType="1" res="1.7491860315203667e-02" rms="4.1186562180519104e-01" purity="5.7443970441818237e-01" nType="0">
              <Node pos="l" depth="4" NCoef="0" IVar="-1" Cut="0.0000000000000000e+00" cType="1" res="-1.5504566254094243e-03" rms="4.1709142923355103e-01" purity="4.0108233690261841e-01" nType="-99"/>
              <Node pos="r" depth="4" NCoef="0" IVar="-1" Cut="0.0000000000000000e+00" cType="1" res="9.7340699285268784e-03" rms="4.0789833664894104e-01" purity="6.7814147472381592e-01" nType="-99"/>
            </Node>
          </Node>
        </Node>
        <Node pos="r" depth="1" NCoef="0" IVar="9" Cut="3.0000000000000000e+00" cType="1" res="2.3855244740843773e-02" rms="4.1994988918304443e-01" purity="6.0131567716598511e-01" nType="0">
          <Node pos="l" depth="2" NCoef="0" IVar="-1" Cut="0.0000000000000000e+00" cType="1" res="8.8279822375625372e-04" rms="4.3075415492057800e-01" purity="4.9938017129898071e-01" nType="-99"/>
          <Node pos="r" depth="2" NCoef="0" IVar="-1" Cut="0.0000000000000000e+00" cType="1" res="1.1252987198531628e-02" rms="4.1390761733055115e-01" purity="6.6335868835449219e-01" nType="-99"/>
        </Node>
      </Node>
    </BinaryTree>
    <BinaryTree type="DecisionTree" boostWeight="1.0000000000000000e+00" itree="128">
      <Node pos="s" depth="0" NCoef="0" IVar="6" Cut="7.9486370086669922e-01" cType="1" res="0.0000000000000000e+00" rms="0.0000000000000000e+00" purity="4.9445462226867676e-01" nType="0">
        <Node pos="l" depth="1" NCoef="0" IVar="6" Cut="7.1965795755386353e-01" cType="1" res="-3.7098632310517132e-04" rms="4.2425104975700378e-01" purity="5.1878863573074341e-01" nType="0">
          <Node pos="l" depth="2" NCoef="0" IVar="2" Cut="2.6073219776153564e+00" cType="1" res="0.0000000000000000e+00" rms="0.0000000000000000e+00" purity="5.0981116294860840e-01" nType="0">
            <Node pos="l" depth="3" NCoef="0" IVar="7" Cut="2.5113624572753906e+02" cType="1" res="-1.7129125073552132e-02" rms="4.2013150453567505e-01" purity="4.9426749348640442e-01" nType="0">
              <Node pos="l" depth="4" NCoef="0" IVar="-1" Cut="0.0000000000000000e+00" cType="1" res="1.7228728393092752e-03" rms="4.1429066658020020e-01" purity="4.1049814224243164e-01" nType="-99"/>
              <Node pos="r" depth="4" NCoef="0" IVar="-1" Cut="0.0000000000000000e+00" cType="1" res="-9.5249321311712265e-03" rms="4.2349237203598022e-01" purity="5.5315196514129639e-01" nType="-99"/>
            </Node>
            <Node pos="r" depth="3" NCoef="0" IVar="8" Cut="2.9563002586364746e+00" cType="1" res="1.5609858557581902e-02" rms="4.4000002741813660e-01" purity="5.4667884111404419e-01" nType="0">
              <Node pos="l" depth="4" NCoef="0" IVar="-1" Cut="0.0000000000000000e+00" cType="1" res="7.5628310441970825e-03" rms="4.4669744372367859e-01" purity="5.5360406637191772e-01" nType="-99"/>
              <Node pos="r" depth="4" NCoef="0" IVar="-1" Cut="0.0000000000000000e+00" cType="1" res="-7.5148267205804586e-04" rms="4.3256771564483643e-01" purity="5.3986394405364990e-01" nType="-99"/>
            </Node>
          </Node>
          <Node pos="r" depth="2" NCoef="0" IVar="-1" Cut="0.0000000000000000e+00" cType="1" res="8.5622025653719902e-03" rms="4.1336321830749512e-01" purity="5.5813455581665039e-01" nType="-99"/>
        </Node>
        <Node pos="r" depth="1" NCoef="0" IVar="-1" Cut="0.0000000000000000e+00" cType="1" res="-1.2604610063135624e-02" rms="3.8622102141380310e-01" purity="3.3323597908020020e-01" nType="-99"/>
      </Node>
    </BinaryTree>
    <BinaryTree type="DecisionTree" boostWeight="1.0000000000000000e+00" itree="129">
      <Node pos="s" depth="0" NCoef="0" IVar="9" Cut="2.0000000000000000e+00" cType="1" res="9.0804146602749825e-03" rms="4.1319209337234497e-01" purity="5.1024121046066284e-01" nType="0">
        <Node pos="l" depth="1" NCoef="0" IVar="-1" Cut="0.0000000000000000e+00" cType="1" res="1.0065217502415180e-02" rms="4.3354868888854980e-01" purity="4.5304799079895020e-01" nType="-99"/>
        <Node pos="r" depth="1" NCoef="0" IVar="2" Cut="1.2879070043563843e+00" cType="1" res="4.6800142154097557e-03" rms="4.0989160537719727e-01" purity="5.1891320943832397e-01" nType="0">
          <Node pos="l" depth="2" NCoef="0" IVar="7" Cut="2.4073994445800781e+02" cType="1" res="-1.5168976038694382e-02" rms="3.6337837576866150e-01" purity="3.4341499209403992e-01" nType="0">
            <Node pos="l" depth="3" NCoef="0" IVar="-1" Cut="0.0000000000000000e+00" cType="1" res="-2.2617569193243980e-02" rms="3.0207583308219910e-01" purity="1.6295620799064636e-01" nType="-99"/>
            <Node pos="r" depth="3" NCoef="0" IVar="-1" Cut="0.0000000000000000e+00" cType="1" res="2.6759346947073936e-03" rms="4.0613248944282532e-01" purity="4.9478581547737122e-01" nType="-99"/>
          </Node>
          <Node pos="r" depth="2" NCoef="0" IVar="2" Cut="1.6589806079864502e+00" cType="1" res="1.3600493781268597e-02" rms="4.2885756492614746e-01" purity="5.9778511524200439e-01" nType="0">
            <Node pos="l" depth="3" NCoef="0" IVar="-1" Cut="0.0000000000000000e+00" cType="1" res="1.0297742672264576e-02" rms="4.1783720254898071e-01" purity="6.1502599716186523e-01" nType="-99"/>
            <Node pos="r" depth="3" NCoef="0" IVar="2" Cut="2.1626346111297607e+00" cType="1" res="8.0486480146646500e-03" rms="4.3110772967338562e-01" purity="5.9389996528625488e-01" nType="0">
              <Node pos="l" depth="4" NCoef="0" IVar="-1" Cut="0.0000000000000000e+00" cType="1" res="-7.0054908283054829e-03" rms="4.2452213168144226e-01" purity="5.9597271680831909e-01" nType="-99"/>
              <Node pos="r" depth="4" NCoef="0" IVar="-1" Cut="0.0000000000000000e+00" cType="1" res="5.0065363757312298e-03" rms="4.3299791216850281e-01" purity="5.9312820434570312e-01" nType="-99"/>
            </Node>
          </Node>
        </Node>
      </Node>
    </BinaryTree>
    <BinaryTree type="DecisionTree" boostWeight="1.0000000000000000e+00" itree="130">
      <Node pos="s" depth="0" NCoef="0" IVar="9" Cut="2.0000000000000000e+00" cType="1" res="5.9444806538522243e-03" rms="4.2002233862876892e-01" purity="5.0072938203811646e-01" nType="0">
        <Node pos="l" depth="1" NCoef="0" IVar="-1" Cut="0.0000000000000000e+00" cType="1" res="-3.9339568465948105e-03" rms="4.3462967872619629e-01" purity="3.8160184025764465e-01" nType="-99"/>
        <Node pos="r" depth="1" NCoef="0" IVar="2" Cut="8.6676168441772461e-01" cType="1" res="0.0000000000000000e+00" rms="0.0000000000000000e+00" purity="5.2017062902450562e-01" nType="0">
          <Node pos="l" depth="2" NCoef="0" IVar="-1" Cut="0.0000000000000000e+00" cType="1" res="-1.2939243577420712e-02" rms="3.4000891447067261e-01" purity="2.3223200440406799e-01" nType="-99"/>
          <Node pos="r" depth="2" NCoef="0" IVar="9" Cut="3.0000000000000000e+00" cType="1" res="0.0000000000000000e+00" rms="0.0000000000000000e+00" purity="5.7597076892852783e-01" nType="0">
            <Node pos="l" depth="3" NCoef="0" IVar="1" Cut="-1.4892908930778503e-01" cType="1" res="3.0115075409412384e-02" rms="4.3174925446510315e-01" purity="5.0010532140731812e-01" nType="0">
              <Node pos="l" depth="4" NCoef="0" IVar="-1" Cut="0.0000000000000000e+00" cType="1" res="4.0641680243425071e-04" rms="4.3006855249404907e-01" purity="4.6312612295150757e-01" nType="-99"/>
              <Node pos="r" depth="4" NCoef="0" IVar="-1" Cut="0.0000000000000000e+00" cType="1" res="1.5227581374347210e-02" rms="4.3168422579765320e-01" purity="5.3364592790603638e-01" nType="-99"/>
            </Node>
            <Node pos="r" depth="3" NCoef="0" IVar="5" Cut="1.8092311096191406e+02" cType="1" res="7.8474702313542366e-03" rms="4.2972004413604736e-01" purity="6.2003612518310547e-01" nType="0">
              <Node pos="l" depth="4" NCoef="0" IVar="-1" Cut="0.0000000000000000e+00" cType="1" res="7.3281335644423962e-03" rms="4.1588649153709412e-01" purity="6.8289786577224731e-01" nType="-99"/>
              <Node pos="r" depth="4" NCoef="0" IVar="-1" Cut="0.0000000000000000e+00" cType="1" res="-1.7613035161048174e-03" rms="4.4338053464889526e-01" purity="5.5382603406906128e-01" nType="-99"/>
            </Node>
          </Node>
        </Node>
      </Node>
    </BinaryTree>
    <BinaryTree type="DecisionTree" boostWeight="1.0000000000000000e+00" itree="131">
      <Node pos="s" depth="0" NCoef="0" IVar="2" Cut="1.1584500074386597e+00" cType="1" res="-8.8421637192368507e-03" rms="4.1880667209625244e-01" purity="4.8819181323051453e-01" nType="0">
        <Node pos="l" depth="1" NCoef="0" IVar="0" Cut="2.1403775000000000e+05" cType="1" res="1.1681087315082550e-02" rms="3.6937105655670166e-01" purity="3.2246685028076172e-01" nType="0">
          <Node pos="l" depth="2" NCoef="0" IVar="-1" Cut="0.0000000000000000e+00" cType="1" res="9.2410575598478317e-03" rms="4.3516042828559875e-01" purity="5.0144243240356445e-01" nType="-99"/>
          <Node pos="r" depth="2" NCoef="0" IVar="-1" Cut="0.0000000000000000e+00" cType="1" res="-4.5817648060619831e-03" rms="2.9790017008781433e-01" purity="1.6371308267116547e-01" nType="-99"/>
        </Node>
        <Node pos="r" depth="1" NCoef="0" IVar="2" Cut="1.5859519243240356e+00" cType="1" res="0.0000000000000000e+00" rms="0.0000000000000000e+00" purity="5.5084145069122314e-01" nType="0">
          <Node pos="l" depth="2" NCoef="0" IVar="-1" Cut="0.0000000000000000e+00" cType="1" res="-1.7917234450578690e-02" rms="4.3172881007194519e-01" purity="5.0403541326522827e-01" nType="-99"/>
          <Node pos="r" depth="2" NCoef="0" IVar="1" Cut="1.3438009023666382e+00" cType="1" res="-9.2780841514468193e-03" rms="4.3633809685707092e-01" purity="5.6118595600128174e-01" nType="0">
            <Node pos="l" depth="3" NCoef="0" IVar="5" Cut="2.0052336120605469e+02" cType="1" res="-4.8945745220407844e-04" rms="4.3467715382575989e-01" purity="5.5661922693252563e-01" nType="0">
              <Node pos="l" depth="4" NCoef="0" IVar="-1" Cut="0.0000000000000000e+00" cType="1" res="-4.0474189445376396e-03" rms="4.3238520622253418e-01" purity="5.8082205057144165e-01" nType="-99"/>
              <Node pos="r" depth="4" NCoef="0" IVar="-1" Cut="0.0000000000000000e+00" cType="1" res="5.7545891031622887e-03" rms="4.3773555755615234e-01" purity="5.1578390598297119e-01" nType="-99"/>
            </Node>
            <Node pos="r" depth="3" NCoef="0" IVar="9" Cut="3.0000000000000000e+00" cType="1" res="-2.3712787777185440e-02" rms="4.3813055753707886e-01" purity="5.6873786449432373e-01" nType="0">
              <Node pos="l" depth="4" NCoef="0" IVar="-1" Cut="0.0000000000000000e+00" cType="1" res="-4.0768915787339211e-03" rms="4.4246816635131836e-01" purity="5.1512968540191650e-01" nType="-99"/>
              <Node pos="r" depth="4" NCoef="0" IVar="-1" Cut="0.0000000000000000e+00" cType="1" res="-1.0734034702181816e-02" rms="4.3483209609985352e-01" purity="6.2000077962875366e-01" nType="-99"/>
            </Node>
          </Node>
        </Node>
      </Node>
    </BinaryTree>
    <BinaryTree type="DecisionTree" boostWeight="1.0000000000000000e+00" itree="132">
      <Node pos="s" depth="0" NCoef="0" IVar="6" Cut="6.2615442276000977e-01" cType="1" res="-1.2919424334540963e-03" rms="4.1631737351417542e-01" purity="4.9703657627105713e-01" nType="0">
        <Node pos="l" depth="1" NCoef="0" IVar="7" Cut="3.8978521728515625e+02" cType="1" res="1.0439473204314709e-02" rms="4.3163797259330750e-01" purity="4.9321445822715759e-01" nType="0">
          <Node pos="l" depth="2" NCoef="0" IVar="8" Cut="2.9237298965454102e+00" cType="1" res="2.4611910805106163e-02" rms="4.3100053071975708e-01" purity="4.7222739458084106e-01" nType="0">
            <Node pos="l" depth="3" NCoef="0" IVar="-1" Cut="0.0000000000000000e+00" cType="1" res="1.4271475374698639e-02" rms="4.5236343145370483e-01" purity="4.8012325167655945e-01" nType="-99"/>
            <Node pos="r" depth="3" NCoef="0" IVar="-1" Cut="0.0000000000000000e+00" cType="1" res="2.0941081456840038e-03" rms="4.1526091098785400e-01" purity="4.6701356768608093e-01" nType="-99"/>
          </Node>
          <Node pos="r" depth="2" NCoef="0" IVar="-1" Cut="0.0000000000000000e+00" cType="1" res="-7.7248751185834408e-03" rms="4.3078023195266724e-01" purity="5.5565953254699707e-01" nType="-99"/>
        </Node>
        <Node pos="r" depth="1" NCoef="0" IVar="8" Cut="2.9044125080108643e+00" cType="1" res="-1.0866847820580006e-02" rms="4.0312907099723816e-01" purity="5.0015610456466675e-01" nType="0">
          <Node pos="l" depth="2" NCoef="0" IVar="-1" Cut="0.0000000000000000e+00" cType="1" res="-1.0137550532817841e-02" rms="4.4791948795318604e-01" purity="4.5286977291107178e-01" nType="-99"/>
          <Node pos="r" depth="2" NCoef="0" IVar="8" Cut="3.0964889526367188e+00" cType="1" res="-4.5570256188511848e-03" rms="3.9115634560585022e-01" purity="5.1170128583908081e-01" nType="0">
            <Node pos="l" depth="3" NCoef="0" IVar="3" Cut="5.7105085937500000e+04" cType="1" res="7.9950913786888123e-03" rms="3.8967621326446533e-01" purity="5.1804983615875244e-01" nType="0">
              <Node pos="l" depth="4" NCoef="0" IVar="-1" Cut="0.0000000000000000e+00" cType="1" res="-3.4696392249315977e-03" rms="3.7593474984169006e-01" purity="3.4797877073287964e-01" nType="-99"/>
              <Node pos="r" depth="4" NCoef="0" IVar="-1" Cut="0.0000000000000000e+00" cType="1" res="5.6318175047636032e-03" rms="3.9565759897232056e-01" purity="5.9741717576980591e-01" nType="-99"/>
            </Node>
            <Node pos="r" depth="3" NCoef="0" IVar="-1" Cut="0.0000000000000000e+00" cType="1" res="-8.4270546212792397e-03" rms="3.9316517114639282e-01" purity="4.9276113510131836e-01" nType="-99"/>
          </Node>
        </Node>
      </Node>
    </BinaryTree>
    <BinaryTree type="DecisionTree" boostWeight="1.0000000000000000e+00" itree="133">
      <Node pos="s" depth="0" NCoef="0" IVar="3" Cut="5.5105296875000000e+04" cType="1" res="3.0359171796590090e-03" rms="4.1772606968879700e-01" purity="4.9833807349205017e-01" nType="0">
        <Node pos="l" depth="1" NCoef="0" IVar="-1" Cut="0.0000000000000000e+00" cType="1" res="-9.2218322679400444e-03" rms="3.9184501767158508e-01" purity="3.0589303374290466e-01" nType="-99"/>
        <Node pos="r" depth="1" NCoef="0" IVar="9" Cut="4.0000000000000000e+00" cType="1" res="9.6371769905090332e-03" rms="4.2298784852027893e-01" purity="5.4121607542037964e-01" nType="0">
          <Node pos="l" depth="2" NCoef="0" IVar="2" Cut="1.9284745454788208e+00" cType="1" res="1.7433090135455132e-02" rms="4.2476263642311096e-01" purity="5.2286082506179810e-01" nType="0">
            <Node pos="l" depth="3" NCoef="0" IVar="1" Cut="1.6432965993881226e+00" cType="1" res="2.7714237570762634e-02" rms="4.1182029247283936e-01" purity="4.7658720612525940e-01" nType="0">
              <Node pos="l" depth="4" NCoef="0" IVar="-1" Cut="0.0000000000000000e+00" cType="1" res="5.7147461920976639e-03" rms="4.1334158182144165e-01" purity="4.4466224312782288e-01" nType="-99"/>
              <Node pos="r" depth="4" NCoef="0" IVar="-1" Cut="0.0000000000000000e+00" cType="1" res="1.6142632812261581e-02" rms="4.0829259157180786e-01" purity="5.3603333234786987e-01" nType="-99"/>
            </Node>
            <Node pos="r" depth="3" NCoef="0" IVar="1" Cut="-1.5149459242820740e-01" cType="1" res="6.3920076936483383e-03" rms="4.3796747922897339e-01" purity="5.7255476713180542e-01" nType="0">
              <Node pos="l" depth="4" NCoef="0" IVar="-1" Cut="0.0000000000000000e+00" cType="1" res="7.6685566455125809e-03" rms="4.2960935831069946e-01" purity="6.0677587985992432e-01" nType="-99"/>
              <Node pos="r" depth="4" NCoef="0" IVar="-1" Cut="0.0000000000000000e+00" cType="1" res="-5.6687672622501850e-03" rms="4.4507274031639099e-01" purity="5.3684169054031372e-01" nType="-99"/>
            </Node>
          </Node>
          <Node pos="r" depth="2" NCoef="0" IVar="-1" Cut="0.0000000000000000e+00" cType="1" res="-5.4312157444655895e-03" rms="4.1591718792915344e-01" purity="6.0299086570739746e-01" nType="-99"/>
        </Node>
      </Node>
    </BinaryTree>
    <BinaryTree type="DecisionTree" boostWeight="1.0000000000000000e+00" itree="134">
      <Node pos="s" depth="0" NCoef="0" IVar="9" Cut="3.0000000000000000e+00" cType="1" res="3.2401550561189651e-03" rms="4.1972365975379944e-01" purity="4.9869456887245178e-01" nType="0">
        <Node pos="l" depth="1" NCoef="0" IVar="6" Cut="6.8282729387283325e-01" cType="1" res="-1.6010254621505737e-02" rms="4.2367997765541077e-01" purity="4.0616351366043091e-01" nType="0">
          <Node pos="l" depth="2" NCoef="0" IVar="1" Cut="1.5079142153263092e-01" cType="1" res="-4.4200677424669266e-02" rms="4.3588179349899292e-01" purity="3.6539319157600403e-01" nType="0">
            <Node pos="l" depth="3" NCoef="0" IVar="-1" Cut="0.0000000000000000e+00" cType="1" res="-1.3348971493542194e-02" rms="4.2770293354988098e-01" purity="3.3304944634437561e-01" nType="-99"/>
            <Node pos="r" depth="3" NCoef="0" IVar="-1" Cut="0.0000000000000000e+00" cType="1" res="-4.8367348499596119e-03" rms="4.4199576973915100e-01" purity="3.9668634533882141e-01" nType="-99"/>
          </Node>
          <Node pos="r" depth="2" NCoef="0" IVar="5" Cut="1.9398442077636719e+02" cType="1" res="0.0000000000000000e+00" rms="0.0000000000000000e+00" purity="4.3804490566253662e-01" nType="0">
            <Node pos="l" depth="3" NCoef="0" IVar="-1" Cut="0.0000000000000000e+00" cType="1" res="-8.5773747414350510e-03" rms="4.0071073174476624e-01" purity="3.9574882388114929e-01" nType="-99"/>
            <Node pos="r" depth="3" NCoef="0" IVar="-1" Cut="0.0000000000000000e+00" cType="1" res="1.4217250980436802e-02" rms="4.2375105619430542e-01" purity="4.9152490496635437e-01" nType="-99"/>
          </Node>
        </Node>
        <Node pos="r" depth="1" NCoef="0" IVar="3" Cut="1.1338885937500000e+05" cType="1" res="2.0072909072041512e-02" rms="4.1561543941497803e-01" purity="5.7950025796890259e-01" nType="0">
          <Node pos="l" depth="2" NCoef="0" IVar="9" Cut="4.0000000000000000e+00" cType="1" res="8.5956389084458351e-03" rms="4.1350102424621582e-01" purity="5.4011458158493042e-01" nType="0">
            <Node pos="l" depth="3" NCoef="0" IVar="6" Cut="6.4340311288833618e-01" cType="1" res="2.3791210725903511e-02" rms="4.1138955950737000e-01" purity="5.3963476419448853e-01" nType="0">
              <Node pos="l" depth="4" NCoef="0" IVar="-1" Cut="0.0000000000000000e+00" cType="1" res="1.5769731253385544e-02" rms="4.2221370339393616e-01" purity="5.3723043203353882e-01" nType="-99"/>
              <Node pos="r" depth="4" NCoef="0" IVar="-1" Cut="0.0000000000000000e+00" cType="1" res="-2.8654006309807301e-03" rms="3.9823403954505920e-01" purity="5.4193663597106934e-01" nType="-99"/>
            </Node>
            <Node pos="r" depth="3" NCoef="0" IVar="-1" Cut="0.0000000000000000e+00" cType="1" res="-7.3109087534248829e-03" rms="4.1713395714759827e-01" purity="5.4099059104919434e-01" nType="-99"/>
          </Node>
          <Node pos="r" depth="2" NCoef="0" IVar="-1" Cut="0.0000000000000000e+00" cType="1" res="1.3153546489775181e-02" rms="4.1818255186080933e-01" purity="6.7078602313995361e-01" nType="-99"/>
        </Node>
      </Node>
    </BinaryTree>
    <BinaryTree type="DecisionTree" boostWeight="1.0000000000000000e+00" itree="135">
      <Node pos="s" depth="0" NCoef="0" IVar="1" Cut="-7.4803131818771362e-01" cType="1" res="-1.3934613671153784e-03" rms="4.2150840163230896e-01" purity="5.0136297941207886e-01" nType="0">
        <Node pos="l" depth="1" NCoef="0" IVar="5" Cut="2.1827714538574219e+02" cType="1" res="8.6814844980835915e-03" rms="4.2286440730094910e-01" purity="5.2709215879440308e-01" nType="0">
          <Node pos="l" depth="2" NCoef="0" IVar="5" Cut="1.6745761108398438e+02" cType="1" res="-7.4902526102960110e-03" rms="4.1764232516288757e-01" purity="5.3481400012969971e-01" nType="0">
            <Node pos="l" depth="3" NCoef="0" IVar="-1" Cut="0.0000000000000000e+00" cType="1" res="5.1027610898017883e-03" rms="4.0805125236511230e-01" purity="5.6433928012847900e-01" nType="-99"/>
            <Node pos="r" depth="3" NCoef="0" IVar="-1" Cut="0.0000000000000000e+00" cType="1" res="-6.1203460209071636e-03" rms="4.2415413260459900e-01" purity="5.1140338182449341e-01" nType="-99"/>
          </Node>
          <Node pos="r" depth="2" NCoef="0" IVar="-1" Cut="0.0000000000000000e+00" cType="1" res="1.2843843549489975e-02" rms="4.3195825815200806e-01" purity="5.1021164655685425e-01" nType="-99"/>
        </Node>
        <Node pos="r" depth="1" NCoef="0" IVar="3" Cut="7.4285898437500000e+04" cType="1" res="-8.7631801143288612e-03" rms="4.2036080360412598e-01" purity="4.8254230618476868e-01" nType="0">
          <Node pos="l" depth="2" NCoef="0" IVar="5" Cut="1.7161601257324219e+02" cType="1" res="0.0000000000000000e+00" rms="0.0000000000000000e+00" purity="3.8534376025199890e-01" nType="0">
            <Node pos="l" depth="3" NCoef="0" IVar="-1" Cut="0.0000000000000000e+00" cType="1" res="9.1686798259615898e-03" rms="4.0328404307365417e-01" purity="4.4571635127067566e-01" nType="-99"/>
            <Node pos="r" depth="3" NCoef="0" IVar="-1" Cut="0.0000000000000000e+00" cType="1" res="-3.6933543160557747e-03" rms="4.0163096785545349e-01" purity="3.3529981970787048e-01" nType="-99"/>
          </Node>
          <Node pos="r" depth="2" NCoef="0" IVar="8" Cut="2.9474461078643799e+00" cType="1" res="-1.8130676820874214e-02" rms="4.3140366673469543e-01" purity="5.4705035686492920e-01" nType="0">
            <Node pos="l" depth="3" NCoef="0" IVar="-1" Cut="0.0000000000000000e+00" cType="1" res="-1.0833184234797955e-02" rms="4.5551756024360657e-01" purity="5.0347709655761719e-01" nType="-99"/>
            <Node pos="r" depth="3" NCoef="0" IVar="-1" Cut="0.0000000000000000e+00" cType="1" res="-1.4702205080538988e-03" rms="4.1340112686157227e-01" purity="5.7712340354919434e-01" nType="-99"/>
          </Node>
        </Node>
      </Node>
    </BinaryTree>
    <BinaryTree type="DecisionTree" boostWeight="1.0000000000000000e+00" itree="136">
      <Node pos="s" depth="0" NCoef="0" IVar="2" Cut="3.0497303009033203e+00" cType="1" res="0.0000000000000000e+00" rms="0.0000000000000000e+00" purity="4.8602530360221863e-01" nType="0">
        <Node pos="l" depth="1" NCoef="0" IVar="2" Cut="2.7658123970031738e+00" cType="1" res="0.0000000000000000e+00" rms="0.0000000000000000e+00" purity="4.8932483792304993e-01" nType="0">
          <Node pos="l" depth="2" NCoef="0" IVar="8" Cut="2.7943835258483887e+00" cType="1" res="-1.1323682032525539e-02" rms="4.1125562787055969e-01" purity="4.7187861800193787e-01" nType="0">
            <Node pos="l" depth="3" NCoef="0" IVar="-1" Cut="0.0000000000000000e+00" cType="1" res="8.6065987125039101e-03" rms="4.4514989852905273e-01" purity="4.7089153528213501e-01" nType="-99"/>
            <Node pos="r" depth="3" NCoef="0" IVar="8" Cut="2.9928772449493408e+00" cType="1" res="-1.7961546778678894e-02" rms="4.0490964055061340e-01" purity="4.7204431891441345e-01" nType="0">
              <Node pos="l" depth="4" NCoef="0" IVar="-1" Cut="0.0000000000000000e+00" cType="1" res="-1.1217537336051464e-02" rms="4.1399574279785156e-01" purity="4.1788068413734436e-01" nType="-99"/>
              <Node pos="r" depth="4" NCoef="0" IVar="-1" Cut="0.0000000000000000e+00" cType="1" res="-2.8323598671704531e-03" rms="3.9874476194381714e-01" purity="5.0625932216644287e-01" nType="-99"/>
            </Node>
          </Node>
          <Node pos="r" depth="2" NCoef="0" IVar="-1" Cut="0.0000000000000000e+00" cType="1" res="9.0001840144395828e-03" rms="4.2902436852455139e-01" purity="6.0873442888259888e-01" nType="-99"/>
        </Node>
        <Node pos="r" depth="1" NCoef="0" IVar="-1" Cut="0.0000000000000000e+00" cType="1" res="-9.9543929100036621e-03" rms="4.3672764301300049e-01" purity="4.6190148591995239e-01" nType="-99"/>
      </Node>
    </BinaryTree>
    <BinaryTree type="DecisionTree" boostWeight="1.0000000000000000e+00" itree="137">
      <Node pos="s" depth="0" NCoef="0" IVar="2" Cut="3.0000634193420410e+00" cType="1" res="-2.8048795647919178e-03" rms="4.1572192311286926e-01" purity="4.9566525220870972e-01" nType="0">
        <Node pos="l" depth="1" NCoef="0" IVar="6" Cut="6.2630277872085571e-01" cType="1" res="1.7425306141376495e-03" rms="4.1301801800727844e-01" purity="4.9773198366165161e-01" nType="0">
          <Node pos="l" depth="2" NCoef="0" IVar="2" Cut="2.1695997714996338e+00" cType="1" res="1.3904007151722908e-02" rms="4.2829310894012451e-01" purity="4.9419176578521729e-01" nType="0">
            <Node pos="l" depth="3" NCoef="0" IVar="0" Cut="1.7195806250000000e+05" cType="1" res="5.2135330624878407e-03" rms="4.2846149206161499e-01" purity="4.4491434097290039e-01" nType="0">
              <Node pos="l" depth="4" NCoef="0" IVar="-1" Cut="0.0000000000000000e+00" cType="1" res="-5.4888953454792500e-03" rms="4.5121333003044128e-01" purity="4.7456052899360657e-01" nType="-99"/>
              <Node pos="r" depth="4" NCoef="0" IVar="-1" Cut="0.0000000000000000e+00" cType="1" res="1.0017137043178082e-02" rms="4.0837031602859497e-01" purity="4.2154115438461304e-01" nType="-99"/>
            </Node>
            <Node pos="r" depth="3" NCoef="0" IVar="-1" Cut="0.0000000000000000e+00" cType="1" res="8.0416807904839516e-03" rms="4.2746481299400330e-01" purity="5.8961498737335205e-01" nType="-99"/>
          </Node>
          <Node pos="r" depth="2" NCoef="0" IVar="6" Cut="7.3125767707824707e-01" cType="1" res="-8.2506658509373665e-03" rms="3.9975318312644958e-01" purity="5.0064098834991455e-01" nType="0">
            <Node pos="l" depth="3" NCoef="0" IVar="6" Cut="6.7628067731857300e-01" cType="1" res="-1.8177602440118790e-02" rms="4.1106659173965454e-01" purity="5.6340950727462769e-01" nType="0">
              <Node pos="l" depth="4" NCoef="0" IVar="-1" Cut="0.0000000000000000e+00" cType="1" res="3.9658366586081684e-04" rms="4.1080263257026672e-01" purity="5.8893972635269165e-01" nType="-99"/>
              <Node pos="r" depth="4" NCoef="0" IVar="-1" Cut="0.0000000000000000e+00" cType="1" res="-1.2403836473822594e-02" rms="4.1049388051033020e-01" purity="5.3957194089889526e-01" nType="-99"/>
            </Node>
            <Node pos="r" depth="3" NCoef="0" IVar="1" Cut="1.5374045073986053e-01" cType="1" res="3.3084345050156116e-03" rms="3.8584047555923462e-01" purity="4.2755216360092163e-01" nType="0">
              <Node pos="l" depth="4" NCoef="0" IVar="-1" Cut="0.0000000000000000e+00" cType="1" res="-9.4536859542131424e-03" rms="3.6988598108291626e-01" purity="3.9663144946098328e-01" nType="-99"/>
              <Node pos="r" depth="4" NCoef="0" IVar="-1" Cut="0.0000000000000000e+00" cType="1" res="1.2580992653965950e-02" rms="4.0113645792007446e-01" purity="4.6294790506362915e-01" nType="-99"/>
            </Node>
          </Node>
        </Node>
        <Node pos="r" depth="1" NCoef="0" IVar="-1" Cut="0.0000000000000000e+00" cType="1" res="-7.0143430493772030e-03" rms="4.3003520369529724e-01" purity="4.8375740647315979e-01" nType="-99"/>
      </Node>
    </BinaryTree>
    <BinaryTree type="DecisionTree" boostWeight="1.0000000000000000e+00" itree="138">
      <Node pos="s" depth="0" NCoef="0" IVar="8" Cut="2.7519044876098633e+00" cType="1" res="-4.2829709127545357e-04" rms="4.1969239711761475e-01" purity="4.9759757518768311e-01" nType="0">
        <Node pos="l" depth="1" NCoef="0" IVar="-1" Cut="0.0000000000000000e+00" cType="1" res="1.0434143245220184e-02" rms="4.4626364111900330e-01" purity="5.0143951177597046e-01" nType="-99"/>
        <Node pos="r" depth="1" NCoef="0" IVar="3" Cut="1.4047739062500000e+05" cType="1" res="-5.4240534082055092e-03" rms="4.1575062274932861e-01" purity="4.9708300828933716e-01" nType="0">
          <Node pos="l" depth="2" NCoef="0" IVar="3" Cut="5.8656968750000000e+04" cType="1" res="8.4288418292999268e-04" rms="4.1417083144187927e-01" purity="4.9311950802803040e-01" nType="0">
            <Node pos="l" depth="3" NCoef="0" IVar="-1" Cut="0.0000000000000000e+00" cType="1" res="8.2243001088500023e-03" rms="4.0732014179229736e-01" purity="3.8213121891021729e-01" nType="-99"/>
            <Node pos="r" depth="3" NCoef="0" IVar="8" Cut="2.9746367931365967e+00" cType="1" res="-6.5855374559760094e-03" rms="4.1613441705703735e-01" purity="5.2966624498367310e-01" nType="0">
              <Node pos="l" depth="4" NCoef="0" IVar="-1" Cut="0.0000000000000000e+00" cType="1" res="2.9707278590649366e-03" rms="4.3743097782135010e-01" purity="5.1004016399383545e-01" nType="-99"/>
              <Node pos="r" depth="4" NCoef="0" IVar="-1" Cut="0.0000000000000000e+00" cType="1" res="-6.5124039538204670e-03" rms="4.0177756547927856e-01" purity="5.4199057817459106e-01" nType="-99"/>
            </Node>
          </Node>
          <Node pos="r" depth="2" NCoef="0" IVar="-1" Cut="0.0000000000000000e+00" cType="1" res="-1.2069013901054859e-02" rms="4.2398026585578918e-01" purity="5.2445781230926514e-01" nType="-99"/>
        </Node>
      </Node>
    </BinaryTree>
    <BinaryTree type="DecisionTree" boostWeight="1.0000000000000000e+00" itree="139">
      <Node pos="s" depth="0" NCoef="0" IVar="3" Cut="5.2897160156250000e+04" cType="1" res="1.3222850859165192e-02" rms="4.1577216982841492e-01" purity="5.0734174251556396e-01" nType="0">
        <Node pos="l" depth="1" NCoef="0" IVar="-1" Cut="0.0000000000000000e+00" cType="1" res="-1.2508281506597996e-02" rms="3.8815328478813171e-01" purity="2.7660688757896423e-01" nType="-99"/>
        <Node pos="r" depth="1" NCoef="0" IVar="4" Cut="7.7440914062500000e+04" cType="1" res="2.2310977801680565e-02" rms="4.2004987597465515e-01" purity="5.4999756813049316e-01" nType="0">
          <Node pos="l" depth="2" NCoef="0" IVar="4" Cut="5.7688308593750000e+04" cType="1" res="0.0000000000000000e+00" rms="0.0000000000000000e+00" purity="5.2252978086471558e-01" nType="0">
            <Node pos="l" depth="3" NCoef="0" IVar="1" Cut="1.0453580617904663e+00" cType="1" res="0.0000000000000000e+00" rms="0.0000000000000000e+00" purity="4.6061465144157410e-01" nType="0">
              <Node pos="l" depth="4" NCoef="0" IVar="-1" Cut="0.0000000000000000e+00" cType="1" res="1.3490491255652159e-05" rms="4.1088223457336426e-01" purity="4.3889945745468140e-01" nType="-99"/>
              <Node pos="r" depth="4" NCoef="0" IVar="-1" Cut="0.0000000000000000e+00" cType="1" res="8.6128283292055130e-03" rms="4.2939186096191406e-01" purity="4.9555119872093201e-01" nType="-99"/>
            </Node>
            <Node pos="r" depth="3" NCoef="0" IVar="8" Cut="3.0030035972595215e+00" cType="1" res="5.9213642030954361e-02" rms="4.2281362414360046e-01" purity="6.0741817951202393e-01" nType="0">
              <Node pos="l" depth="4" NCoef="0" IVar="-1" Cut="0.0000000000000000e+00" cType="1" res="1.0224117897450924e-02" rms="4.5526158809661865e-01" purity="5.4827463626861572e-01" nType="-99"/>
              <Node pos="r" depth="4" NCoef="0" IVar="-1" Cut="0.0000000000000000e+00" cType="1" res="2.0892186090350151e-02" rms="3.8230949640274048e-01" purity="6.7366230487823486e-01" nType="-99"/>
            </Node>
          </Node>
          <Node pos="r" depth="2" NCoef="0" IVar="5" Cut="2.0176928710937500e+02" cType="1" res="3.7562812212854624e-03" rms="4.1747635602951050e-01" purity="6.1405181884765625e-01" nType="0">
            <Node pos="l" depth="3" NCoef="0" IVar="-1" Cut="0.0000000000000000e+00" cType="1" res="6.5119406208395958e-03" rms="4.0706661343574524e-01" purity="7.0482832193374634e-01" nType="-99"/>
            <Node pos="r" depth="3" NCoef="0" IVar="-1" Cut="0.0000000000000000e+00" cType="1" res="-5.7003675028681755e-03" rms="4.2697709798812866e-01" purity="5.2019882202148438e-01" nType="-99"/>
          </Node>
        </Node>
      </Node>
    </BinaryTree>
    <BinaryTree type="DecisionTree" boostWeight="1.0000000000000000e+00" itree="140">
      <Node pos="s" depth="0" NCoef="0" IVar="2" Cut="2.2243821620941162e+00" cType="1" res="-9.3882750661578029e-05" rms="4.2152488231658936e-01" purity="4.9617025256156921e-01" nType="0">
        <Node pos="l" depth="1" NCoef="0" IVar="2" Cut="7.0277237892150879e-01" cType="1" res="9.5447776839137077e-03" rms="4.0775424242019653e-01" purity="4.6984609961509705e-01" nType="0">
          <Node pos="l" depth="2" NCoef="0" IVar="-1" Cut="0.0000000000000000e+00" cType="1" res="-1.3911551795899868e-02" rms="3.2258194684982300e-01" purity="2.1492458879947662e-01" nType="-99"/>
          <Node pos="r" depth="2" NCoef="0" IVar="3" Cut="1.0458546093750000e+05" cType="1" res="1.7802156507968903e-02" rms="4.2363625764846802e-01" purity="5.2551728487014771e-01" nType="0">
            <Node pos="l" depth="3" NCoef="0" IVar="3" Cut="6.7589960937500000e+04" cType="1" res="0.0000000000000000e+00" rms="0.0000000000000000e+00" purity="4.8927733302116394e-01" nType="0">
              <Node pos="l" depth="4" NCoef="0" IVar="-1" Cut="0.0000000000000000e+00" cType="1" res="3.0810558237135410e-03" rms="4.1430905461311340e-01" purity="3.7130254507064819e-01" nType="-99"/>
              <Node pos="r" depth="4" NCoef="0" IVar="-1" Cut="0.0000000000000000e+00" cType="1" res="1.0457968339323997e-02" rms="4.2772579193115234e-01" purity="5.8493036031723022e-01" nType="-99"/>
            </Node>
            <Node pos="r" depth="3" NCoef="0" IVar="-1" Cut="0.0000000000000000e+00" cType="1" res="-1.3997739879414439e-03" rms="4.2616108059883118e-01" purity="6.0576987266540527e-01" nType="-99"/>
          </Node>
        </Node>
        <Node pos="r" depth="1" NCoef="0" IVar="4" Cut="6.7685453125000000e+04" cType="1" res="-1.4650357887148857e-02" rms="4.4110915064811707e-01" purity="5.3592544794082642e-01" nType="0">
          <Node pos="l" depth="2" NCoef="0" IVar="8" Cut="2.9954521656036377e+00" cType="1" res="4.2724902741611004e-03" rms="4.4016695022583008e-01" purity="5.2049595117568970e-01" nType="0">
            <Node pos="l" depth="3" NCoef="0" IVar="-1" Cut="0.0000000000000000e+00" cType="1" res="8.4716277197003365e-03" rms="4.4154295325279236e-01" purity="5.2592861652374268e-01" nType="-99"/>
            <Node pos="r" depth="3" NCoef="0" IVar="-1" Cut="0.0000000000000000e+00" cType="1" res="-5.5358479730784893e-03" rms="4.3764603137969971e-01" purity="5.1518100500106812e-01" nType="-99"/>
          </Node>
          <Node pos="r" depth="2" NCoef="0" IVar="-1" Cut="0.0000000000000000e+00" cType="1" res="-1.3153054751455784e-02" rms="4.4068363308906555e-01" purity="5.6488877534866333e-01" nType="-99"/>
        </Node>
      </Node>
    </BinaryTree>
    <BinaryTree type="DecisionTree" boostWeight="1.0000000000000000e+00" itree="141">
      <Node pos="s" depth="0" NCoef="0" IVar="8" Cut="2.7447652816772461e+00" cType="1" res="-3.4854770638048649e-04" rms="4.1844686865806580e-01" purity="4.9951928853988647e-01" nType="0">
        <Node pos="l" depth="1" NCoef="0" IVar="-1" Cut="0.0000000000000000e+00" cType="1" res="-9.5484592020511627e-03" rms="4.5621958374977112e-01" purity="4.4622659683227539e-01" nType="-99"/>
        <Node pos="r" depth="1" NCoef="0" IVar="7" Cut="3.7617788696289062e+02" cType="1" res="3.4936878364533186e-03" rms="4.1365498304367065e-01" purity="5.0572270154953003e-01" nType="0">
          <Node pos="l" depth="2" NCoef="0" IVar="4" Cut="4.3859597656250000e+04" cType="1" res="-1.1726487427949905e-03" rms="4.1771256923675537e-01" purity="4.6880567073822021e-01" nType="0">
            <Node pos="l" depth="3" NCoef="0" IVar="8" Cut="3.0282952785491943e+00" cType="1" res="0.0000000000000000e+00" rms="0.0000000000000000e+00" purity="3.1124636530876160e-01" nType="0">
              <Node pos="l" depth="4" NCoef="0" IVar="-1" Cut="0.0000000000000000e+00" cType="1" res="-4.8720552586019039e-03" rms="3.8853549957275391e-01" purity="3.0926498770713806e-01" nType="-99"/>
              <Node pos="r" depth="4" NCoef="0" IVar="-1" Cut="0.0000000000000000e+00" cType="1" res="-1.4293316751718521e-02" rms="3.9228135347366333e-01" purity="3.1354570388793945e-01" nType="-99"/>
            </Node>
            <Node pos="r" depth="3" NCoef="0" IVar="3" Cut="1.1188625000000000e+05" cType="1" res="7.8841969370841980e-03" rms="4.2895248532295227e-01" purity="5.3864961862564087e-01" nType="0">
              <Node pos="l" depth="4" NCoef="0" IVar="-1" Cut="0.0000000000000000e+00" cType="1" res="5.5921571329236031e-03" rms="4.2436456680297852e-01" purity="5.5166429281234741e-01" nType="-99"/>
              <Node pos="r" depth="4" NCoef="0" IVar="-1" Cut="0.0000000000000000e+00" cType="1" res="-8.6664939299225807e-03" rms="4.3903452157974243e-01" purity="5.0296574831008911e-01" nType="-99"/>
            </Node>
          </Node>
          <Node pos="r" depth="2" NCoef="0" IVar="-1" Cut="0.0000000000000000e+00" cType="1" res="1.0690285824239254e-02" rms="3.8680624961853027e-01" purity="7.3062276840209961e-01" nType="-99"/>
        </Node>
      </Node>
    </BinaryTree>
    <BinaryTree type="DecisionTree" boostWeight="1.0000000000000000e+00" itree="142">
      <Node pos="s" depth="0" NCoef="0" IVar="4" Cut="9.7340890625000000e+04" cType="1" res="-4.6394838136620820e-04" rms="4.1872733831405640e-01" purity="5.0013607740402222e-01" nType="0">
        <Node pos="l" depth="1" NCoef="0" IVar="2" Cut="3.0008332729339600e+00" cType="1" res="0.0000000000000000e+00" rms="0.0000000000000000e+00" purity="4.7491458058357239e-01" nType="0">
          <Node pos="l" depth="2" NCoef="0" IVar="2" Cut="1.2002894878387451e+00" cType="1" res="-1.3028039829805493e-03" rms="4.1280442476272583e-01" purity="4.7715333104133606e-01" nType="0">
            <Node pos="l" depth="3" NCoef="0" IVar="2" Cut="7.7809637784957886e-01" cType="1" res="2.0159956067800522e-02" rms="3.7082961201667786e-01" purity="3.0718970298767090e-01" nType="0">
              <Node pos="l" depth="4" NCoef="0" IVar="-1" Cut="0.0000000000000000e+00" cType="1" res="5.3039676276966929e-04" rms="3.3538967370986938e-01" purity="2.0757699012756348e-01" nType="-99"/>
              <Node pos="r" depth="4" NCoef="0" IVar="-1" Cut="0.0000000000000000e+00" cType="1" res="1.4919363893568516e-02" rms="4.0018457174301147e-01" purity="3.9982646703720093e-01" nType="-99"/>
            </Node>
            <Node pos="r" depth="3" NCoef="0" IVar="3" Cut="8.1111039062500000e+04" cType="1" res="-1.1443688534200191e-02" rms="4.3084624409675598e-01" purity="5.5745905637741089e-01" nType="0">
              <Node pos="l" depth="4" NCoef="0" IVar="-1" Cut="0.0000000000000000e+00" cType="1" res="7.8563706483691931e-04" rms="4.2829516530036926e-01" purity="5.2381402254104614e-01" nType="-99"/>
              <Node pos="r" depth="4" NCoef="0" IVar="-1" Cut="0.0000000000000000e+00" cType="1" res="-6.9459690712392330e-03" rms="4.3334275484085083e-01" purity="5.9861129522323608e-01" nType="-99"/>
            </Node>
          </Node>
          <Node pos="r" depth="2" NCoef="0" IVar="-1" Cut="0.0000000000000000e+00" cType="1" res="-1.1220328509807587e-02" rms="4.3968737125396729e-01" purity="4.6108952164649963e-01" nType="-99"/>
        </Node>
        <Node pos="r" depth="1" NCoef="0" IVar="-1" Cut="0.0000000000000000e+00" cType="1" res="1.0373873636126518e-02" rms="4.2839428782463074e-01" purity="6.6681963205337524e-01" nType="-99"/>
      </Node>
    </BinaryTree>
    <BinaryTree type="DecisionTree" boostWeight="1.0000000000000000e+00" itree="143">
      <Node pos="s" depth="0" NCoef="0" IVar="8" Cut="2.7518911361694336e+00" cType="1" res="-3.9542857557535172e-03" rms="4.1685628890991211e-01" purity="4.9272441864013672e-01" nType="0">
        <Node pos="l" depth="1" NCoef="0" IVar="-1" Cut="0.0000000000000000e+00" cType="1" res="-1.0328372009098530e-02" rms="4.5189526677131653e-01" purity="4.2693936824798584e-01" nType="-99"/>
        <Node pos="r" depth="1" NCoef="0" IVar="5" Cut="2.1388946533203125e+02" cType="1" res="5.7701188779901713e-05" rms="4.1190057992935181e-01" purity="5.0129860639572144e-01" nType="0">
          <Node pos="l" depth="2" NCoef="0" IVar="5" Cut="1.8022175598144531e+02" cType="1" res="7.2058686055243015e-03" rms="4.0791755914688110e-01" purity="5.2849304676055908e-01" nType="0">
            <Node pos="l" depth="3" NCoef="0" IVar="5" Cut="1.6413545227050781e+02" cType="1" res="1.8678082153201103e-02" rms="4.0269109606742859e-01" purity="5.6120717525482178e-01" nType="0">
              <Node pos="l" depth="4" NCoef="0" IVar="-1" Cut="0.0000000000000000e+00" cType="1" res="-7.6040923886466771e-05" rms="4.0041926503181458e-01" purity="5.2462661266326904e-01" nType="-99"/>
              <Node pos="r" depth="4" NCoef="0" IVar="-1" Cut="0.0000000000000000e+00" cType="1" res="1.3735665008425713e-02" rms="4.0424340963363647e-01" purity="6.0531151294708252e-01" nType="-99"/>
            </Node>
            <Node pos="r" depth="3" NCoef="0" IVar="-1" Cut="0.0000000000000000e+00" cType="1" res="-5.6881140917539597e-03" rms="4.1770511865615845e-01" purity="4.5941799879074097e-01" nType="-99"/>
          </Node>
          <Node pos="r" depth="2" NCoef="0" IVar="6" Cut="6.8131268024444580e-01" cType="1" res="-1.5066678635776043e-02" rms="4.1980257630348206e-01" purity="4.4375964999198914e-01" nType="0">
            <Node pos="l" depth="3" NCoef="0" IVar="-1" Cut="0.0000000000000000e+00" cType="1" res="-9.7488416358828545e-03" rms="4.3027949333190918e-01" purity="4.0156772732734680e-01" nType="-99"/>
            <Node pos="r" depth="3" NCoef="0" IVar="-1" Cut="0.0000000000000000e+00" cType="1" res="3.2167914323508739e-03" rms="4.0056544542312622e-01" purity="5.1404815912246704e-01" nType="-99"/>
          </Node>
        </Node>
      </Node>
    </BinaryTree>
    <BinaryTree type="DecisionTree" boostWeight="1.0000000000000000e+00" itree="144">
      <Node pos="s" depth="0" NCoef="0" IVar="3" Cut="1.0740435156250000e+05" cType="1" res="0.0000000000000000e+00" rms="0.0000000000000000e+00" purity="4.9810740351676941e-01" nType="0">
        <Node pos="l" depth="1" NCoef="0" IVar="6" Cut="5.9799921512603760e-01" cType="1" res="-9.8215918987989426e-03" rms="4.0951287746429443e-01" purity="4.5760205388069153e-01" nType="0">
          <Node pos="l" depth="2" NCoef="0" IVar="-1" Cut="0.0000000000000000e+00" cType="1" res="-1.2494596652686596e-02" rms="4.2295649647712708e-01" purity="3.7324744462966919e-01" nType="-99"/>
          <Node pos="r" depth="2" NCoef="0" IVar="8" Cut="3.0195424556732178e+00" cType="1" res="4.8912159400060773e-04" rms="4.0431937575340271e-01" purity="4.8630368709564209e-01" nType="0">
            <Node pos="l" depth="3" NCoef="0" IVar="0" Cut="1.8024921875000000e+05" cType="1" res="-1.3052375987172127e-02" rms="4.1582447290420532e-01" purity="4.4686180353164673e-01" nType="0">
              <Node pos="l" depth="4" NCoef="0" IVar="-1" Cut="0.0000000000000000e+00" cType="1" res="7.8309290111064911e-03" rms="4.5292595028877258e-01" purity="6.0403174161911011e-01" nType="-99"/>
              <Node pos="r" depth="4" NCoef="0" IVar="-1" Cut="0.0000000000000000e+00" cType="1" res="-1.7417702823877335e-02" rms="3.7968397140502930e-01" purity="3.1915619969367981e-01" nType="-99"/>
            </Node>
            <Node pos="r" depth="3" NCoef="0" IVar="1" Cut="1.0458332300186157e+00" cType="1" res="1.3987821526825428e-02" rms="3.9204990863800049e-01" purity="5.2562093734741211e-01" nType="0">
              <Node pos="l" depth="4" NCoef="0" IVar="-1" Cut="0.0000000000000000e+00" cType="1" res="8.3688404411077499e-03" rms="3.8419264554977417e-01" purity="5.2267748117446899e-01" nType="-99"/>
              <Node pos="r" depth="4" NCoef="0" IVar="-1" Cut="0.0000000000000000e+00" cType="1" res="-2.3950652685016394e-03" rms="4.0311929583549500e-01" purity="5.3021162748336792e-01" nType="-99"/>
            </Node>
          </Node>
        </Node>
        <Node pos="r" depth="1" NCoef="0" IVar="8" Cut="2.9628438949584961e+00" cType="1" res="2.1961206570267677e-02" rms="4.3105775117874146e-01" purity="5.9556108713150024e-01" nType="0">
          <Node pos="l" depth="2" NCoef="0" IVar="-1" Cut="0.0000000000000000e+00" cType="1" res="1.5126317739486694e-02" rms="4.4435486197471619e-01" purity="6.1114734411239624e-01" nType="-99"/>
          <Node pos="r" depth="2" NCoef="0" IVar="-1" Cut="0.0000000000000000e+00" cType="1" res="-1.7915719654411077e-03" rms="4.1809943318367004e-01" purity="5.8307027816772461e-01" nType="-99"/>
        </Node>
      </Node>
    </BinaryTree>
    <BinaryTree type="DecisionTree" boostWeight="1.0000000000000000e+00" itree="145">
      <Node pos="s" depth="0" NCoef="0" IVar="7" Cut="3.7617788696289062e+02" cType="1" res="2.1492433734238148e-03" rms="4.1661971807479858e-01" purity="4.9857619404792786e-01" nType="0">
        <Node pos="l" depth="1" NCoef="0" IVar="2" Cut="9.0348893404006958e-01" cType="1" res="6.6621374571695924e-04" rms="4.1963085532188416e-01" purity="4.6320265531539917e-01" nType="0">
          <Node pos="l" depth="2" NCoef="0" IVar="-1" Cut="0.0000000000000000e+00" cType="1" res="1.1268639005720615e-02" rms="3.5477542877197266e-01" purity="2.3552016913890839e-01" nType="-99"/>
          <Node pos="r" depth="2" NCoef="0" IVar="4" Cut="3.9765449218750000e+04" cType="1" res="-4.5606913045048714e-03" rms="4.3195220828056335e-01" purity="5.1147693395614624e-01" nType="0">
            <Node pos="l" depth="3" NCoef="0" IVar="-1" Cut="0.0000000000000000e+00" cType="1" res="8.5878390818834305e-03" rms="4.3489134311676025e-01" purity="3.9820551872253418e-01" nType="-99"/>
            <Node pos="r" depth="3" NCoef="0" IVar="8" Cut="3.0672593116760254e+00" cType="1" res="0.0000000000000000e+00" rms="0.0000000000000000e+00" purity="5.4493087530136108e-01" nType="0">
              <Node pos="l" depth="4" NCoef="0" IVar="-1" Cut="0.0000000000000000e+00" cType="1" res="-7.2740665636956692e-03" rms="4.4020584225654602e-01" purity="5.2086108922958374e-01" nType="-99"/>
              <Node pos="r" depth="4" NCoef="0" IVar="-1" Cut="0.0000000000000000e+00" cType="1" res="3.3309075515717268e-03" rms="4.0711319446563721e-01" purity="5.9883862733840942e-01" nType="-99"/>
            </Node>
          </Node>
        </Node>
        <Node pos="r" depth="1" NCoef="0" IVar="-1" Cut="0.0000000000000000e+00" cType="1" res="2.9284104239195585e-03" rms="4.0219157934188843e-01" purity="6.6371840238571167e-01" nType="-99"/>
      </Node>
    </BinaryTree>
    <BinaryTree type="DecisionTree" boostWeight="1.0000000000000000e+00" itree="146">
      <Node pos="s" depth="0" NCoef="0" IVar="8" Cut="3.0952856540679932e+00" cType="1" res="-1.3446173397824168e-03" rms="4.1969957947731018e-01" purity="4.9423402547836304e-01" nType="0">
        <Node pos="l" depth="1" NCoef="0" IVar="8" Cut="3.0070326328277588e+00" cType="1" res="3.4583872184157372e-03" rms="4.2139396071434021e-01" purity="4.9265968799591064e-01" nType="0">
          <Node pos="l" depth="2" NCoef="0" IVar="9" Cut="3.0000000000000000e+00" cType="1" res="-8.4148738533258438e-03" rms="4.3001782894134521e-01" purity="4.5726269483566284e-01" nType="0">
            <Node pos="l" depth="3" NCoef="0" IVar="8" Cut="2.8873505592346191e+00" cType="1" res="1.0471512563526630e-02" rms="4.2957198619842529e-01" purity="4.0405961871147156e-01" nType="0">
              <Node pos="l" depth="4" NCoef="0" IVar="-1" Cut="0.0000000000000000e+00" cType="1" res="1.2659204192459583e-02" rms="4.4652295112609863e-01" purity="4.2905184626579285e-01" nType="-99"/>
              <Node pos="r" depth="4" NCoef="0" IVar="-1" Cut="0.0000000000000000e+00" cType="1" res="-4.3108263052999973e-03" rms="4.1322988271713257e-01" purity="3.8305118680000305e-01" nType="-99"/>
            </Node>
            <Node pos="r" depth="3" NCoef="0" IVar="1" Cut="1.4797613024711609e-01" cType="1" res="-2.3178994655609131e-02" rms="4.2982080578804016e-01" purity="4.9872389435768127e-01" nType="0">
              <Node pos="l" depth="4" NCoef="0" IVar="-1" Cut="0.0000000000000000e+00" cType="1" res="-1.2714375741779804e-02" rms="4.1579169034957886e-01" purity="4.7137230634689331e-01" nType="-99"/>
              <Node pos="r" depth="4" NCoef="0" IVar="-1" Cut="0.0000000000000000e+00" cType="1" res="5.8323051780462265e-04" rms="4.4274246692657471e-01" purity="5.2755850553512573e-01" nType="-99"/>
            </Node>
          </Node>
          <Node pos="r" depth="2" NCoef="0" IVar="7" Cut="1.9485820007324219e+02" cType="1" res="2.3996312171220779e-02" rms="4.0522396564483643e-01" purity="5.5375516414642334e-01" nType="0">
            <Node pos="l" depth="3" NCoef="0" IVar="-1" Cut="0.0000000000000000e+00" cType="1" res="1.4339745044708252e-02" rms="4.0747675299644470e-01" purity="4.0125676989555359e-01" nType="-99"/>
            <Node pos="r" depth="3" NCoef="0" IVar="-1" Cut="0.0000000000000000e+00" cType="1" res="1.2832768261432648e-03" rms="4.0219637751579285e-01" purity="6.8578433990478516e-01" nType="-99"/>
          </Node>
        </Node>
        <Node pos="r" depth="1" NCoef="0" IVar="-1" Cut="0.0000000000000000e+00" cType="1" res="-4.2654681019484997e-03" rms="4.1131410002708435e-01" purity="5.0130391120910645e-01" nType="-99"/>
      </Node>
    </BinaryTree>
    <BinaryTree type="DecisionTree" boostWeight="1.0000000000000000e+00" itree="147">
      <Node pos="s" depth="0" NCoef="0" IVar="5" Cut="2.0064982604980469e+02" cType="1" res="-2.6955621433444321e-04" rms="4.1567465662956238e-01" purity="4.9660751223564148e-01" nType="0">
        <Node pos="l" depth="1" NCoef="0" IVar="7" Cut="2.5638034057617188e+02" cType="1" res="-1.0698116384446621e-02" rms="4.1312330961227417e-01" purity="5.1792716979980469e-01" nType="0">
          <Node pos="l" depth="2" NCoef="0" IVar="9" Cut="3.0000000000000000e+00" cType="1" res="-2.5159496814012527e-02" rms="4.0905401110649109e-01" purity="3.9746329188346863e-01" nType="0">
            <Node pos="l" depth="3" NCoef="0" IVar="-1" Cut="0.0000000000000000e+00" cType="1" res="-1.5693159773945808e-02" rms="4.0574839711189270e-01" purity="3.4328478574752808e-01" nType="-99"/>
            <Node pos="r" depth="3" NCoef="0" IVar="-1" Cut="0.0000000000000000e+00" cType="1" res="3.8385219522751868e-04" rms="4.1233888268470764e-01" purity="4.6828287839889526e-01" nType="-99"/>
          </Node>
          <Node pos="r" depth="2" NCoef="0" IVar="1" Cut="-4.4859018921852112e-01" cType="1" res="7.2533353231847286e-03" rms="4.1718986630439758e-01" purity="6.6804975271224976e-01" nType="0">
            <Node pos="l" depth="3" NCoef="0" IVar="-1" Cut="0.0000000000000000e+00" cType="1" res="1.1281267739832401e-02" rms="4.0492087602615356e-01" purity="7.0301586389541626e-01" nType="-99"/>
            <Node pos="r" depth="3" NCoef="0" IVar="-1" Cut="0.0000000000000000e+00" cType="1" res="-6.3579613342881203e-03" rms="4.2578598856925964e-01" purity="6.3716363906860352e-01" nType="-99"/>
          </Node>
        </Node>
        <Node pos="r" depth="1" NCoef="0" IVar="2" Cut="1.6626005172729492e+00" cType="1" res="0.0000000000000000e+00" rms="0.0000000000000000e+00" purity="4.6383842825889587e-01" nType="0">
          <Node pos="l" depth="2" NCoef="0" IVar="-1" Cut="0.0000000000000000e+00" cType="1" res="-4.2055039666593075e-03" rms="3.8538256287574768e-01" purity="3.6131578683853149e-01" nType="-99"/>
          <Node pos="r" depth="2" NCoef="0" IVar="6" Cut="6.2224251031875610e-01" cType="1" res="3.4537103027105331e-02" rms="4.4078940153121948e-01" purity="5.3772872686386108e-01" nType="0">
            <Node pos="l" depth="3" NCoef="0" IVar="-1" Cut="0.0000000000000000e+00" cType="1" res="8.3191245794296265e-03" rms="4.4444528222084045e-01" purity="4.5291879773139954e-01" nType="-99"/>
            <Node pos="r" depth="3" NCoef="0" IVar="-1" Cut="0.0000000000000000e+00" cType="1" res="6.2936176545917988e-03" rms="4.3763807415962219e-01" purity="6.0978835821151733e-01" nType="-99"/>
          </Node>
        </Node>
      </Node>
    </BinaryTree>
    <BinaryTree type="DecisionTree" boostWeight="1.0000000000000000e+00" itree="148">
      <Node pos="s" depth="0" NCoef="0" IVar="5" Cut="2.6574328613281250e+02" cType="1" res="0.0000000000000000e+00" rms="0.0000000000000000e+00" purity="5.0495481491088867e-01" nType="0">
        <Node pos="l" depth="1" NCoef="0" IVar="1" Cut="-7.4874693155288696e-01" cType="1" res="0.0000000000000000e+00" rms="0.0000000000000000e+00" purity="5.1877462863922119e-01" nType="0">
          <Node pos="l" depth="2" NCoef="0" IVar="8" Cut="3.0528419017791748e+00" cType="1" res="0.0000000000000000e+00" rms="0.0000000000000000e+00" purity="5.3434455394744873e-01" nType="0">
            <Node pos="l" depth="3" NCoef="0" IVar="1" Cut="-2.2287797927856445e+00" cType="1" res="1.3330069370567799e-02" rms="4.2007970809936523e-01" purity="5.3348791599273682e-01" nType="0">
              <Node pos="l" depth="4" NCoef="0" IVar="-1" Cut="0.0000000000000000e+00" cType="1" res="1.0964571498334408e-02" rms="4.1569760441780090e-01" purity="5.7543188333511353e-01" nType="-99"/>
              <Node pos="r" depth="4" NCoef="0" IVar="-1" Cut="0.0000000000000000e+00" cType="1" res="-5.7126698084175587e-03" rms="4.2344808578491211e-01" purity="4.8226329684257507e-01" nType="-99"/>
            </Node>
            <Node pos="r" depth="3" NCoef="0" IVar="-1" Cut="0.0000000000000000e+00" cType="1" res="-5.4380851797759533e-03" rms="4.1776594519615173e-01" purity="5.3608453273773193e-01" nType="-99"/>
          </Node>
          <Node pos="r" depth="2" NCoef="0" IVar="6" Cut="7.3914182186126709e-01" cType="1" res="2.5097051635384560e-02" rms="4.1392087936401367e-01" purity="5.0804334878921509e-01" nType="0">
            <Node pos="l" depth="3" NCoef="0" IVar="6" Cut="5.4544496536254883e-01" cType="1" res="1.7810964956879616e-02" rms="4.2094928026199341e-01" purity="5.3332060575485229e-01" nType="0">
              <Node pos="l" depth="4" NCoef="0" IVar="-1" Cut="0.0000000000000000e+00" cType="1" res="1.1383636854588985e-02" rms="4.4060218334197998e-01" purity="4.6955558657646179e-01" nType="-99"/>
              <Node pos="r" depth="4" NCoef="0" IVar="-1" Cut="0.0000000000000000e+00" cType="1" res="2.6820094790309668e-03" rms="4.1129601001739502e-01" purity="5.6234025955200195e-01" nType="-99"/>
            </Node>
            <Node pos="r" depth="3" NCoef="0" IVar="-1" Cut="0.0000000000000000e+00" cType="1" res="1.5533402562141418e-02" rms="3.9305034279823303e-01" purity="4.3788790702819824e-01" nType="-99"/>
          </Node>
        </Node>
        <Node pos="r" depth="1" NCoef="0" IVar="-1" Cut="0.0000000000000000e+00" cType="1" res="-6.0654180124402046e-03" rms="4.1425672173500061e-01" purity="4.3275150656700134e-01" nType="-99"/>
      </Node>
    </BinaryTree>
    <BinaryTree type="DecisionTree" boostWeight="1.0000000000000000e+00" itree="149">
      <Node pos="s" depth="0" NCoef="0" IVar="3" Cut="7.7547804687500000e+04" cType="1" res="6.2487684190273285e-03" rms="4.1789680719375610e-01" purity="5.0621092319488525e-01" nType="0">
        <Node pos="l" depth="1" NCoef="0" IVar="4" Cut="4.2586207031250000e+04" cType="1" res="2.5212509557604790e-02" rms="4.1007494926452637e-01" purity="4.3944072723388672e-01" nType="0">
          <Node pos="l" depth="2" NCoef="0" IVar="-1" Cut="0.0000000000000000e+00" cType="1" res="3.0007543973624706e-03" rms="3.9371713995933533e-01" purity="3.3490398526191711e-01" nType="-99"/>
          <Node pos="r" depth="2" NCoef="0" IVar="0" Cut="2.0115862500000000e+05" cType="1" res="3.9944902062416077e-02" rms="4.2220070958137512e-01" purity="5.2354818582534790e-01" nType="0">
            <Node pos="l" depth="3" NCoef="0" IVar="-1" Cut="0.0000000000000000e+00" cType="1" res="7.1566291153430939e-03" rms="4.4448691606521606e-01" purity="6.2549889087677002e-01" nType="-99"/>
            <Node pos="r" depth="3" NCoef="0" IVar="-1" Cut="0.0000000000000000e+00" cType="1" res="2.3047640919685364e-02" rms="3.8874930143356323e-01" purity="3.8210123777389526e-01" nType="-99"/>
          </Node>
        </Node>
        <Node pos="r" depth="1" NCoef="0" IVar="2" Cut="2.3677310943603516e+00" cType="1" res="-8.7675172835588455e-03" rms="4.2338594794273376e-01" purity="5.5908238887786865e-01" nType="0">
          <Node pos="l" depth="2" NCoef="0" IVar="2" Cut="1.0553606748580933e+00" cType="1" res="-2.6907084509730339e-02" rms="4.2205762863159180e-01" purity="5.2560973167419434e-01" nType="0">
            <Node pos="l" depth="3" NCoef="0" IVar="-1" Cut="0.0000000000000000e+00" cType="1" res="2.2178045473992825e-03" rms="4.0524417161941528e-01" purity="3.9957082271575928e-01" nType="-99"/>
            <Node pos="r" depth="3" NCoef="0" IVar="1" Cut="-1.4999236166477203e-01" cType="1" res="-4.3928992003202438e-02" rms="4.2939090728759766e-01" purity="5.8995491266250610e-01" nType="0">
              <Node pos="l" depth="4" NCoef="0" IVar="-1" Cut="0.0000000000000000e+00" cType="1" res="-1.0748561471700668e-02" rms="4.3048423528671265e-01" purity="5.5193889141082764e-01" nType="-99"/>
              <Node pos="r" depth="4" NCoef="0" IVar="-1" Cut="0.0000000000000000e+00" cType="1" res="-6.2435632571578026e-03" rms="4.2679691314697266e-01" purity="6.2464582920074463e-01" nType="-99"/>
            </Node>
          </Node>
          <Node pos="r" depth="2" NCoef="0" IVar="-1" Cut="0.0000000000000000e+00" cType="1" res="5.6276810355484486e-03" rms="4.2382562160491943e-01" purity="6.1850839853286743e-01" nType="-99"/>
        </Node>
      </Node>
    </BinaryTree>
    <BinaryTree type="DecisionTree" boostWeight="1.0000000000000000e+00" itree="150">
      <Node pos="s" depth="0" NCoef="0" IVar="7" Cut="2.5113624572753906e+02" cType="1" res="7.2356648743152618e-03" rms="4.1829583048820496e-01" purity="5.0499147176742554e-01" nType="0">
        <Node pos="l" depth="1" NCoef="0" IVar="0" Cut="3.2703437500000000e+05" cType="1" res="2.2097075358033180e-02" rms="4.2042607069015503e-01" purity="4.2073333263397217e-01" nType="0">
          <Node pos="l" depth="2" NCoef="0" IVar="0" Cut="1.4967396875000000e+05" cType="1" res="3.3022996038198471e-02" rms="4.5025214552879333e-01" purity="5.0203222036361694e-01" nType="0">
            <Node pos="l" depth="3" NCoef="0" IVar="-1" Cut="0.0000000000000000e+00" cType="1" res="-3.0627239029854536e-03" rms="4.7144418954849243e-01" purity="5.2309721708297729e-01" nType="-99"/>
            <Node pos="r" depth="3" NCoef="0" IVar="2" Cut="1.6555323600769043e+00" cType="1" res="4.8347733914852142e-02" rms="4.4197985529899597e-01" purity="4.9509471654891968e-01" nType="0">
              <Node pos="l" depth="4" NCoef="0" IVar="-1" Cut="0.0000000000000000e+00" cType="1" res="6.9580655544996262e-03" rms="4.1509807109832764e-01" purity="3.4204733371734619e-01" nType="-99"/>
              <Node pos="r" depth="4" NCoef="0" IVar="-1" Cut="0.0000000000000000e+00" cType="1" res="1.6386946663260460e-02" rms="4.5657914876937866e-01" purity="5.8790618181228638e-01" nType="-99"/>
            </Node>
          </Node>
          <Node pos="r" depth="2" NCoef="0" IVar="-1" Cut="0.0000000000000000e+00" cType="1" res="-1.6031367704272270e-02" rms="2.5162938237190247e-01" purity="7.3985442519187927e-02" nType="-99"/>
        </Node>
        <Node pos="r" depth="1" NCoef="0" IVar="5" Cut="2.3723602294921875e+02" cType="1" res="-9.9249389022588730e-03" rms="4.1516119241714478e-01" purity="6.0228508710861206e-01" nType="0">
          <Node pos="l" depth="2" NCoef="0" IVar="4" Cut="6.5677070312500000e+04" cType="1" res="8.4247719496488571e-04" rms="4.0921130776405334e-01" purity="6.3773155212402344e-01" nType="0">
            <Node pos="l" depth="3" NCoef="0" IVar="-1" Cut="0.0000000000000000e+00" cType="1" res="6.9855465553700924e-03" rms="4.1264718770980835e-01" purity="5.9964245557785034e-01" nType="-99"/>
            <Node pos="r" depth="3" NCoef="0" IVar="-1" Cut="0.0000000000000000e+00" cType="1" res="-6.0522649437189102e-03" rms="4.0434068441390991e-01" purity="6.7826575040817261e-01" nType="-99"/>
          </Node>
          <Node pos="r" depth="2" NCoef="0" IVar="-1" Cut="0.0000000000000000e+00" cType="1" res="-1.4668510295450687e-02" rms="4.3080827593803406e-01" purity="4.9669468402862549e-01" nType="-99"/>
        </Node>
      </Node>
    </BinaryTree>
    <BinaryTree type="DecisionTree" boostWeight="1.0000000000000000e+00" itree="151">
      <Node pos="s" depth="0" NCoef="0" IVar="1" Cut="-1.9447990655899048e+00" cType="1" res="8.9428378269076347e-03" rms="4.1942498087882996e-01" purity="5.0945192575454712e-01" nType="0">
        <Node pos="l" depth="1" NCoef="0" IVar="8" Cut="2.9956085681915283e+00" cType="1" res="2.4982437491416931e-02" rms="4.1504892706871033e-01" purity="5.5946749448776245e-01" nType="0">
          <Node pos="l" depth="2" NCoef="0" IVar="-1" Cut="0.0000000000000000e+00" cType="1" res="1.0135126300156116e-02" rms="4.3055555224418640e-01" purity="5.5192416906356812e-01" nType="-99"/>
          <Node pos="r" depth="2" NCoef="0" IVar="-1" Cut="0.0000000000000000e+00" cType="1" res="3.5954392515122890e-03" rms="3.9875659346580505e-01" purity="5.6684893369674683e-01" nType="-99"/>
        </Node>
        <Node pos="r" depth="1" NCoef="0" IVar="3" Cut="8.0558617187500000e+04" cType="1" res="2.8921626508235931e-03" rms="4.2090520262718201e-01" purity="4.9058437347412109e-01" nType="0">
          <Node pos="l" depth="2" NCoef="0" IVar="4" Cut="5.1111664062500000e+04" cType="1" res="-8.7972488254308701e-03" rms="4.1486781835556030e-01" purity="4.0994727611541748e-01" nType="0">
            <Node pos="l" depth="3" NCoef="0" IVar="9" Cut="3.0000000000000000e+00" cType="1" res="9.0847834944725037e-03" rms="3.9870700240135193e-01" purity="3.8095676898956299e-01" nType="0">
              <Node pos="l" depth="4" NCoef="0" IVar="-1" Cut="0.0000000000000000e+00" cType="1" res="8.5958736017346382e-03" rms="4.0139332413673401e-01" purity="3.2975846529006958e-01" nType="-99"/>
              <Node pos="r" depth="4" NCoef="0" IVar="-1" Cut="0.0000000000000000e+00" cType="1" res="-2.8830030933022499e-03" rms="3.9986473321914673e-01" purity="4.4878625869750977e-01" nType="-99"/>
            </Node>
            <Node pos="r" depth="3" NCoef="0" IVar="-1" Cut="0.0000000000000000e+00" cType="1" res="-1.2765948660671711e-02" rms="4.3933722376823425e-01" purity="4.6881228685379028e-01" nType="-99"/>
          </Node>
          <Node pos="r" depth="2" NCoef="0" IVar="3" Cut="1.0512676562500000e+05" cType="1" res="1.3939051888883114e-02" rms="4.2623767256736755e-01" purity="5.6678915023803711e-01" nType="0">
            <Node pos="l" depth="3" NCoef="0" IVar="-1" Cut="0.0000000000000000e+00" cType="1" res="9.0456381440162659e-03" rms="4.0529197454452515e-01" purity="5.6867963075637817e-01" nType="-99"/>
            <Node pos="r" depth="3" NCoef="0" IVar="7" Cut="3.1080154418945312e+02" cType="1" res="3.4531222190707922e-03" rms="4.4047084450721741e-01" purity="5.6542181968688965e-01" nType="0">
              <Node pos="l" depth="4" NCoef="0" IVar="-1" Cut="0.0000000000000000e+00" cType="1" res="9.9855000153183937e-03" rms="4.4870749115943909e-01" purity="5.0344967842102051e-01" nType="-99"/>
              <Node pos="r" depth="4" NCoef="0" IVar="-1" Cut="0.0000000000000000e+00" cType="1" res="-6.2835384160280228e-03" rms="4.3141040205955505e-01" purity="6.2271088361740112e-01" nType="-99"/>
            </Node>
          </Node>
        </Node>
      </Node>
    </BinaryTree>
    <BinaryTree type="DecisionTree" boostWeight="1.0000000000000000e+00" itree="152">
      <Node pos="s" depth="0" NCoef="0" IVar="1" Cut="-2.2435963153839111e+00" cType="1" res="9.8203658126294613e-04" rms="4.1511684656143188e-01" purity="4.9479836225509644e-01" nType="0">
        <Node pos="l" depth="1" NCoef="0" IVar="7" Cut="2.3167112731933594e+02" cType="1" res="-1.4143263921141624e-02" rms="4.0835112333297729e-01" purity="5.1069653034210205e-01" nType="0">
          <Node pos="l" depth="2" NCoef="0" IVar="-1" Cut="0.0000000000000000e+00" cType="1" res="-6.3204430043697357e-03" rms="4.0761226415634155e-01" purity="3.8276740908622742e-01" nType="-99"/>
          <Node pos="r" depth="2" NCoef="0" IVar="-1" Cut="0.0000000000000000e+00" cType="1" res="5.5844616144895554e-03" rms="4.0696716308593750e-01" purity="6.5048658847808838e-01" nType="-99"/>
        </Node>
        <Node pos="r" depth="1" NCoef="0" IVar="8" Cut="3.0423681735992432e+00" cType="1" res="5.3699114359915257e-03" rms="4.1695639491081238e-01" purity="4.9018627405166626e-01" nType="0">
          <Node pos="l" depth="2" NCoef="0" IVar="8" Cut="2.9525108337402344e+00" cType="1" res="1.4608631841838360e-02" rms="4.2763930559158325e-01" purity="4.8582521080970764e-01" nType="0">
            <Node pos="l" depth="3" NCoef="0" IVar="9" Cut="3.0000000000000000e+00" cType="1" res="4.7162547707557678e-03" rms="4.3823641538619995e-01" purity="4.6029508113861084e-01" nType="0">
              <Node pos="l" depth="4" NCoef="0" IVar="-1" Cut="0.0000000000000000e+00" cType="1" res="9.1140260919928551e-03" rms="4.3477565050125122e-01" purity="4.2226573824882507e-01" nType="-99"/>
              <Node pos="r" depth="4" NCoef="0" IVar="-1" Cut="0.0000000000000000e+00" cType="1" res="-5.1575666293501854e-03" rms="4.3996205925941467e-01" purity="4.9129724502563477e-01" nType="-99"/>
            </Node>
            <Node pos="r" depth="3" NCoef="0" IVar="-1" Cut="0.0000000000000000e+00" cType="1" res="8.6456257849931717e-03" rms="4.1063573956489563e-01" purity="5.2444857358932495e-01" nType="-99"/>
          </Node>
          <Node pos="r" depth="2" NCoef="0" IVar="1" Cut="6.6327571868896484e-02" cType="1" res="-1.0350619442760944e-02" rms="3.9762702584266663e-01" purity="4.9760708212852478e-01" nType="0">
            <Node pos="l" depth="3" NCoef="0" IVar="-1" Cut="0.0000000000000000e+00" cType="1" res="8.4283864125609398e-03" rms="4.0114167332649231e-01" purity="5.1538074016571045e-01" nType="-99"/>
            <Node pos="r" depth="3" NCoef="0" IVar="-1" Cut="0.0000000000000000e+00" cType="1" res="-1.0320641100406647e-02" rms="3.9398676156997681e-01" purity="4.8629292845726013e-01" nType="-99"/>
          </Node>
        </Node>
      </Node>
    </BinaryTree>
    <BinaryTree type="DecisionTree" boostWeight="1.0000000000000000e+00" itree="153">
      <Node pos="s" depth="0" NCoef="0" IVar="5" Cut="2.0506149291992188e+02" cType="1" res="4.9323593266308308e-03" rms="4.1409736871719360e-01" purity="5.0645649433135986e-01" nType="0">
        <Node pos="l" depth="1" NCoef="0" IVar="5" Cut="1.7830364990234375e+02" cType="1" res="-3.8626657333225012e-03" rms="4.0510454773902893e-01" purity="5.2869927883148193e-01" nType="0">
          <Node pos="l" depth="2" NCoef="0" IVar="5" Cut="1.5792112731933594e+02" cType="1" res="1.0187286883592606e-02" rms="4.0543815493583679e-01" purity="5.6160366535186768e-01" nType="0">
            <Node pos="l" depth="3" NCoef="0" IVar="-1" Cut="0.0000000000000000e+00" cType="1" res="-5.4636579006910324e-03" rms="4.0533331036567688e-01" purity="5.0535613298416138e-01" nType="-99"/>
            <Node pos="r" depth="3" NCoef="0" IVar="5" Cut="1.6665925598144531e+02" cType="1" res="2.8779977932572365e-02" rms="4.0446624159812927e-01" purity="6.0047376155853271e-01" nType="0">
              <Node pos="l" depth="4" NCoef="0" IVar="-1" Cut="0.0000000000000000e+00" cType="1" res="1.3198577798902988e-02" rms="3.9677774906158447e-01" purity="6.2791401147842407e-01" nType="-99"/>
              <Node pos="r" depth="4" NCoef="0" IVar="-1" Cut="0.0000000000000000e+00" cType="1" res="4.3662767857313156e-03" rms="4.0911230444908142e-01" purity="5.8100849390029907e-01" nType="-99"/>
            </Node>
          </Node>
          <Node pos="r" depth="2" NCoef="0" IVar="-1" Cut="0.0000000000000000e+00" cType="1" res="-1.0649527423083782e-02" rms="4.0255290269851685e-01" purity="4.5444720983505249e-01" nType="-99"/>
        </Node>
        <Node pos="r" depth="1" NCoef="0" IVar="8" Cut="2.8984806537628174e+00" cType="1" res="2.0973037928342819e-02" rms="4.2955127358436584e-01" purity="4.6588930487632751e-01" nType="0">
          <Node pos="l" depth="2" NCoef="0" IVar="-1" Cut="0.0000000000000000e+00" cType="1" res="-3.3946000039577484e-03" rms="4.4756770133972168e-01" purity="3.9710658788681030e-01" nType="-99"/>
          <Node pos="r" depth="2" NCoef="0" IVar="8" Cut="3.0258791446685791e+00" cType="1" res="3.3320348709821701e-02" rms="4.2139878869056702e-01" purity="4.9378523230552673e-01" nType="0">
            <Node pos="l" depth="3" NCoef="0" IVar="-1" Cut="0.0000000000000000e+00" cType="1" res="1.4853255823254585e-02" rms="4.4043543934822083e-01" purity="4.8441824316978455e-01" nType="-99"/>
            <Node pos="r" depth="3" NCoef="0" IVar="-1" Cut="0.0000000000000000e+00" cType="1" res="5.0705936737358570e-03" rms="4.0618133544921875e-01" purity="5.0084799528121948e-01" nType="-99"/>
          </Node>
        </Node>
      </Node>
    </BinaryTree>
    <BinaryTree type="DecisionTree" boostWeight="1.0000000000000000e+00" itree="154">
      <Node pos="s" depth="0" NCoef="0" IVar="5" Cut="3.0950549316406250e+02" cType="1" res="3.9073261432349682e-03" rms="4.1396409273147583e-01" purity="5.0780194997787476e-01" nType="0">
        <Node pos="l" depth="1" NCoef="0" IVar="4" Cut="9.4478921875000000e+04" cType="1" res="9.0032238513231277e-03" rms="4.1290807723999023e-01" purity="5.1798552274703979e-01" nType="0">
          <Node pos="l" depth="2" NCoef="0" IVar="7" Cut="1.7859603881835938e+02" cType="1" res="4.6083629131317139e-03" rms="4.1281479597091675e-01" purity="4.9048337340354919e-01" nType="0">
            <Node pos="l" depth="3" NCoef="0" IVar="1" Cut="7.4594968557357788e-01" cType="1" res="0.0000000000000000e+00" rms="0.0000000000000000e+00" purity="3.0574870109558105e-01" nType="0">
              <Node pos="l" depth="4" NCoef="0" IVar="-1" Cut="0.0000000000000000e+00" cType="1" res="-6.3200355507433414e-03" rms="3.8172078132629395e-01" purity="2.7731853723526001e-01" nType="-99"/>
              <Node pos="r" depth="4" NCoef="0" IVar="-1" Cut="0.0000000000000000e+00" cType="1" res="2.1480005234479904e-03" rms="4.0761631727218628e-01" purity="3.4744000434875488e-01" nType="-99"/>
            </Node>
            <Node pos="r" depth="3" NCoef="0" IVar="4" Cut="4.1702894531250000e+04" cType="1" res="1.4811142347753048e-02" rms="4.2231759428977966e-01" purity="5.8495396375656128e-01" nType="0">
              <Node pos="l" depth="4" NCoef="0" IVar="-1" Cut="0.0000000000000000e+00" cType="1" res="1.9422020763158798e-02" rms="4.2514574527740479e-01" purity="4.9496215581893921e-01" nType="-99"/>
              <Node pos="r" depth="4" NCoef="0" IVar="-1" Cut="0.0000000000000000e+00" cType="1" res="1.4460083330050111e-03" rms="4.2091545462608337e-01" purity="6.1071503162384033e-01" nType="-99"/>
            </Node>
          </Node>
          <Node pos="r" depth="2" NCoef="0" IVar="-1" Cut="0.0000000000000000e+00" cType="1" res="1.3199831359088421e-02" rms="4.1229891777038574e-01" purity="7.0527076721191406e-01" nType="-99"/>
        </Node>
        <Node pos="r" depth="1" NCoef="0" IVar="-1" Cut="0.0000000000000000e+00" cType="1" res="-1.4851870946586132e-02" rms="4.2031928896903992e-01" purity="4.2182007431983948e-01" nType="-99"/>
      </Node>
    </BinaryTree>
    <BinaryTree type="DecisionTree" boostWeight="1.0000000000000000e+00" itree="155">
      <Node pos="s" depth="0" NCoef="0" IVar="5" Cut="1.4895149230957031e+02" cType="1" res="-7.6494351960718632e-03" rms="4.1257295012474060e-01" purity="4.9380043148994446e-01" nType="0">
        <Node pos="l" depth="1" NCoef="0" IVar="-1" Cut="0.0000000000000000e+00" cType="1" res="-1.5345339663326740e-02" rms="4.2300009727478027e-01" purity="4.3503239750862122e-01" nType="-99"/>
        <Node pos="r" depth="1" NCoef="0" IVar="2" Cut="2.9916846752166748e+00" cType="1" res="-2.0773774012923241e-03" rms="4.1089889407157898e-01" purity="5.0123357772827148e-01" nType="0">
          <Node pos="l" depth="2" NCoef="0" IVar="5" Cut="2.0253767395019531e+02" cType="1" res="3.5522629041224718e-03" rms="4.0455338358879089e-01" purity="5.0597888231277466e-01" nType="0">
            <Node pos="l" depth="3" NCoef="0" IVar="4" Cut="5.5880406250000000e+04" cType="1" res="1.7272479832172394e-02" rms="3.9474222064018250e-01" purity="5.5652046203613281e-01" nType="0">
              <Node pos="l" depth="4" NCoef="0" IVar="-1" Cut="0.0000000000000000e+00" cType="1" res="9.9162687547504902e-04" rms="3.9065319299697876e-01" purity="4.2566269636154175e-01" nType="-99"/>
              <Node pos="r" depth="4" NCoef="0" IVar="-1" Cut="0.0000000000000000e+00" cType="1" res="9.3152681365609169e-03" rms="3.9824837446212769e-01" purity="6.8650716543197632e-01" nType="-99"/>
            </Node>
            <Node pos="r" depth="3" NCoef="0" IVar="1" Cut="-1.0477043390274048e+00" cType="1" res="0.0000000000000000e+00" rms="0.0000000000000000e+00" purity="4.3229299783706665e-01" nType="0">
              <Node pos="l" depth="4" NCoef="0" IVar="-1" Cut="0.0000000000000000e+00" cType="1" res="1.5684672689530998e-05" rms="4.1634297370910645e-01" purity="4.7188171744346619e-01" nType="-99"/>
              <Node pos="r" depth="4" NCoef="0" IVar="-1" Cut="0.0000000000000000e+00" cType="1" res="-9.6899317577481270e-03" rms="4.1815221309661865e-01" purity="4.0474894642829895e-01" nType="-99"/>
            </Node>
          </Node>
          <Node pos="r" depth="2" NCoef="0" IVar="-1" Cut="0.0000000000000000e+00" cType="1" res="-1.0121997445821762e-02" rms="4.4626474380493164e-01" purity="4.7216436266899109e-01" nType="-99"/>
        </Node>
      </Node>
    </BinaryTree>
    <BinaryTree type="DecisionTree" boostWeight="1.0000000000000000e+00" itree="156">
      <Node pos="s" depth="0" NCoef="0" IVar="6" Cut="5.9756863117218018e-01" cType="1" res="-4.1314815171062946e-03" rms="4.1740390658378601e-01" purity="4.9632897973060608e-01" nType="0">
        <Node pos="l" depth="1" NCoef="0" IVar="6" Cut="5.2237010002136230e-01" cType="1" res="0.0000000000000000e+00" rms="0.0000000000000000e+00" purity="4.3162816762924194e-01" nType="0">
          <Node pos="l" depth="2" NCoef="0" IVar="-1" Cut="0.0000000000000000e+00" cType="1" res="5.3613947238773108e-04" rms="4.4291386008262634e-01" purity="3.9405244588851929e-01" nType="-99"/>
          <Node pos="r" depth="2" NCoef="0" IVar="-1" Cut="0.0000000000000000e+00" cType="1" res="-1.2077500112354755e-02" rms="4.3581858277320862e-01" purity="4.6885484457015991e-01" nType="-99"/>
        </Node>
        <Node pos="r" depth="1" NCoef="0" IVar="7" Cut="2.3394155883789062e+02" cType="1" res="0.0000000000000000e+00" rms="0.0000000000000000e+00" purity="5.3196108341217041e-01" nType="0">
          <Node pos="l" depth="2" NCoef="0" IVar="7" Cut="1.8026075744628906e+02" cType="1" res="-7.2698998264968395e-03" rms="4.1280242800712585e-01" purity="3.8501217961311340e-01" nType="0">
            <Node pos="l" depth="3" NCoef="0" IVar="6" Cut="7.2925406694412231e-01" cType="1" res="4.3029235675930977e-03" rms="4.0390551090240479e-01" purity="3.3793634176254272e-01" nType="0">
              <Node pos="l" depth="4" NCoef="0" IVar="-1" Cut="0.0000000000000000e+00" cType="1" res="1.0538534261286259e-02" rms="4.3123245239257812e-01" purity="4.0920993685722351e-01" nType="-99"/>
              <Node pos="r" depth="4" NCoef="0" IVar="-1" Cut="0.0000000000000000e+00" cType="1" res="-4.2782542295753956e-03" rms="3.7971836328506470e-01" purity="2.8200557827949524e-01" nType="-99"/>
            </Node>
            <Node pos="r" depth="3" NCoef="0" IVar="-1" Cut="0.0000000000000000e+00" cType="1" res="-1.0645166970789433e-02" rms="4.2930778861045837e-01" purity="4.8038163781166077e-01" nType="-99"/>
          </Node>
          <Node pos="r" depth="2" NCoef="0" IVar="7" Cut="3.2521484375000000e+02" cType="1" res="1.8657565116882324e-02" rms="3.9261147379875183e-01" purity="7.1959316730499268e-01" nType="0">
            <Node pos="l" depth="3" NCoef="0" IVar="-1" Cut="0.0000000000000000e+00" cType="1" res="-9.9693308584392071e-05" rms="4.2008757591247559e-01" purity="6.4288300275802612e-01" nType="-99"/>
            <Node pos="r" depth="3" NCoef="0" IVar="-1" Cut="0.0000000000000000e+00" cType="1" res="1.5977634117007256e-02" rms="3.5477605462074280e-01" purity="8.1337600946426392e-01" nType="-99"/>
          </Node>
        </Node>
      </Node>
    </BinaryTree>
    <BinaryTree type="DecisionTree" boostWeight="1.0000000000000000e+00" itree="157">
      <Node pos="s" depth="0" NCoef="0" IVar="1" Cut="1.4954446256160736e-01" cType="1" res="-4.8314551822841167e-03" rms="4.1377773880958557e-01" purity="4.9781233072280884e-01" nType="0">
        <Node pos="l" depth="1" NCoef="0" IVar="2" Cut="2.7840621471405029e+00" cType="1" res="0.0000000000000000e+00" rms="0.0000000000000000e+00" purity="4.8405888676643372e-01" nType="0">
          <Node pos="l" depth="2" NCoef="0" IVar="1" Cut="-2.2012641429901123e+00" cType="1" res="-2.9583338648080826e-02" rms="4.0027830004692078e-01" purity="4.6585890650749207e-01" nType="0">
            <Node pos="l" depth="3" NCoef="0" IVar="-1" Cut="0.0000000000000000e+00" cType="1" res="-1.7934747738763690e-03" rms="4.0430131554603577e-01" purity="5.2956527471542358e-01" nType="-99"/>
            <Node pos="r" depth="3" NCoef="0" IVar="8" Cut="3.0056610107421875e+00" cType="1" res="-4.7669440507888794e-02" rms="3.9621454477310181e-01" purity="4.1698390245437622e-01" nType="0">
              <Node pos="l" depth="4" NCoef="0" IVar="-1" Cut="0.0000000000000000e+00" cType="1" res="-2.4427898228168488e-02" rms="4.0507939457893372e-01" purity="3.3246853947639465e-01" nType="-99"/>
              <Node pos="r" depth="4" NCoef="0" IVar="-1" Cut="0.0000000000000000e+00" cType="1" res="-7.3723508976399899e-03" rms="3.8519734144210815e-01" purity="5.0163561105728149e-01" nType="-99"/>
            </Node>
          </Node>
          <Node pos="r" depth="2" NCoef="0" IVar="-1" Cut="0.0000000000000000e+00" cType="1" res="2.4296455085277557e-03" rms="4.2746517062187195e-01" purity="5.5171239376068115e-01" nType="-99"/>
        </Node>
        <Node pos="r" depth="1" NCoef="0" IVar="6" Cut="7.1057760715484619e-01" cType="1" res="1.2634857557713985e-02" rms="4.2061954736709595e-01" purity="5.1233714818954468e-01" nType="0">
          <Node pos="l" depth="2" NCoef="0" IVar="1" Cut="2.2873873710632324e+00" cType="1" res="2.7196317911148071e-02" rms="4.3335047364234924e-01" purity="5.3681766986846924e-01" nType="0">
            <Node pos="l" depth="3" NCoef="0" IVar="-1" Cut="0.0000000000000000e+00" cType="1" res="1.3897225260734558e-02" rms="4.3945610523223877e-01" purity="5.4848289489746094e-01" nType="-99"/>
            <Node pos="r" depth="3" NCoef="0" IVar="-1" Cut="0.0000000000000000e+00" cType="1" res="1.7870807787403464e-03" rms="4.2526569962501526e-01" purity="5.2358025312423706e-01" nType="-99"/>
          </Node>
          <Node pos="r" depth="2" NCoef="0" IVar="-1" Cut="0.0000000000000000e+00" cType="1" res="-6.7557026632130146e-03" rms="3.8963609933853149e-01" purity="4.5910418033599854e-01" nType="-99"/>
        </Node>
      </Node>
    </BinaryTree>
    <BinaryTree type="DecisionTree" boostWeight="1.0000000000000000e+00" itree="158">
      <Node pos="s" depth="0" NCoef="0" IVar="5" Cut="2.7146667480468750e+02" cType="1" res="-4.3928329832851887e-03" rms="4.1628411412239075e-01" purity="4.9359175562858582e-01" nType="0">
        <Node pos="l" depth="1" NCoef="0" IVar="2" Cut="2.8269579410552979e+00" cType="1" res="-1.0901069268584251e-02" rms="4.1305288672447205e-01" purity="4.9479112029075623e-01" nType="0">
          <Node pos="l" depth="2" NCoef="0" IVar="6" Cut="5.4154002666473389e-01" cType="1" res="-1.7881330102682114e-02" rms="4.1060337424278259e-01" purity="4.7637063264846802e-01" nType="0">
            <Node pos="l" depth="3" NCoef="0" IVar="-1" Cut="0.0000000000000000e+00" cType="1" res="-1.0190723463892937e-02" rms="4.3155574798583984e-01" purity="3.7719357013702393e-01" nType="-99"/>
            <Node pos="r" depth="3" NCoef="0" IVar="5" Cut="2.1187503051757812e+02" cType="1" res="-1.0893763974308968e-02" rms="4.0466651320457458e-01" purity="5.0224912166595459e-01" nType="0">
              <Node pos="l" depth="4" NCoef="0" IVar="-1" Cut="0.0000000000000000e+00" cType="1" res="-5.8293314650654793e-03" rms="3.9950373768806458e-01" purity="5.0605612993240356e-01" nType="-99"/>
              <Node pos="r" depth="4" NCoef="0" IVar="-1" Cut="0.0000000000000000e+00" cType="1" res="6.1252997256815434e-03" rms="4.2347967624664307e-01" purity="4.8669701814651489e-01" nType="-99"/>
            </Node>
          </Node>
          <Node pos="r" depth="2" NCoef="0" IVar="-1" Cut="0.0000000000000000e+00" cType="1" res="4.5069078914821148e-03" rms="4.2167019844055176e-01" purity="5.6961071491241455e-01" nType="-99"/>
        </Node>
        <Node pos="r" depth="1" NCoef="0" IVar="-1" Cut="0.0000000000000000e+00" cType="1" res="6.9466833956539631e-03" rms="4.3059986829757690e-01" purity="4.8759761452674866e-01" nType="-99"/>
      </Node>
    </BinaryTree>
    <BinaryTree type="DecisionTree" boostWeight="1.0000000000000000e+00" itree="159">
      <Node pos="s" depth="0" NCoef="0" IVar="1" Cut="-2.2440209388732910e+00" cType="1" res="9.5626758411526680e-03" rms="4.1696515679359436e-01" purity="5.1222312450408936e-01" nType="0">
        <Node pos="l" depth="1" NCoef="0" IVar="6" Cut="6.3705646991729736e-01" cType="1" res="0.0000000000000000e+00" rms="0.0000000000000000e+00" purity="5.2497583627700806e-01" nType="0">
          <Node pos="l" depth="2" NCoef="0" IVar="-1" Cut="0.0000000000000000e+00" cType="1" res="-8.1085665151476860e-03" rms="4.4164195656776428e-01" purity="4.5896443724632263e-01" nType="-99"/>
          <Node pos="r" depth="2" NCoef="0" IVar="-1" Cut="0.0000000000000000e+00" cType="1" res="2.2636305075138807e-03" rms="3.8240268826484680e-01" purity="5.9271705150604248e-01" nType="-99"/>
        </Node>
        <Node pos="r" depth="1" NCoef="0" IVar="5" Cut="2.5728079223632812e+02" cType="1" res="1.6642576083540916e-02" rms="4.1756901144981384e-01" purity="5.0847274065017700e-01" nType="0">
          <Node pos="l" depth="2" NCoef="0" IVar="6" Cut="6.2620371580123901e-01" cType="1" res="7.2238431312143803e-03" rms="4.1243487596511841e-01" purity="5.0930827856063843e-01" nType="0">
            <Node pos="l" depth="3" NCoef="0" IVar="7" Cut="2.8399481201171875e+02" cType="1" res="2.7665367349982262e-02" rms="4.3913370370864868e-01" purity="5.4217016696929932e-01" nType="0">
              <Node pos="l" depth="4" NCoef="0" IVar="-1" Cut="0.0000000000000000e+00" cType="1" res="1.6793761402368546e-02" rms="4.3547710776329041e-01" purity="4.8623907566070557e-01" nType="-99"/>
              <Node pos="r" depth="4" NCoef="0" IVar="-1" Cut="0.0000000000000000e+00" cType="1" res="5.9494125889614224e-04" rms="4.4082528352737427e-01" purity="5.9252113103866577e-01" nType="-99"/>
            </Node>
            <Node pos="r" depth="3" NCoef="0" IVar="5" Cut="1.7658357238769531e+02" cType="1" res="-8.2761095836758614e-03" rms="3.9026370644569397e-01" purity="4.8439046740531921e-01" nType="0">
              <Node pos="l" depth="4" NCoef="0" IVar="-1" Cut="0.0000000000000000e+00" cType="1" res="3.4170586150139570e-03" rms="3.8852435350418091e-01" purity="5.4514002799987793e-01" nType="-99"/>
              <Node pos="r" depth="4" NCoef="0" IVar="-1" Cut="0.0000000000000000e+00" cType="1" res="-9.7450790926814079e-03" rms="3.9124116301536560e-01" purity="4.1384083032608032e-01" nType="-99"/>
            </Node>
          </Node>
          <Node pos="r" depth="2" NCoef="0" IVar="-1" Cut="0.0000000000000000e+00" cType="1" res="1.5052600763738155e-02" rms="4.3613034486770630e-01" purity="5.0499123334884644e-01" nType="-99"/>
        </Node>
      </Node>
    </BinaryTree>
    <BinaryTree type="DecisionTree" boostWeight="1.0000000000000000e+00" itree="160">
      <Node pos="s" depth="0" NCoef="0" IVar="3" Cut="1.2468199218750000e+05" cType="1" res="8.4495227783918381e-03" rms="4.1138365864753723e-01" purity="5.1565223932266235e-01" nType="0">
        <Node pos="l" depth="1" NCoef="0" IVar="2" Cut="1.4325969219207764e+00" cType="1" res="2.8862026520073414e-03" rms="4.1037672758102417e-01" purity="4.9256861209869385e-01" nType="0">
          <Node pos="l" depth="2" NCoef="0" IVar="8" Cut="3.0015857219696045e+00" cType="1" res="-1.4839440584182739e-02" rms="3.7647753953933716e-01" purity="3.2624796032905579e-01" nType="0">
            <Node pos="l" depth="3" NCoef="0" IVar="-1" Cut="0.0000000000000000e+00" cType="1" res="-1.7273836419917643e-04" rms="3.9942896366119385e-01" purity="3.1552371382713318e-01" nType="-99"/>
            <Node pos="r" depth="3" NCoef="0" IVar="-1" Cut="0.0000000000000000e+00" cType="1" res="-1.5029797330498695e-02" rms="3.4818372130393982e-01" purity="3.3829817175865173e-01" nType="-99"/>
          </Node>
          <Node pos="r" depth="2" NCoef="0" IVar="7" Cut="1.9082989501953125e+02" cType="1" res="0.0000000000000000e+00" rms="0.0000000000000000e+00" purity="5.7939344644546509e-01" nType="0">
            <Node pos="l" depth="3" NCoef="0" IVar="-1" Cut="0.0000000000000000e+00" cType="1" res="1.0400048457086086e-02" rms="4.4057399034500122e-01" purity="4.6319314837455750e-01" nType="-99"/>
            <Node pos="r" depth="3" NCoef="0" IVar="3" Cut="6.5042222656250000e+04" cType="1" res="-9.4802357489243150e-04" rms="4.1924536228179932e-01" purity="6.3536399602890015e-01" nType="0">
              <Node pos="l" depth="4" NCoef="0" IVar="-1" Cut="0.0000000000000000e+00" cType="1" res="-1.0810154490172863e-02" rms="4.3095570802688599e-01" purity="5.3602141141891479e-01" nType="-99"/>
              <Node pos="r" depth="4" NCoef="0" IVar="-1" Cut="0.0000000000000000e+00" cType="1" res="3.7102387286722660e-03" rms="4.1376852989196777e-01" purity="6.7574226856231689e-01" nType="-99"/>
            </Node>
          </Node>
        </Node>
        <Node pos="r" depth="1" NCoef="0" IVar="-1" Cut="0.0000000000000000e+00" cType="1" res="9.7229257225990295e-03" rms="4.1451612114906311e-01" purity="6.0366988182067871e-01" nType="-99"/>
      </Node>
    </BinaryTree>
    <BinaryTree type="DecisionTree" boostWeight="1.0000000000000000e+00" itree="161">
      <Node pos="s" depth="0" NCoef="0" IVar="9" Cut="3.0000000000000000e+00" cType="1" res="-1.7548990435898304e-03" rms="4.1555055975914001e-01" purity="5.0167590379714966e-01" nType="0">
        <Node pos="l" depth="1" NCoef="0" IVar="4" Cut="5.9811878906250000e+04" cType="1" res="-1.1689165607094765e-02" rms="4.2122304439544678e-01" purity="4.1447418928146362e-01" nType="0">
          <Node pos="l" depth="2" NCoef="0" IVar="6" Cut="7.6755893230438232e-01" cType="1" res="7.6134875416755676e-03" rms="4.0763789415359497e-01" purity="3.6693307757377625e-01" nType="0">
            <Node pos="l" depth="3" NCoef="0" IVar="-1" Cut="0.0000000000000000e+00" cType="1" res="-3.2491683959960938e-03" rms="4.1838771104812622e-01" purity="3.6647924780845642e-01" nType="-99"/>
            <Node pos="r" depth="3" NCoef="0" IVar="-1" Cut="0.0000000000000000e+00" cType="1" res="1.0040178894996643e-02" rms="3.9117121696472168e-01" purity="3.6755153536796570e-01" nType="-99"/>
          </Node>
          <Node pos="r" depth="2" NCoef="0" IVar="-1" Cut="0.0000000000000000e+00" cType="1" res="-6.9602336734533310e-03" rms="4.3894669413566589e-01" purity="4.8458173871040344e-01" nType="-99"/>
        </Node>
        <Node pos="r" depth="1" NCoef="0" IVar="3" Cut="8.5438718750000000e+04" cType="1" res="7.4579222127795219e-03" rms="4.1068011522293091e-01" purity="5.7862645387649536e-01" nType="0">
          <Node pos="l" depth="2" NCoef="0" IVar="7" Cut="2.7270925903320312e+02" cType="1" res="2.3040747269988060e-02" rms="3.9970883727073669e-01" purity="5.3453469276428223e-01" nType="0">
            <Node pos="l" depth="3" NCoef="0" IVar="-1" Cut="0.0000000000000000e+00" cType="1" res="4.2342194356024265e-03" rms="3.9256590604782104e-01" purity="4.4340890645980835e-01" nType="-99"/>
            <Node pos="r" depth="3" NCoef="0" IVar="-1" Cut="0.0000000000000000e+00" cType="1" res="1.1558836326003075e-02" rms="4.0801489353179932e-01" purity="6.4880979061126709e-01" nType="-99"/>
          </Node>
          <Node pos="r" depth="2" NCoef="0" IVar="7" Cut="3.3622467041015625e+02" cType="1" res="-6.5157897770404816e-03" rms="4.1978335380554199e-01" purity="6.1816513538360596e-01" nType="0">
            <Node pos="l" depth="3" NCoef="0" IVar="-1" Cut="0.0000000000000000e+00" cType="1" res="-9.7651425749063492e-03" rms="4.5072090625762939e-01" purity="5.2376365661621094e-01" nType="-99"/>
            <Node pos="r" depth="3" NCoef="0" IVar="-1" Cut="0.0000000000000000e+00" cType="1" res="4.8562423326075077e-03" rms="3.8955554366111755e-01" purity="6.9981646537780762e-01" nType="-99"/>
          </Node>
        </Node>
      </Node>
    </BinaryTree>
    <BinaryTree type="DecisionTree" boostWeight="1.0000000000000000e+00" itree="162">
      <Node pos="s" depth="0" NCoef="0" IVar="7" Cut="1.3863896179199219e+02" cType="1" res="-4.3105990625917912e-03" rms="4.1712203621864319e-01" purity="4.9591726064682007e-01" nType="0">
        <Node pos="l" depth="1" NCoef="0" IVar="-1" Cut="0.0000000000000000e+00" cType="1" res="-1.2544644996523857e-02" rms="3.8008180260658264e-01" purity="2.4911861121654510e-01" nType="-99"/>
        <Node pos="r" depth="1" NCoef="0" IVar="7" Cut="1.9820463562011719e+02" cType="1" res="0.0000000000000000e+00" rms="0.0000000000000000e+00" purity="5.4553198814392090e-01" nType="0">
          <Node pos="l" depth="2" NCoef="0" IVar="-1" Cut="0.0000000000000000e+00" cType="1" res="9.1199660673737526e-03" rms="4.2508432269096375e-01" purity="4.3005600571632385e-01" nType="-99"/>
          <Node pos="r" depth="2" NCoef="0" IVar="3" Cut="1.3028357812500000e+05" cType="1" res="-5.9565901756286621e-03" rms="4.2315065860748291e-01" purity="5.8008593320846558e-01" nType="0">
            <Node pos="l" depth="3" NCoef="0" IVar="8" Cut="2.8670146465301514e+00" cType="1" res="-1.1768124997615814e-02" rms="4.2142355442047119e-01" purity="5.6322276592254639e-01" nType="0">
              <Node pos="l" depth="4" NCoef="0" IVar="-1" Cut="0.0000000000000000e+00" cType="1" res="-1.1565304361283779e-02" rms="4.3959179520606995e-01" purity="4.1155907511711121e-01" nType="-99"/>
              <Node pos="r" depth="4" NCoef="0" IVar="-1" Cut="0.0000000000000000e+00" cType="1" res="5.2719557425007224e-04" rms="4.1174516081809998e-01" purity="6.3624298572540283e-01" nType="-99"/>
            </Node>
            <Node pos="r" depth="3" NCoef="0" IVar="-1" Cut="0.0000000000000000e+00" cType="1" res="3.5203946754336357e-03" rms="4.2835378646850586e-01" purity="6.3708639144897461e-01" nType="-99"/>
          </Node>
        </Node>
      </Node>
    </BinaryTree>
    <BinaryTree type="DecisionTree" boostWeight="1.0000000000000000e+00" itree="163">
      <Node pos="s" depth="0" NCoef="0" IVar="6" Cut="5.1327639818191528e-01" cType="1" res="-4.8185545019805431e-03" rms="4.1928935050964355e-01" purity="4.9322092533111572e-01" nType="0">
        <Node pos="l" depth="1" NCoef="0" IVar="-1" Cut="0.0000000000000000e+00" cType="1" res="4.4935834594070911e-03" rms="4.4737324118614197e-01" purity="4.1315934062004089e-01" nType="-99"/>
        <Node pos="r" depth="1" NCoef="0" IVar="8" Cut="2.8902893066406250e+00" cType="1" res="0.0000000000000000e+00" rms="0.0000000000000000e+00" purity="5.0822949409484863e-01" nType="0">
          <Node pos="l" depth="2" NCoef="0" IVar="-1" Cut="0.0000000000000000e+00" cType="1" res="-9.7222505137324333e-03" rms="4.4737419486045837e-01" purity="4.6161833405494690e-01" nType="-99"/>
          <Node pos="r" depth="2" NCoef="0" IVar="7" Cut="3.2241375732421875e+02" cType="1" res="-1.4764267252758145e-03" rms="4.0256732702255249e-01" purity="5.2236312627792358e-01" nType="0">
            <Node pos="l" depth="3" NCoef="0" IVar="5" Cut="2.0746513366699219e+02" cType="1" res="-8.9603625237941742e-03" rms="4.1317135095596313e-01" purity="4.4598695635795593e-01" nType="0">
              <Node pos="l" depth="4" NCoef="0" IVar="-1" Cut="0.0000000000000000e+00" cType="1" res="-5.9369760565459728e-03" rms="4.0488153696060181e-01" purity="4.5452755689620972e-01" nType="-99"/>
              <Node pos="r" depth="4" NCoef="0" IVar="-1" Cut="0.0000000000000000e+00" cType="1" res="3.9683338254690170e-03" rms="4.2862281203269958e-01" purity="4.2860201001167297e-01" nType="-99"/>
            </Node>
            <Node pos="r" depth="3" NCoef="0" IVar="-1" Cut="0.0000000000000000e+00" cType="1" res="1.2032678350806236e-02" rms="3.5740274190902710e-01" purity="8.1620210409164429e-01" nType="-99"/>
          </Node>
        </Node>
      </Node>
    </BinaryTree>
    <BinaryTree type="DecisionTree" boostWeight="1.0000000000000000e+00" itree="164">
      <Node pos="s" depth="0" NCoef="0" IVar="9" Cut="4.0000000000000000e+00" cType="1" res="9.6457073232159019e-04" rms="4.1596743464469910e-01" purity="4.9750682711601257e-01" nType="0">
        <Node pos="l" depth="1" NCoef="0" IVar="1" Cut="1.9447087049484253e+00" cType="1" res="6.1086001805961132e-03" rms="4.1689106822013855e-01" purity="4.7498998045921326e-01" nType="0">
          <Node pos="l" depth="2" NCoef="0" IVar="0" Cut="2.7652531250000000e+05" cType="1" res="1.3480138033628464e-02" rms="4.1119900345802307e-01" purity="4.6056574583053589e-01" nType="0">
            <Node pos="l" depth="3" NCoef="0" IVar="1" Cut="-1.6876988410949707e+00" cType="1" res="2.0407512784004211e-02" rms="4.3660861253738403e-01" purity="5.5303019285202026e-01" nType="0">
              <Node pos="l" depth="4" NCoef="0" IVar="-1" Cut="0.0000000000000000e+00" cType="1" res="7.7531504211947322e-04" rms="4.2820140719413757e-01" purity="5.9600365161895752e-01" nType="-99"/>
              <Node pos="r" depth="4" NCoef="0" IVar="-1" Cut="0.0000000000000000e+00" cType="1" res="1.0446676984429359e-02" rms="4.4372132420539856e-01" purity="5.1295500993728638e-01" nType="-99"/>
            </Node>
            <Node pos="r" depth="3" NCoef="0" IVar="-1" Cut="0.0000000000000000e+00" cType="1" res="-7.4165384285151958e-03" rms="3.0487763881683350e-01" purity="1.3702531158924103e-01" nType="-99"/>
          </Node>
          <Node pos="r" depth="2" NCoef="0" IVar="6" Cut="6.6218084096908569e-01" cType="1" res="-1.2499679811298847e-02" rms="4.3036413192749023e-01" purity="5.1140147447586060e-01" nType="0">
            <Node pos="l" depth="3" NCoef="0" IVar="-1" Cut="0.0000000000000000e+00" cType="1" res="-8.2932775840163231e-03" rms="4.4453158974647522e-01" purity="4.8054510354995728e-01" nType="-99"/>
            <Node pos="r" depth="3" NCoef="0" IVar="-1" Cut="0.0000000000000000e+00" cType="1" res="6.9923017872497439e-04" rms="4.1425046324729919e-01" purity="5.4427164793014526e-01" nType="-99"/>
          </Node>
        </Node>
        <Node pos="r" depth="1" NCoef="0" IVar="-1" Cut="0.0000000000000000e+00" cType="1" res="-5.3929048590362072e-03" rms="4.1175049543380737e-01" purity="5.8498048782348633e-01" nType="-99"/>
      </Node>
    </BinaryTree>
    <BinaryTree type="DecisionTree" boostWeight="1.0000000000000000e+00" itree="165">
      <Node pos="s" depth="0" NCoef="0" IVar="1" Cut="-2.2437763214111328e+00" cType="1" res="3.3455672673881054e-03" rms="4.1499021649360657e-01" purity="5.1188462972640991e-01" nType="0">
        <Node pos="l" depth="1" NCoef="0" IVar="1" Cut="-2.7144231796264648e+00" cType="1" res="2.3994013667106628e-02" rms="4.1585427522659302e-01" purity="5.6737023591995239e-01" nType="0">
          <Node pos="l" depth="2" NCoef="0" IVar="-1" Cut="0.0000000000000000e+00" cType="1" res="5.9783337637782097e-03" rms="4.0472343564033508e-01" purity="5.6734859943389893e-01" nType="-99"/>
          <Node pos="r" depth="2" NCoef="0" IVar="-1" Cut="0.0000000000000000e+00" cType="1" res="5.6174490600824356e-03" rms="4.2722627520561218e-01" purity="5.6739336252212524e-01" nType="-99"/>
        </Node>
        <Node pos="r" depth="1" NCoef="0" IVar="3" Cut="5.0906730468750000e+04" cType="1" res="-2.3748788516968489e-03" rms="4.1456863284111023e-01" purity="4.9651294946670532e-01" nType="0">
          <Node pos="l" depth="2" NCoef="0" IVar="-1" Cut="0.0000000000000000e+00" cType="1" res="1.2807635590434074e-02" rms="3.7837007641792297e-01" purity="3.3423751592636108e-01" nType="-99"/>
          <Node pos="r" depth="2" NCoef="0" IVar="8" Cut="2.9927747249603271e+00" cType="1" res="-7.4653737246990204e-03" rms="4.1981557011604309e-01" purity="5.2233135700225830e-01" nType="0">
            <Node pos="l" depth="3" NCoef="0" IVar="6" Cut="5.3422695398330688e-01" cType="1" res="-2.4074839428067207e-02" rms="4.3824508786201477e-01" purity="4.7028163075447083e-01" nType="0">
              <Node pos="l" depth="4" NCoef="0" IVar="-1" Cut="0.0000000000000000e+00" cType="1" res="1.6265393060166389e-04" rms="4.4757068157196045e-01" purity="4.2416325211524963e-01" nType="-99"/>
              <Node pos="r" depth="4" NCoef="0" IVar="-1" Cut="0.0000000000000000e+00" cType="1" res="-1.1133418418467045e-02" rms="4.3359059095382690e-01" purity="4.9074780941009521e-01" nType="-99"/>
            </Node>
            <Node pos="r" depth="3" NCoef="0" IVar="3" Cut="7.3900742187500000e+04" cType="1" res="8.2533508539199829e-03" rms="4.0096306800842285e-01" purity="5.7158964872360229e-01" nType="0">
              <Node pos="l" depth="4" NCoef="0" IVar="-1" Cut="0.0000000000000000e+00" cType="1" res="-6.9656893610954285e-03" rms="4.2153173685073853e-01" purity="4.6738997101783752e-01" nType="-99"/>
              <Node pos="r" depth="4" NCoef="0" IVar="-1" Cut="0.0000000000000000e+00" cType="1" res="8.6000869050621986e-03" rms="3.8984611630439758e-01" purity="6.2166798114776611e-01" nType="-99"/>
            </Node>
          </Node>
        </Node>
      </Node>
    </BinaryTree>
    <BinaryTree type="DecisionTree" boostWeight="1.0000000000000000e+00" itree="166">
      <Node pos="s" depth="0" NCoef="0" IVar="8" Cut="3.0443398952484131e+00" cType="1" res="0.0000000000000000e+00" rms="0.0000000000000000e+00" purity="4.9723649024963379e-01" nType="0">
        <Node pos="l" depth="1" NCoef="0" IVar="3" Cut="1.1427617187500000e+05" cType="1" res="-3.8800311740487814e-03" rms="4.2131140828132629e-01" purity="4.7763735055923462e-01" nType="0">
          <Node pos="l" depth="2" NCoef="0" IVar="6" Cut="6.5440124273300171e-01" cType="1" res="-1.1749519966542721e-02" rms="4.2008084058761597e-01" purity="4.3886366486549377e-01" nType="0">
            <Node pos="l" depth="3" NCoef="0" IVar="3" Cut="8.4701914062500000e+04" cType="1" res="0.0000000000000000e+00" rms="0.0000000000000000e+00" purity="4.1872623562812805e-01" nType="0">
              <Node pos="l" depth="4" NCoef="0" IVar="-1" Cut="0.0000000000000000e+00" cType="1" res="-6.0558710247278214e-03" rms="4.2577719688415527e-01" purity="3.8309240341186523e-01" nType="-99"/>
              <Node pos="r" depth="4" NCoef="0" IVar="-1" Cut="0.0000000000000000e+00" cType="1" res="-1.0919298045337200e-02" rms="4.5429900288581848e-01" purity="4.6257501840591431e-01" nType="-99"/>
            </Node>
            <Node pos="r" depth="3" NCoef="0" IVar="0" Cut="1.9410434375000000e+05" cType="1" res="6.6144955344498158e-03" rms="4.0023499727249146e-01" purity="4.5827990770339966e-01" nType="0">
              <Node pos="l" depth="4" NCoef="0" IVar="-1" Cut="0.0000000000000000e+00" cType="1" res="9.8111201077699661e-03" rms="4.4359019398689270e-01" purity="6.2279987335205078e-01" nType="-99"/>
              <Node pos="r" depth="4" NCoef="0" IVar="-1" Cut="0.0000000000000000e+00" cType="1" res="-6.8063568323850632e-03" rms="3.5027197003364563e-01" purity="2.9520541429519653e-01" nType="-99"/>
            </Node>
          </Node>
          <Node pos="r" depth="2" NCoef="0" IVar="-1" Cut="0.0000000000000000e+00" cType="1" res="5.3642247803509235e-03" rms="4.2397662997245789e-01" purity="5.8699232339859009e-01" nType="-99"/>
        </Node>
        <Node pos="r" depth="1" NCoef="0" IVar="8" Cut="3.1138329505920410e+00" cType="1" res="1.2890336103737354e-02" rms="4.0466406941413879e-01" purity="5.3273993730545044e-01" nType="0">
          <Node pos="l" depth="2" NCoef="0" IVar="8" Cut="3.0774953365325928e+00" cType="1" res="0.0000000000000000e+00" rms="0.0000000000000000e+00" purity="5.5976557731628418e-01" nType="0">
            <Node pos="l" depth="3" NCoef="0" IVar="-1" Cut="0.0000000000000000e+00" cType="1" res="4.9265790730714798e-03" rms="4.0951293706893921e-01" purity="5.3507322072982788e-01" nType="-99"/>
            <Node pos="r" depth="3" NCoef="0" IVar="-1" Cut="0.0000000000000000e+00" cType="1" res="1.7351565882563591e-02" rms="3.8759371638298035e-01" purity="5.7911688089370728e-01" nType="-99"/>
          </Node>
          <Node pos="r" depth="2" NCoef="0" IVar="-1" Cut="0.0000000000000000e+00" cType="1" res="-8.1617962568998337e-03" rms="4.1573074460029602e-01" purity="4.7014605998992920e-01" nType="-99"/>
        </Node>
      </Node>
    </BinaryTree>
    <BinaryTree type="DecisionTree" boostWeight="1.0000000000000000e+00" itree="167">
      <Node pos="s" depth="0" NCoef="0" IVar="4" Cut="4.2516457031250000e+04" cType="1" res="3.3477435354143381e-03" rms="4.1720446944236755e-01" purity="5.0083446502685547e-01" nType="0">
        <Node pos="l" depth="1" NCoef="0" IVar="4" Cut="3.4279558593750000e+04" cType="1" res="2.1757723763585091e-02" rms="3.9554768800735474e-01" purity="3.6824765801429749e-01" nType="0">
          <Node pos="l" depth="2" NCoef="0" IVar="-1" Cut="0.0000000000000000e+00" cType="1" res="-5.8384840376675129e-03" rms="3.7588238716125488e-01" purity="2.7843078970909119e-01" nType="-99"/>
          <Node pos="r" depth="2" NCoef="0" IVar="-1" Cut="0.0000000000000000e+00" cType="1" res="1.6638915985822678e-02" rms="4.0732991695404053e-01" purity="4.3364688754081726e-01" nType="-99"/>
        </Node>
        <Node pos="r" depth="1" NCoef="0" IVar="2" Cut="1.5825093984603882e+00" cType="1" res="-2.8150395955890417e-03" rms="4.2402866482734680e-01" purity="5.4521822929382324e-01" nType="0">
          <Node pos="l" depth="2" NCoef="0" IVar="7" Cut="3.1080154418945312e+02" cType="1" res="1.7173530533909798e-02" rms="4.1090101003646851e-01" purity="4.6689799427986145e-01" nType="0">
            <Node pos="l" depth="3" NCoef="0" IVar="-1" Cut="0.0000000000000000e+00" cType="1" res="1.2405875138938427e-02" rms="4.1461902856826782e-01" purity="3.9318394660949707e-01" nType="-99"/>
            <Node pos="r" depth="3" NCoef="0" IVar="-1" Cut="0.0000000000000000e+00" cType="1" res="-4.1318614967167377e-03" rms="4.0314397215843201e-01" purity="5.8569675683975220e-01" nType="-99"/>
          </Node>
          <Node pos="r" depth="2" NCoef="0" IVar="8" Cut="3.0492033958435059e+00" cType="1" res="-1.6138318926095963e-02" rms="4.3204429745674133e-01" purity="5.9742218255996704e-01" nType="0">
            <Node pos="l" depth="3" NCoef="0" IVar="1" Cut="4.4881409406661987e-01" cType="1" res="0.0000000000000000e+00" rms="0.0000000000000000e+00" purity="5.9044146537780762e-01" nType="0">
              <Node pos="l" depth="4" NCoef="0" IVar="-1" Cut="0.0000000000000000e+00" cType="1" res="-6.5180216915905476e-03" rms="4.4372284412384033e-01" purity="5.5892419815063477e-01" nType="-99"/>
              <Node pos="r" depth="4" NCoef="0" IVar="-1" Cut="0.0000000000000000e+00" cType="1" res="3.0998541042208672e-03" rms="4.2293715476989746e-01" purity="6.2458151578903198e-01" nType="-99"/>
            </Node>
            <Node pos="r" depth="3" NCoef="0" IVar="-1" Cut="0.0000000000000000e+00" cType="1" res="-1.1873552575707436e-02" rms="4.2682421207427979e-01" purity="6.1162161827087402e-01" nType="-99"/>
          </Node>
        </Node>
      </Node>
    </BinaryTree>
    <BinaryTree type="DecisionTree" boostWeight="1.0000000000000000e+00" itree="168">
      <Node pos="s" depth="0" NCoef="0" IVar="2" Cut="8.0111330747604370e-01" cType="1" res="0.0000000000000000e+00" rms="0.0000000000000000e+00" purity="4.9583074450492859e-01" nType="0">
        <Node pos="l" depth="1" NCoef="0" IVar="-1" Cut="0.0000000000000000e+00" cType="1" res="-1.5134214423596859e-02" rms="3.2733577489852905e-01" purity="1.9904674589633942e-01" nType="-99"/>
        <Node pos="r" depth="1" NCoef="0" IVar="3" Cut="5.8467074218750000e+04" cType="1" res="-1.2858898844569921e-03" rms="4.2357352375984192e-01" purity="5.4675358533859253e-01" nType="0">
          <Node pos="l" depth="2" NCoef="0" IVar="-1" Cut="0.0000000000000000e+00" cType="1" res="5.5121532641351223e-03" rms="4.0313503146171570e-01" purity="4.2663124203681946e-01" nType="-99"/>
          <Node pos="r" depth="2" NCoef="0" IVar="2" Cut="2.8876206874847412e+00" cType="1" res="-6.0523841530084610e-03" rms="4.2849126458168030e-01" purity="5.7733881473541260e-01" nType="0">
            <Node pos="l" depth="3" NCoef="0" IVar="6" Cut="6.2637025117874146e-01" cType="1" res="1.2598499888554215e-03" rms="4.2731839418411255e-01" purity="5.9070843458175659e-01" nType="0">
              <Node pos="l" depth="4" NCoef="0" IVar="-1" Cut="0.0000000000000000e+00" cType="1" res="4.1060573421418667e-03" rms="4.4437137246131897e-01" purity="5.6108701229095459e-01" nType="-99"/>
              <Node pos="r" depth="4" NCoef="0" IVar="-1" Cut="0.0000000000000000e+00" cType="1" res="-3.7050712853670120e-03" rms="4.0824857354164124e-01" purity="6.2154960632324219e-01" nType="-99"/>
            </Node>
            <Node pos="r" depth="3" NCoef="0" IVar="-1" Cut="0.0000000000000000e+00" cType="1" res="-8.7016243487596512e-03" rms="4.3183290958404541e-01" purity="5.2564650774002075e-01" nType="-99"/>
          </Node>
        </Node>
      </Node>
    </BinaryTree>
    <BinaryTree type="DecisionTree" boostWeight="1.0000000000000000e+00" itree="169">
      <Node pos="s" depth="0" NCoef="0" IVar="2" Cut="1.3307417631149292e+00" cType="1" res="2.7160639874637127e-03" rms="4.1381713747978210e-01" purity="5.0892627239227295e-01" nType="0">
        <Node pos="l" depth="1" NCoef="0" IVar="7" Cut="2.9031326293945312e+02" cType="1" res="1.8331985920667648e-02" rms="3.7689203023910522e-01" purity="3.7862432003021240e-01" nType="0">
          <Node pos="l" depth="2" NCoef="0" IVar="7" Cut="1.8198814392089844e+02" cType="1" res="7.7910614199936390e-03" rms="3.5813775658607483e-01" purity="2.7312329411506653e-01" nType="0">
            <Node pos="l" depth="3" NCoef="0" IVar="-1" Cut="0.0000000000000000e+00" cType="1" res="-3.7063935305923223e-03" rms="3.3070456981658936e-01" purity="1.6759763658046722e-01" nType="-99"/>
            <Node pos="r" depth="3" NCoef="0" IVar="-1" Cut="0.0000000000000000e+00" cType="1" res="7.0014176890254021e-03" rms="3.8281440734863281e-01" purity="3.7754270434379578e-01" nType="-99"/>
          </Node>
          <Node pos="r" depth="2" NCoef="0" IVar="-1" Cut="0.0000000000000000e+00" cType="1" res="1.2723420746624470e-02" rms="4.0701425075531006e-01" purity="5.6344223022460938e-01" nType="-99"/>
        </Node>
        <Node pos="r" depth="1" NCoef="0" IVar="1" Cut="2.2437841892242432e+00" cType="1" res="-4.7614458017051220e-03" rms="4.3017742037773132e-01" purity="5.7131987810134888e-01" nType="0">
          <Node pos="l" depth="2" NCoef="0" IVar="1" Cut="1.2175806760787964e+00" cType="1" res="-1.2088847346603870e-02" rms="4.3256637454032898e-01" purity="5.5382496118545532e-01" nType="0">
            <Node pos="l" depth="3" NCoef="0" IVar="4" Cut="5.2998636718750000e+04" cType="1" res="-3.6183367483317852e-03" rms="4.3242210149765015e-01" purity="5.6062257289886475e-01" nType="0">
              <Node pos="l" depth="4" NCoef="0" IVar="-1" Cut="0.0000000000000000e+00" cType="1" res="-8.8836234062910080e-03" rms="4.3736848235130310e-01" purity="4.5722243189811707e-01" nType="-99"/>
              <Node pos="r" depth="4" NCoef="0" IVar="-1" Cut="0.0000000000000000e+00" cType="1" res="3.4614594187587500e-03" rms="4.2792153358459473e-01" purity="6.3665777444839478e-01" nType="-99"/>
            </Node>
            <Node pos="r" depth="3" NCoef="0" IVar="-1" Cut="0.0000000000000000e+00" cType="1" res="-1.0789753869175911e-02" rms="4.3163928389549255e-01" purity="5.2845907211303711e-01" nType="-99"/>
          </Node>
          <Node pos="r" depth="2" NCoef="0" IVar="-1" Cut="0.0000000000000000e+00" cType="1" res="6.6217421554028988e-03" rms="4.2073363065719604e-01" purity="6.3238668441772461e-01" nType="-99"/>
        </Node>
      </Node>
    </BinaryTree>
    <BinaryTree type="DecisionTree" boostWeight="1.0000000000000000e+00" itree="170">
      <Node pos="s" depth="0" NCoef="0" IVar="8" Cut="2.7518966197967529e+00" cType="1" res="-5.4782507941126823e-03" rms="4.2055517435073853e-01" purity="4.9262791872024536e-01" nType="0">
        <Node pos="l" depth="1" NCoef="0" IVar="-1" Cut="0.0000000000000000e+00" cType="1" res="8.8879475370049477e-03" rms="4.5703732967376709e-01" purity="4.9326750636100769e-01" nType="-99"/>
        <Node pos="r" depth="1" NCoef="0" IVar="1" Cut="-2.2440209388732910e+00" cType="1" res="-1.0165693238377571e-02" rms="4.1534304618835449e-01" purity="4.9254468083381653e-01" nType="0">
          <Node pos="l" depth="2" NCoef="0" IVar="-1" Cut="0.0000000000000000e+00" cType="1" res="-6.8875798024237156e-03" rms="4.2354109883308411e-01" purity="4.9662232398986816e-01" nType="-99"/>
          <Node pos="r" depth="2" NCoef="0" IVar="8" Cut="2.9006493091583252e+00" cType="1" res="-2.3487210273742676e-03" rms="4.1256311535835266e-01" purity="4.9133878946304321e-01" nType="0">
            <Node pos="l" depth="3" NCoef="0" IVar="-1" Cut="0.0000000000000000e+00" cType="1" res="-1.0856338776648045e-02" rms="4.3891149759292603e-01" purity="4.2806863784790039e-01" nType="-99"/>
            <Node pos="r" depth="3" NCoef="0" IVar="8" Cut="3.0957105159759521e+00" cType="1" res="5.2510206587612629e-03" rms="4.0573665499687195e-01" purity="5.0623786449432373e-01" nType="0">
              <Node pos="l" depth="4" NCoef="0" IVar="-1" Cut="0.0000000000000000e+00" cType="1" res="4.7954986803233624e-03" rms="4.0863209962844849e-01" purity="5.1316237449645996e-01" nType="-99"/>
              <Node pos="r" depth="4" NCoef="0" IVar="-1" Cut="0.0000000000000000e+00" cType="1" res="-7.3792445473372936e-03" rms="3.9537480473518372e-01" purity="4.8466068506240845e-01" nType="-99"/>
            </Node>
          </Node>
        </Node>
      </Node>
    </BinaryTree>
    <BinaryTree type="DecisionTree" boostWeight="1.0000000000000000e+00" itree="171">
      <Node pos="s" depth="0" NCoef="0" IVar="8" Cut="2.8935887813568115e+00" cType="1" res="5.8402208378538489e-04" rms="4.2072618007659912e-01" purity="5.0050610303878784e-01" nType="0">
        <Node pos="l" depth="1" NCoef="0" IVar="2" Cut="1.9697474241256714e+00" cType="1" res="2.0221838727593422e-02" rms="4.4993713498115540e-01" purity="4.8514732718467712e-01" nType="0">
          <Node pos="l" depth="2" NCoef="0" IVar="-1" Cut="0.0000000000000000e+00" cType="1" res="-6.1234785243868828e-03" rms="4.3962776660919189e-01" purity="3.8387084007263184e-01" nType="-99"/>
          <Node pos="r" depth="2" NCoef="0" IVar="-1" Cut="0.0000000000000000e+00" cType="1" res="1.5096047893166542e-02" rms="4.5718497037887573e-01" purity="5.9299713373184204e-01" nType="-99"/>
        </Node>
        <Node pos="r" depth="1" NCoef="0" IVar="7" Cut="2.4313084411621094e+02" cType="1" res="-6.8595143966376781e-03" rms="4.0886285901069641e-01" purity="5.0632774829864502e-01" nType="0">
          <Node pos="l" depth="2" NCoef="0" IVar="3" Cut="9.1582984375000000e+04" cType="1" res="2.4383480194956064e-03" rms="4.0665194392204285e-01" purity="3.9523443579673767e-01" nType="0">
            <Node pos="l" depth="3" NCoef="0" IVar="4" Cut="4.3347089843750000e+04" cType="1" res="-1.1799873784184456e-02" rms="3.9634945988655090e-01" purity="3.5569009184837341e-01" nType="0">
              <Node pos="l" depth="4" NCoef="0" IVar="-1" Cut="0.0000000000000000e+00" cType="1" res="-1.1437203735113144e-02" rms="3.7852376699447632e-01" purity="2.7985480427742004e-01" nType="-99"/>
              <Node pos="r" depth="4" NCoef="0" IVar="-1" Cut="0.0000000000000000e+00" cType="1" res="1.0531478328630328e-03" rms="4.1196244955062866e-01" purity="4.2737811803817749e-01" nType="-99"/>
            </Node>
            <Node pos="r" depth="3" NCoef="0" IVar="-1" Cut="0.0000000000000000e+00" cType="1" res="1.1631874367594719e-02" rms="4.2806068062782288e-01" purity="4.8830118775367737e-01" nType="-99"/>
          </Node>
          <Node pos="r" depth="2" NCoef="0" IVar="1" Cut="-1.3448442220687866e+00" cType="1" res="-1.9420003518462181e-02" rms="4.1149723529815674e-01" purity="6.5640377998352051e-01" nType="0">
            <Node pos="l" depth="3" NCoef="0" IVar="-1" Cut="0.0000000000000000e+00" cType="1" res="7.7503133798018098e-04" rms="3.9655879139900208e-01" purity="6.9279527664184570e-01" nType="-99"/>
            <Node pos="r" depth="3" NCoef="0" IVar="-1" Cut="0.0000000000000000e+00" cType="1" res="-1.1655630543828011e-02" rms="4.1992238163948059e-01" purity="6.3377189636230469e-01" nType="-99"/>
          </Node>
        </Node>
      </Node>
    </BinaryTree>
    <BinaryTree type="DecisionTree" boostWeight="1.0000000000000000e+00" itree="172">
      <Node pos="s" depth="0" NCoef="0" IVar="6" Cut="4.8502770066261292e-01" cType="1" res="0.0000000000000000e+00" rms="0.0000000000000000e+00" purity="5.0113052129745483e-01" nType="0">
        <Node pos="l" depth="1" NCoef="0" IVar="-1" Cut="0.0000000000000000e+00" cType="1" res="-1.0983708314597607e-02" rms="4.2545810341835022e-01" purity="3.3218640089035034e-01" nType="-99"/>
        <Node pos="r" depth="1" NCoef="0" IVar="8" Cut="3.0962741374969482e+00" cType="1" res="9.5498124137520790e-03" rms="4.1178780794143677e-01" purity="5.2155041694641113e-01" nType="0">
          <Node pos="l" depth="2" NCoef="0" IVar="8" Cut="2.7942266464233398e+00" cType="1" res="4.0673972107470036e-03" rms="4.1057750582695007e-01" purity="5.1543611288070679e-01" nType="0">
            <Node pos="l" depth="3" NCoef="0" IVar="-1" Cut="0.0000000000000000e+00" cType="1" res="-9.8735401406884193e-03" rms="4.4135409593582153e-01" purity="4.5597708225250244e-01" nType="-99"/>
            <Node pos="r" depth="3" NCoef="0" IVar="2" Cut="1.1237180233001709e+00" cType="1" res="9.8239043727517128e-03" rms="4.0485522150993347e-01" purity="5.2549839019775391e-01" nType="0">
              <Node pos="l" depth="4" NCoef="0" IVar="-1" Cut="0.0000000000000000e+00" cType="1" res="-6.4609306864440441e-03" rms="3.5012260079383850e-01" purity="2.9053583741188049e-01" nType="-99"/>
              <Node pos="r" depth="4" NCoef="0" IVar="-1" Cut="0.0000000000000000e+00" cType="1" res="5.4936497472226620e-03" rms="4.2105555534362793e-01" purity="6.0302853584289551e-01" nType="-99"/>
            </Node>
          </Node>
          <Node pos="r" depth="2" NCoef="0" IVar="-1" Cut="0.0000000000000000e+00" cType="1" res="9.8297614604234695e-03" rms="4.1636046767234802e-01" purity="5.4952228069305420e-01" nType="-99"/>
        </Node>
      </Node>
    </BinaryTree>
    <BinaryTree type="DecisionTree" boostWeight="1.0000000000000000e+00" itree="173">
      <Node pos="s" depth="0" NCoef="0" IVar="8" Cut="2.8980197906494141e+00" cType="1" res="2.3660645820200443e-03" rms="4.1732534766197205e-01" purity="5.0083506107330322e-01" nType="0">
        <Node pos="l" depth="1" NCoef="0" IVar="9" Cut="3.0000000000000000e+00" cType="1" res="2.6242388412356377e-02" rms="4.4024351239204407e-01" purity="4.9382978677749634e-01" nType="0">
          <Node pos="l" depth="2" NCoef="0" IVar="-1" Cut="0.0000000000000000e+00" cType="1" res="1.6496382653713226e-02" rms="4.3829566240310669e-01" purity="4.6555283665657043e-01" nType="-99"/>
          <Node pos="r" depth="2" NCoef="0" IVar="-1" Cut="0.0000000000000000e+00" cType="1" res="1.5434426022693515e-03" rms="4.4622898101806641e-01" purity="5.1410263776779175e-01" nType="-99"/>
        </Node>
        <Node pos="r" depth="1" NCoef="0" IVar="6" Cut="7.9512798786163330e-01" cType="1" res="-7.5016552582383156e-03" rms="4.0560802817344666e-01" purity="5.0372242927551270e-01" nType="0">
          <Node pos="l" depth="2" NCoef="0" IVar="9" Cut="3.0000000000000000e+00" cType="1" res="-1.3279083184897900e-02" rms="4.0779510140419006e-01" purity="5.2337896823883057e-01" nType="0">
            <Node pos="l" depth="3" NCoef="0" IVar="6" Cut="6.6346716880798340e-01" cType="1" res="-4.2070295661687851e-02" rms="4.1884708404541016e-01" purity="4.2338994145393372e-01" nType="0">
              <Node pos="l" depth="4" NCoef="0" IVar="-1" Cut="0.0000000000000000e+00" cType="1" res="-1.3289907947182655e-02" rms="4.1649439930915833e-01" purity="3.3168685436248779e-01" nType="-99"/>
              <Node pos="r" depth="4" NCoef="0" IVar="-1" Cut="0.0000000000000000e+00" cType="1" res="-7.6148239895701408e-03" rms="4.1980820894241333e-01" purity="4.9649217724800110e-01" nType="-99"/>
            </Node>
            <Node pos="r" depth="3" NCoef="0" IVar="1" Cut="-1.6452562808990479e+00" cType="1" res="5.6522404775023460e-03" rms="3.9923188090324402e-01" purity="5.8912569284439087e-01" nType="0">
              <Node pos="l" depth="4" NCoef="0" IVar="-1" Cut="0.0000000000000000e+00" cType="1" res="-5.4396060295403004e-03" rms="3.9305803179740906e-01" purity="5.7796388864517212e-01" nType="-99"/>
              <Node pos="r" depth="4" NCoef="0" IVar="-1" Cut="0.0000000000000000e+00" cType="1" res="6.4856922253966331e-03" rms="4.0165436267852783e-01" purity="5.9454375505447388e-01" nType="-99"/>
            </Node>
          </Node>
          <Node pos="r" depth="2" NCoef="0" IVar="-1" Cut="0.0000000000000000e+00" cType="1" res="6.2179872766137123e-03" rms="3.9291381835937500e-01" purity="4.0324229001998901e-01" nType="-99"/>
        </Node>
      </Node>
    </BinaryTree>
    <BinaryTree type="DecisionTree" boostWeight="1.0000000000000000e+00" itree="174">
      <Node pos="s" depth="0" NCoef="0" IVar="4" Cut="4.2655867187500000e+04" cType="1" res="-9.9511593580245972e-03" rms="4.1524165868759155e-01" purity="5.0094920396804810e-01" nType="0">
        <Node pos="l" depth="1" NCoef="0" IVar="6" Cut="7.3917597532272339e-01" cType="1" res="5.4838992655277252e-03" rms="4.0191537141799927e-01" purity="3.6129489541053772e-01" nType="0">
          <Node pos="l" depth="2" NCoef="0" IVar="-1" Cut="0.0000000000000000e+00" cType="1" res="8.7927989661693573e-03" rms="4.1341760754585266e-01" purity="4.1145399212837219e-01" nType="-99"/>
          <Node pos="r" depth="2" NCoef="0" IVar="-1" Cut="0.0000000000000000e+00" cType="1" res="-7.9384911805391312e-03" rms="3.8585999608039856e-01" purity="2.9968547821044922e-01" nType="-99"/>
        </Node>
        <Node pos="r" depth="1" NCoef="0" IVar="3" Cut="7.5151070312500000e+04" cType="1" res="-1.4892652630805969e-02" rms="4.1929852962493896e-01" purity="5.4565918445587158e-01" nType="0">
          <Node pos="l" depth="2" NCoef="0" IVar="4" Cut="5.1771808593750000e+04" cType="1" res="-3.7946633994579315e-02" rms="4.1751506924629211e-01" purity="4.4804683327674866e-01" nType="0">
            <Node pos="l" depth="3" NCoef="0" IVar="-1" Cut="0.0000000000000000e+00" cType="1" res="-3.5522345569916070e-04" rms="4.0850639343261719e-01" purity="4.3211367726325989e-01" nType="-99"/>
            <Node pos="r" depth="3" NCoef="0" IVar="-1" Cut="0.0000000000000000e+00" cType="1" res="-1.8494149670004845e-02" rms="4.2275598645210266e-01" purity="4.6247521042823792e-01" nType="-99"/>
          </Node>
          <Node pos="r" depth="2" NCoef="0" IVar="4" Cut="5.9135011718750000e+04" cType="1" res="-5.9443125501275063e-03" rms="4.1964766383171082e-01" purity="5.8354711532592773e-01" nType="0">
            <Node pos="l" depth="3" NCoef="0" IVar="-1" Cut="0.0000000000000000e+00" cType="1" res="-1.2183108367025852e-02" rms="4.2169544100761414e-01" purity="4.7328981757164001e-01" nType="-99"/>
            <Node pos="r" depth="3" NCoef="0" IVar="1" Cut="1.3463121652603149e+00" cType="1" res="1.5928387874737382e-03" rms="4.1879317164421082e-01" purity="6.1133557558059692e-01" nType="0">
              <Node pos="l" depth="4" NCoef="0" IVar="-1" Cut="0.0000000000000000e+00" cType="1" res="-2.1351163741201162e-03" rms="4.2004773020744324e-01" purity="5.9021389484405518e-01" nType="-99"/>
              <Node pos="r" depth="4" NCoef="0" IVar="-1" Cut="0.0000000000000000e+00" cType="1" res="5.9522143565118313e-03" rms="4.1623291373252869e-01" purity="6.4702045917510986e-01" nType="-99"/>
            </Node>
          </Node>
        </Node>
      </Node>
    </BinaryTree>
    <BinaryTree type="DecisionTree" boostWeight="1.0000000000000000e+00" itree="175">
      <Node pos="s" depth="0" NCoef="0" IVar="2" Cut="2.9916846752166748e+00" cType="1" res="6.5834256820380688e-03" rms="4.1624969244003296e-01" purity="5.0215554237365723e-01" nType="0">
        <Node pos="l" depth="1" NCoef="0" IVar="1" Cut="2.5431559085845947e+00" cType="1" res="1.1185440234839916e-02" rms="4.1239476203918457e-01" purity="5.0408273935317993e-01" nType="0">
          <Node pos="l" depth="2" NCoef="0" IVar="8" Cut="2.9957368373870850e+00" cType="1" res="5.0634723156690598e-03" rms="4.1282179951667786e-01" purity="4.9185410141944885e-01" nType="0">
            <Node pos="l" depth="3" NCoef="0" IVar="6" Cut="6.7783254384994507e-01" cType="1" res="-9.7882002592086792e-03" rms="4.2417898774147034e-01" purity="4.4241270422935486e-01" nType="0">
              <Node pos="l" depth="4" NCoef="0" IVar="-1" Cut="0.0000000000000000e+00" cType="1" res="3.1471175607293844e-03" rms="4.3000638484954834e-01" purity="4.7957822680473328e-01" nType="-99"/>
              <Node pos="r" depth="4" NCoef="0" IVar="-1" Cut="0.0000000000000000e+00" cType="1" res="-1.5317067503929138e-02" rms="4.1045135259628296e-01" purity="3.7242385745048523e-01" nType="-99"/>
            </Node>
            <Node pos="r" depth="3" NCoef="0" IVar="7" Cut="1.7499816894531250e+02" cType="1" res="1.9680252298712730e-02" rms="4.0079355239868164e-01" purity="5.4051357507705688e-01" nType="0">
              <Node pos="l" depth="4" NCoef="0" IVar="-1" Cut="0.0000000000000000e+00" cType="1" res="1.2543986551463604e-02" rms="3.9433795213699341e-01" purity="3.2390877604484558e-01" nType="-99"/>
              <Node pos="r" depth="4" NCoef="0" IVar="-1" Cut="0.0000000000000000e+00" cType="1" res="2.9460564255714417e-03" rms="4.0430161356925964e-01" purity="6.7340600490570068e-01" nType="-99"/>
            </Node>
          </Node>
          <Node pos="r" depth="2" NCoef="0" IVar="-1" Cut="0.0000000000000000e+00" cType="1" res="1.3355394825339317e-02" rms="4.0864834189414978e-01" purity="5.6822192668914795e-01" nType="-99"/>
        </Node>
        <Node pos="r" depth="1" NCoef="0" IVar="-1" Cut="0.0000000000000000e+00" cType="1" res="-6.7262533120810986e-03" rms="4.3905046582221985e-01" purity="4.8978140950202942e-01" nType="-99"/>
      </Node>
    </BinaryTree>
    <BinaryTree type="DecisionTree" boostWeight="1.0000000000000000e+00" itree="176">
      <Node pos="s" depth="0" NCoef="0" IVar="3" Cut="5.4284605468750000e+04" cType="1" res="-5.6246892199851573e-05" rms="4.1156691312789917e-01" purity="5.0018829107284546e-01" nType="0">
        <Node pos="l" depth="1" NCoef="0" IVar="-1" Cut="0.0000000000000000e+00" cType="1" res="-1.0328953154385090e-02" rms="3.7328729033470154e-01" purity="3.0020776391029358e-01" nType="-99"/>
        <Node pos="r" depth="1" NCoef="0" IVar="5" Cut="1.6032269287109375e+02" cType="1" res="5.2749249152839184e-03" rms="4.1888967156410217e-01" purity="5.4176568984985352e-01" nType="0">
          <Node pos="l" depth="2" NCoef="0" IVar="-1" Cut="0.0000000000000000e+00" cType="1" res="-4.5147836208343506e-03" rms="4.0784329175949097e-01" purity="5.7004988193511963e-01" nType="-99"/>
          <Node pos="r" depth="2" NCoef="0" IVar="7" Cut="1.6725849914550781e+02" cType="1" res="9.8208384588360786e-03" rms="4.2122900485992432e-01" purity="5.3533339500427246e-01" nType="0">
            <Node pos="l" depth="3" NCoef="0" IVar="-1" Cut="0.0000000000000000e+00" cType="1" res="9.2349387705326080e-03" rms="4.2597597837448120e-01" purity="3.6968845129013062e-01" nType="-99"/>
            <Node pos="r" depth="3" NCoef="0" IVar="1" Cut="-1.9443775415420532e+00" cType="1" res="5.0369221717119217e-03" rms="4.1980439424514771e-01" purity="5.8026468753814697e-01" nType="0">
              <Node pos="l" depth="4" NCoef="0" IVar="-1" Cut="0.0000000000000000e+00" cType="1" res="8.7962253019213676e-03" rms="4.1041824221611023e-01" purity="6.1767792701721191e-01" nType="-99"/>
              <Node pos="r" depth="4" NCoef="0" IVar="-1" Cut="0.0000000000000000e+00" cType="1" res="-1.0201549157500267e-03" rms="4.2310270667076111e-01" purity="5.6570273637771606e-01" nType="-99"/>
            </Node>
          </Node>
        </Node>
      </Node>
    </BinaryTree>
    <BinaryTree type="DecisionTree" boostWeight="1.0000000000000000e+00" itree="177">
      <Node pos="s" depth="0" NCoef="0" IVar="8" Cut="3.0919618606567383e+00" cType="1" res="-7.3195400182157755e-04" rms="4.1810601949691772e-01" purity="5.0311022996902466e-01" nType="0">
        <Node pos="l" depth="1" NCoef="0" IVar="4" Cut="3.9723925781250000e+04" cType="1" res="-6.4949602819979191e-03" rms="4.1977277398109436e-01" purity="4.9220278859138489e-01" nType="0">
          <Node pos="l" depth="2" NCoef="0" IVar="-1" Cut="0.0000000000000000e+00" cType="1" res="-1.3532450422644615e-02" rms="3.9324033260345459e-01" purity="2.9360392689704895e-01" nType="-99"/>
          <Node pos="r" depth="2" NCoef="0" IVar="5" Cut="1.6032269287109375e+02" cType="1" res="-6.6951540065929294e-04" rms="4.2545771598815918e-01" purity="5.3810566663742065e-01" nType="0">
            <Node pos="l" depth="3" NCoef="0" IVar="-1" Cut="0.0000000000000000e+00" cType="1" res="-1.1079805903136730e-02" rms="4.1703107953071594e-01" purity="5.3121370077133179e-01" nType="-99"/>
            <Node pos="r" depth="3" NCoef="0" IVar="1" Cut="7.4727177619934082e-01" cType="1" res="0.0000000000000000e+00" rms="0.0000000000000000e+00" purity="5.3970068693161011e-01" nType="0">
              <Node pos="l" depth="4" NCoef="0" IVar="-1" Cut="0.0000000000000000e+00" cType="1" res="-2.1708309650421143e-03" rms="4.2839279770851135e-01" purity="5.0847905874252319e-01" nType="-99"/>
              <Node pos="r" depth="4" NCoef="0" IVar="-1" Cut="0.0000000000000000e+00" cType="1" res="7.3632956482470036e-03" rms="4.2485901713371277e-01" purity="5.7847613096237183e-01" nType="-99"/>
            </Node>
          </Node>
        </Node>
        <Node pos="r" depth="1" NCoef="0" IVar="-1" Cut="0.0000000000000000e+00" cType="1" res="8.9738648384809494e-03" rms="4.1006225347518921e-01" purity="5.4937297105789185e-01" nType="-99"/>
      </Node>
    </BinaryTree>
    <BinaryTree type="DecisionTree" boostWeight="1.0000000000000000e+00" itree="178">
      <Node pos="s" depth="0" NCoef="0" IVar="9" Cut="4.0000000000000000e+00" cType="1" res="-9.4164693728089333e-03" rms="4.1892924904823303e-01" purity="4.8717752099037170e-01" nType="0">
        <Node pos="l" depth="1" NCoef="0" IVar="3" Cut="1.3098117187500000e+05" cType="1" res="-1.5807842835783958e-02" rms="4.1725701093673706e-01" purity="4.5426848530769348e-01" nType="0">
          <Node pos="l" depth="2" NCoef="0" IVar="3" Cut="5.6349972656250000e+04" cType="1" res="0.0000000000000000e+00" rms="0.0000000000000000e+00" purity="4.4833582639694214e-01" nType="0">
            <Node pos="l" depth="3" NCoef="0" IVar="-1" Cut="0.0000000000000000e+00" cType="1" res="5.9798238798975945e-03" rms="4.0270504355430603e-01" purity="3.3918550610542297e-01" nType="-99"/>
            <Node pos="r" depth="3" NCoef="0" IVar="6" Cut="5.9799921512603760e-01" cType="1" res="-1.7467925325036049e-02" rms="4.1915419697761536e-01" purity="4.8493513464927673e-01" nType="0">
              <Node pos="l" depth="4" NCoef="0" IVar="-1" Cut="0.0000000000000000e+00" cType="1" res="-1.1284840293228626e-02" rms="4.3234169483184814e-01" purity="3.7351584434509277e-01" nType="-99"/>
              <Node pos="r" depth="4" NCoef="0" IVar="-1" Cut="0.0000000000000000e+00" cType="1" res="-2.9591780621558428e-03" rms="4.1343450546264648e-01" purity="5.2991551160812378e-01" nType="-99"/>
            </Node>
          </Node>
          <Node pos="r" depth="2" NCoef="0" IVar="-1" Cut="0.0000000000000000e+00" cType="1" res="-1.8315399065613747e-02" rms="4.2613160610198975e-01" purity="4.8978975415229797e-01" nType="-99"/>
        </Node>
        <Node pos="r" depth="1" NCoef="0" IVar="-1" Cut="0.0000000000000000e+00" cType="1" res="5.5667823180556297e-03" rms="4.2446956038475037e-01" purity="6.1424916982650757e-01" nType="-99"/>
      </Node>
    </BinaryTree>
    <BinaryTree type="DecisionTree" boostWeight="1.0000000000000000e+00" itree="179">
      <Node pos="s" depth="0" NCoef="0" IVar="8" Cut="2.8005962371826172e+00" cType="1" res="-2.3457515053451061e-03" rms="4.1560637950897217e-01" purity="5.0363129377365112e-01" nType="0">
        <Node pos="l" depth="1" NCoef="0" IVar="-1" Cut="0.0000000000000000e+00" cType="1" res="1.0817757807672024e-02" rms="4.4337505102157593e-01" purity="5.1009976863861084e-01" nType="-99"/>
        <Node pos="r" depth="1" NCoef="0" IVar="3" Cut="1.2439511718750000e+05" cType="1" res="0.0000000000000000e+00" rms="0.0000000000000000e+00" purity="5.0244194269180298e-01" nType="0">
          <Node pos="l" depth="2" NCoef="0" IVar="6" Cut="5.6991338729858398e-01" cType="1" res="0.0000000000000000e+00" rms="0.0000000000000000e+00" purity="4.8988050222396851e-01" nType="0">
            <Node pos="l" depth="3" NCoef="0" IVar="-1" Cut="0.0000000000000000e+00" cType="1" res="-1.0174890980124474e-02" rms="4.2920368909835815e-01" purity="3.7868779897689819e-01" nType="-99"/>
            <Node pos="r" depth="3" NCoef="0" IVar="3" Cut="8.6877171875000000e+04" cType="1" res="5.2393006626516581e-04" rms="4.0249866247177124e-01" purity="5.1383745670318604e-01" nType="0">
              <Node pos="l" depth="4" NCoef="0" IVar="-1" Cut="0.0000000000000000e+00" cType="1" res="-2.9532276093959808e-03" rms="4.0573367476463318e-01" purity="4.5681849122047424e-01" nType="-99"/>
              <Node pos="r" depth="4" NCoef="0" IVar="-1" Cut="0.0000000000000000e+00" cType="1" res="6.1282897368073463e-03" rms="3.9377784729003906e-01" purity="6.5097242593765259e-01" nType="-99"/>
            </Node>
          </Node>
          <Node pos="r" depth="2" NCoef="0" IVar="-1" Cut="0.0000000000000000e+00" cType="1" res="-1.0550313629209995e-02" rms="4.1914650797843933e-01" purity="5.5786550045013428e-01" nType="-99"/>
        </Node>
      </Node>
    </BinaryTree>
    <BinaryTree type="DecisionTree" boostWeight="1.0000000000000000e+00" itree="180">
      <Node pos="s" depth="0" NCoef="0" IVar="7" Cut="1.3705630493164062e+02" cType="1" res="-4.3638003990054131e-03" rms="4.1531524062156677e-01" purity="4.9331203103065491e-01" nType="0">
        <Node pos="l" depth="1" NCoef="0" IVar="-1" Cut="0.0000000000000000e+00" cType="1" res="-1.1137759312987328e-02" rms="3.8441976904869080e-01" purity="2.5650274753570557e-01" nType="-99"/>
        <Node pos="r" depth="1" NCoef="0" IVar="1" Cut="1.9450427293777466e+00" cType="1" res="0.0000000000000000e+00" rms="0.0000000000000000e+00" purity="5.3932929039001465e-01" nType="0">
          <Node pos="l" depth="2" NCoef="0" IVar="6" Cut="6.2630277872085571e-01" cType="1" res="8.3775138482451439e-03" rms="4.1716879606246948e-01" purity="5.3208118677139282e-01" nType="0">
            <Node pos="l" depth="3" NCoef="0" IVar="2" Cut="1.9649596214294434e+00" cType="1" res="-6.7274011671543121e-03" rms="4.3322071433067322e-01" purity="4.8268055915832520e-01" nType="0">
              <Node pos="l" depth="4" NCoef="0" IVar="-1" Cut="0.0000000000000000e+00" cType="1" res="-7.2512291371822357e-03" rms="4.2922955751419067e-01" purity="4.2559999227523804e-01" nType="-99"/>
              <Node pos="r" depth="4" NCoef="0" IVar="-1" Cut="0.0000000000000000e+00" cType="1" res="2.7120704762637615e-03" rms="4.3658059835433960e-01" purity="5.4086905717849731e-01" nType="-99"/>
            </Node>
            <Node pos="r" depth="3" NCoef="0" IVar="8" Cut="2.9439404010772705e+00" cType="1" res="2.1912207826972008e-02" rms="4.0175968408584595e-01" purity="5.7634639739990234e-01" nType="0">
              <Node pos="l" depth="4" NCoef="0" IVar="-1" Cut="0.0000000000000000e+00" cType="1" res="-5.4756234021624550e-05" rms="4.2660212516784668e-01" purity="4.3227225542068481e-01" nType="-99"/>
              <Node pos="r" depth="4" NCoef="0" IVar="-1" Cut="0.0000000000000000e+00" cType="1" res="1.1739416979253292e-02" rms="3.8731390237808228e-01" purity="6.5335124731063843e-01" nType="-99"/>
            </Node>
          </Node>
          <Node pos="r" depth="2" NCoef="0" IVar="6" Cut="6.0966426134109497e-01" cType="1" res="-1.9800612702965736e-02" rms="4.2987424135208130e-01" purity="5.5856895446777344e-01" nType="0">
            <Node pos="l" depth="3" NCoef="0" IVar="-1" Cut="0.0000000000000000e+00" cType="1" res="3.6359534133225679e-03" rms="4.4538947939872742e-01" purity="5.2675187587738037e-01" nType="-99"/>
            <Node pos="r" depth="3" NCoef="0" IVar="-1" Cut="0.0000000000000000e+00" cType="1" res="-1.7835848033428192e-02" rms="4.1439643502235413e-01" purity="5.8554619550704956e-01" nType="-99"/>
          </Node>
        </Node>
      </Node>
    </BinaryTree>
    <BinaryTree type="DecisionTree" boostWeight="1.0000000000000000e+00" itree="181">
      <Node pos="s" depth="0" NCoef="0" IVar="7" Cut="4.0992340087890625e+02" cType="1" res="3.3857827074825764e-03" rms="4.1472145915031433e-01" purity="4.9832698702812195e-01" nType="0">
        <Node pos="l" depth="1" NCoef="0" IVar="2" Cut="2.8297398090362549e+00" cType="1" res="6.9575062952935696e-03" rms="4.1388764977455139e-01" purity="4.7983899712562561e-01" nType="0">
          <Node pos="l" depth="2" NCoef="0" IVar="1" Cut="4.4893369078636169e-01" cType="1" res="-4.9567464739084244e-03" rms="4.0817174315452576e-01" purity="4.5726659893989563e-01" nType="0">
            <Node pos="l" depth="3" NCoef="0" IVar="6" Cut="6.5376901626586914e-01" cType="1" res="0.0000000000000000e+00" rms="0.0000000000000000e+00" purity="4.3458408117294312e-01" nType="0">
              <Node pos="l" depth="4" NCoef="0" IVar="-1" Cut="0.0000000000000000e+00" cType="1" res="-2.3176297545433044e-03" rms="4.1082930564880371e-01" purity="4.4564887881278992e-01" nType="-99"/>
              <Node pos="r" depth="4" NCoef="0" IVar="-1" Cut="0.0000000000000000e+00" cType="1" res="-1.2033596634864807e-02" rms="3.8490539789199829e-01" purity="4.2427560687065125e-01" nType="-99"/>
            </Node>
            <Node pos="r" depth="3" NCoef="0" IVar="2" Cut="1.2811992168426514e+00" cType="1" res="1.0560508817434311e-02" rms="4.1926127672195435e-01" purity="4.8333817720413208e-01" nType="0">
              <Node pos="l" depth="4" NCoef="0" IVar="-1" Cut="0.0000000000000000e+00" cType="1" res="-6.0410937294363976e-03" rms="3.9144116640090942e-01" purity="2.9820242524147034e-01" nType="-99"/>
              <Node pos="r" depth="4" NCoef="0" IVar="-1" Cut="0.0000000000000000e+00" cType="1" res="7.5229015201330185e-03" rms="4.3564039468765259e-01" purity="6.0450166463851929e-01" nType="-99"/>
            </Node>
          </Node>
          <Node pos="r" depth="2" NCoef="0" IVar="-1" Cut="0.0000000000000000e+00" cType="1" res="1.4001468196511269e-02" rms="4.3108472228050232e-01" purity="5.6088250875473022e-01" nType="-99"/>
        </Node>
        <Node pos="r" depth="1" NCoef="0" IVar="-1" Cut="0.0000000000000000e+00" cType="1" res="-5.7551208883523941e-03" rms="4.1947790980339050e-01" purity="6.2208533287048340e-01" nType="-99"/>
      </Node>
    </BinaryTree>
    <BinaryTree type="DecisionTree" boostWeight="1.0000000000000000e+00" itree="182">
      <Node pos="s" depth="0" NCoef="0" IVar="6" Cut="5.9738451242446899e-01" cType="1" res="-1.3220902765169740e-03" rms="4.1379308700561523e-01" purity="4.9976298213005066e-01" nType="0">
        <Node pos="l" depth="1" NCoef="0" IVar="2" Cut="2.5915701389312744e+00" cType="1" res="-1.9087428227066994e-02" rms="4.2887312173843384e-01" purity="4.3590608239173889e-01" nType="0">
          <Node pos="l" depth="2" NCoef="0" IVar="2" Cut="1.3904668092727661e+00" cType="1" res="-3.1161182560026646e-03" rms="4.2676371335983276e-01" purity="4.4475108385086060e-01" nType="0">
            <Node pos="l" depth="3" NCoef="0" IVar="-1" Cut="0.0000000000000000e+00" cType="1" res="-1.3462812639772892e-02" rms="4.0286427736282349e-01" purity="3.1775906682014465e-01" nType="-99"/>
            <Node pos="r" depth="3" NCoef="0" IVar="-1" Cut="0.0000000000000000e+00" cType="1" res="8.4508378058671951e-03" rms="4.4504824280738831e-01" purity="5.6025886535644531e-01" nType="-99"/>
          </Node>
          <Node pos="r" depth="2" NCoef="0" IVar="-1" Cut="0.0000000000000000e+00" cType="1" res="-1.3378837145864964e-02" rms="4.3148538470268250e-01" purity="4.1475197672843933e-01" nType="-99"/>
        </Node>
        <Node pos="r" depth="1" NCoef="0" IVar="6" Cut="6.3512998819351196e-01" cType="1" res="8.5237110033631325e-03" rms="4.0485829114913940e-01" purity="5.3515332937240601e-01" nType="0">
          <Node pos="l" depth="2" NCoef="0" IVar="-1" Cut="0.0000000000000000e+00" cType="1" res="1.3782619498670101e-02" rms="4.1565018892288208e-01" purity="6.2302654981613159e-01" nType="-99"/>
          <Node pos="r" depth="2" NCoef="0" IVar="5" Cut="2.4197846984863281e+02" cType="1" res="2.3060233797878027e-03" rms="4.0241032838821411e-01" purity="5.1787745952606201e-01" nType="0">
            <Node pos="l" depth="3" NCoef="0" IVar="1" Cut="-4.4860336184501648e-01" cType="1" res="-3.8125352002680302e-03" rms="4.0016245841979980e-01" purity="5.0805252790451050e-01" nType="0">
              <Node pos="l" depth="4" NCoef="0" IVar="-1" Cut="0.0000000000000000e+00" cType="1" res="8.6667556315660477e-03" rms="4.0750518441200256e-01" purity="5.5333405733108521e-01" nType="-99"/>
              <Node pos="r" depth="4" NCoef="0" IVar="-1" Cut="0.0000000000000000e+00" cType="1" res="-9.6581056714057922e-03" rms="3.9231815934181213e-01" purity="4.7037386894226074e-01" nType="-99"/>
            </Node>
            <Node pos="r" depth="3" NCoef="0" IVar="-1" Cut="0.0000000000000000e+00" cType="1" res="6.5337927080690861e-03" rms="4.1039258241653442e-01" purity="5.5731385946273804e-01" nType="-99"/>
          </Node>
        </Node>
      </Node>
    </BinaryTree>
    <BinaryTree type="DecisionTree" boostWeight="1.0000000000000000e+00" itree="183">
      <Node pos="s" depth="0" NCoef="0" IVar="8" Cut="3.0441458225250244e+00" cType="1" res="-1.5818612882867455e-03" rms="4.1650521755218506e-01" purity="4.9427732825279236e-01" nType="0">
        <Node pos="l" depth="1" NCoef="0" IVar="3" Cut="6.4597367187500000e+04" cType="1" res="9.7522297874093056e-03" rms="4.2745751142501831e-01" purity="4.8930710554122925e-01" nType="0">
          <Node pos="l" depth="2" NCoef="0" IVar="-1" Cut="0.0000000000000000e+00" cType="1" res="1.3431572355329990e-02" rms="4.0726912021636963e-01" purity="3.9006182551383972e-01" nType="-99"/>
          <Node pos="r" depth="2" NCoef="0" IVar="1" Cut="-2.2427468299865723e+00" cType="1" res="-8.9907163055613637e-04" rms="4.3409317731857300e-01" purity="5.2547752857208252e-01" nType="0">
            <Node pos="l" depth="3" NCoef="0" IVar="-1" Cut="0.0000000000000000e+00" cType="1" res="9.8965372890233994e-03" rms="4.2402771115303040e-01" purity="5.9011781215667725e-01" nType="-99"/>
            <Node pos="r" depth="3" NCoef="0" IVar="9" Cut="3.0000000000000000e+00" cType="1" res="-1.2076000683009624e-02" rms="4.3662571907043457e-01" purity="5.0507605075836182e-01" nType="0">
              <Node pos="l" depth="4" NCoef="0" IVar="-1" Cut="0.0000000000000000e+00" cType="1" res="-8.1014996394515038e-03" rms="4.3018245697021484e-01" purity="4.1500943899154663e-01" nType="-99"/>
              <Node pos="r" depth="4" NCoef="0" IVar="-1" Cut="0.0000000000000000e+00" cType="1" res="-8.9661317178979516e-04" rms="4.4084244966506958e-01" purity="5.6771969795227051e-01" nType="-99"/>
            </Node>
          </Node>
        </Node>
        <Node pos="r" depth="1" NCoef="0" IVar="8" Cut="3.1137371063232422e+00" cType="1" res="-2.0831873640418053e-02" rms="3.9647051692008972e-01" purity="5.0271886587142944e-01" nType="0">
          <Node pos="l" depth="2" NCoef="0" IVar="6" Cut="6.8194913864135742e-01" cType="1" res="-6.8575288169085979e-03" rms="3.8907325267791748e-01" purity="5.2119028568267822e-01" nType="0">
            <Node pos="l" depth="3" NCoef="0" IVar="-1" Cut="0.0000000000000000e+00" cType="1" res="4.9945125356316566e-03" rms="3.9747574925422668e-01" purity="5.6368589401245117e-01" nType="-99"/>
            <Node pos="r" depth="3" NCoef="0" IVar="-1" Cut="0.0000000000000000e+00" cType="1" res="-1.2825035490095615e-02" rms="3.7822103500366211e-01" purity="4.7402596473693848e-01" nType="-99"/>
          </Node>
          <Node pos="r" depth="2" NCoef="0" IVar="-1" Cut="0.0000000000000000e+00" cType="1" res="-6.4632701687514782e-03" rms="4.1151517629623413e-01" purity="4.5916274189949036e-01" nType="-99"/>
        </Node>
      </Node>
    </BinaryTree>
    <BinaryTree type="DecisionTree" boostWeight="1.0000000000000000e+00" itree="184">
      <Node pos="s" depth="0" NCoef="0" IVar="8" Cut="2.8700983524322510e+00" cType="1" res="9.0236280811950564e-04" rms="4.1372981667518616e-01" purity="5.0165903568267822e-01" nType="0">
        <Node pos="l" depth="1" NCoef="0" IVar="0" Cut="1.8015857812500000e+05" cType="1" res="-2.3319492116570473e-02" rms="4.4162857532501221e-01" purity="4.4268709421157837e-01" nType="0">
          <Node pos="l" depth="2" NCoef="0" IVar="-1" Cut="0.0000000000000000e+00" cType="1" res="3.2193498918786645e-04" rms="4.6440041065216064e-01" purity="5.1701915264129639e-01" nType="-99"/>
          <Node pos="r" depth="2" NCoef="0" IVar="-1" Cut="0.0000000000000000e+00" cType="1" res="-1.4004690572619438e-02" rms="4.2044782638549805e-01" purity="3.8022843003273010e-01" nType="-99"/>
        </Node>
        <Node pos="r" depth="1" NCoef="0" IVar="8" Cut="3.0769445896148682e+00" cType="1" res="8.2390699535608292e-03" rms="4.0461423993110657e-01" purity="5.1952147483825684e-01" nType="0">
          <Node pos="l" depth="2" NCoef="0" IVar="7" Cut="3.1416986083984375e+02" cType="1" res="-1.6227011801674962e-03" rms="4.0792325139045715e-01" purity="5.0183331966400146e-01" nType="0">
            <Node pos="l" depth="3" NCoef="0" IVar="7" Cut="1.4517573547363281e+02" cType="1" res="-1.2032154947519302e-02" rms="4.1196766495704651e-01" purity="4.3183195590972900e-01" nType="0">
              <Node pos="l" depth="4" NCoef="0" IVar="-1" Cut="0.0000000000000000e+00" cType="1" res="3.7427297793328762e-03" rms="3.7508764863014221e-01" purity="3.0458387732505798e-01" nType="-99"/>
              <Node pos="r" depth="4" NCoef="0" IVar="-1" Cut="0.0000000000000000e+00" cType="1" res="-6.3284928910434246e-03" rms="4.2496296763420105e-01" purity="4.8075538873672485e-01" nType="-99"/>
            </Node>
            <Node pos="r" depth="3" NCoef="0" IVar="-1" Cut="0.0000000000000000e+00" cType="1" res="9.6565149724483490e-03" rms="3.9306533336639404e-01" purity="7.2300630807876587e-01" nType="-99"/>
          </Node>
          <Node pos="r" depth="2" NCoef="0" IVar="2" Cut="1.7901914119720459e+00" cType="1" res="2.9812809079885483e-02" rms="3.9642480015754700e-01" purity="5.5821621417999268e-01" nType="0">
            <Node pos="l" depth="3" NCoef="0" IVar="-1" Cut="0.0000000000000000e+00" cType="1" res="1.3150769285857677e-02" rms="3.7489297986030579e-01" purity="5.1355683803558350e-01" nType="-99"/>
            <Node pos="r" depth="3" NCoef="0" IVar="-1" Cut="0.0000000000000000e+00" cType="1" res="2.5416442658752203e-03" rms="4.1338342428207397e-01" purity="5.9802818298339844e-01" nType="-99"/>
          </Node>
        </Node>
      </Node>
    </BinaryTree>
    <BinaryTree type="DecisionTree" boostWeight="1.0000000000000000e+00" itree="185">
      <Node pos="s" depth="0" NCoef="0" IVar="9" Cut="2.0000000000000000e+00" cType="1" res="6.5789988730102777e-04" rms="4.1477757692337036e-01" purity="4.9384656548500061e-01" nType="0">
        <Node pos="l" depth="1" NCoef="0" IVar="-1" Cut="0.0000000000000000e+00" cType="1" res="8.3348471671342850e-03" rms="4.3155691027641296e-01" purity="4.3673896789550781e-01" nType="-99"/>
        <Node pos="r" depth="1" NCoef="0" IVar="5" Cut="2.1084753417968750e+02" cType="1" res="-4.4431206770241261e-03" rms="4.1162678599357605e-01" purity="5.0361704826354980e-01" nType="0">
          <Node pos="l" depth="2" NCoef="0" IVar="8" Cut="2.8439750671386719e+00" cType="1" res="1.0915953898802400e-03" rms="4.0626552700996399e-01" purity="5.3664743900299072e-01" nType="0">
            <Node pos="l" depth="3" NCoef="0" IVar="-1" Cut="0.0000000000000000e+00" cType="1" res="-7.8886644914746284e-03" rms="4.3579909205436707e-01" purity="4.7192823886871338e-01" nType="-99"/>
            <Node pos="r" depth="3" NCoef="0" IVar="1" Cut="1.6457318067550659e+00" cType="1" res="9.8605062812566757e-03" rms="3.9751484990119934e-01" purity="5.5400544404983521e-01" nType="0">
              <Node pos="l" depth="4" NCoef="0" IVar="-1" Cut="0.0000000000000000e+00" cType="1" res="-8.0169795546680689e-04" rms="4.0318265557289124e-01" purity="5.2848684787750244e-01" nType="-99"/>
              <Node pos="r" depth="4" NCoef="0" IVar="-1" Cut="0.0000000000000000e+00" cType="1" res="1.4345268718898296e-02" rms="3.8303747773170471e-01" purity="6.1156427860260010e-01" nType="-99"/>
            </Node>
          </Node>
          <Node pos="r" depth="2" NCoef="0" IVar="4" Cut="6.8754250000000000e+04" cType="1" res="-1.6104681417346001e-02" rms="4.2246311902999878e-01" purity="4.3402260541915894e-01" nType="0">
            <Node pos="l" depth="3" NCoef="0" IVar="-1" Cut="0.0000000000000000e+00" cType="1" res="-1.0631213895976543e-02" rms="4.0436321496963501e-01" purity="3.5857555270195007e-01" nType="-99"/>
            <Node pos="r" depth="3" NCoef="0" IVar="-1" Cut="0.0000000000000000e+00" cType="1" res="-6.7247019615024328e-04" rms="4.4159123301506042e-01" purity="5.1925021409988403e-01" nType="-99"/>
          </Node>
        </Node>
      </Node>
    </BinaryTree>
    <BinaryTree type="DecisionTree" boostWeight="1.0000000000000000e+00" itree="186">
      <Node pos="s" depth="0" NCoef="0" IVar="3" Cut="1.3028357812500000e+05" cType="1" res="0.0000000000000000e+00" rms="0.0000000000000000e+00" purity="5.0580298900604248e-01" nType="0">
        <Node pos="l" depth="1" NCoef="0" IVar="4" Cut="7.4586734375000000e+04" cType="1" res="4.2249206453561783e-03" rms="4.1753914952278137e-01" purity="4.8549368977546692e-01" nType="0">
          <Node pos="l" depth="2" NCoef="0" IVar="8" Cut="2.8935790061950684e+00" cType="1" res="1.0990543290972710e-02" rms="4.1939064860343933e-01" purity="4.5504274964332581e-01" nType="0">
            <Node pos="l" depth="3" NCoef="0" IVar="-1" Cut="0.0000000000000000e+00" cType="1" res="1.1070528998970985e-02" rms="4.4943282008171082e-01" purity="4.2660316824913025e-01" nType="-99"/>
            <Node pos="r" depth="3" NCoef="0" IVar="6" Cut="6.2595474720001221e-01" cType="1" res="2.1089711226522923e-03" rms="4.0808075666427612e-01" purity="4.6490594744682312e-01" nType="0">
              <Node pos="l" depth="4" NCoef="0" IVar="-1" Cut="0.0000000000000000e+00" cType="1" res="-8.1047937273979187e-03" rms="4.2646354436874390e-01" purity="4.0988084673881531e-01" nType="-99"/>
              <Node pos="r" depth="4" NCoef="0" IVar="-1" Cut="0.0000000000000000e+00" cType="1" res="4.3132053688168526e-03" rms="4.0104740858078003e-01" purity="4.8403280973434448e-01" nType="-99"/>
            </Node>
          </Node>
          <Node pos="r" depth="2" NCoef="0" IVar="-1" Cut="0.0000000000000000e+00" cType="1" res="-7.3824664577841759e-03" rms="4.0900921821594238e-01" purity="6.0631436109542847e-01" nType="-99"/>
        </Node>
        <Node pos="r" depth="1" NCoef="0" IVar="-1" Cut="0.0000000000000000e+00" cType="1" res="7.8907534480094910e-03" rms="4.2325964570045471e-01" purity="5.9828358888626099e-01" nType="-99"/>
      </Node>
    </BinaryTree>
    <BinaryTree type="DecisionTree" boostWeight="1.0000000000000000e+00" itree="187">
      <Node pos="s" depth="0" NCoef="0" IVar="1" Cut="2.5430798530578613e+00" cType="1" res="-4.7779991291463375e-03" rms="4.1730338335037231e-01" purity="4.9116837978363037e-01" nType="0">
        <Node pos="l" depth="1" NCoef="0" IVar="4" Cut="8.2914906250000000e+04" cType="1" res="-9.7654787823557854e-03" rms="4.1585251688957214e-01" purity="4.8077708482742310e-01" nType="0">
          <Node pos="l" depth="2" NCoef="0" IVar="6" Cut="7.1028852462768555e-01" cType="1" res="-1.8165018409490585e-03" rms="4.1411241888999939e-01" purity="4.5519521832466125e-01" nType="0">
            <Node pos="l" depth="3" NCoef="0" IVar="1" Cut="-2.3297252655029297e+00" cType="1" res="8.2364585250616074e-03" rms="4.2503330111503601e-01" purity="4.8981004953384399e-01" nType="0">
              <Node pos="l" depth="4" NCoef="0" IVar="-1" Cut="0.0000000000000000e+00" cType="1" res="-8.7359203025698662e-03" rms="4.2240843176841736e-01" purity="4.2510718107223511e-01" nType="-99"/>
              <Node pos="r" depth="4" NCoef="0" IVar="-1" Cut="0.0000000000000000e+00" cType="1" res="8.2514043897390366e-03" rms="4.2457458376884460e-01" purity="5.1240402460098267e-01" nType="-99"/>
            </Node>
            <Node pos="r" depth="3" NCoef="0" IVar="2" Cut="1.6131155490875244e+00" cType="1" res="-1.8539739772677422e-02" rms="3.9471063017845154e-01" purity="3.9761298894882202e-01" nType="0">
              <Node pos="l" depth="4" NCoef="0" IVar="-1" Cut="0.0000000000000000e+00" cType="1" res="6.9426512345671654e-04" rms="3.6789101362228394e-01" purity="2.6588734984397888e-01" nType="-99"/>
              <Node pos="r" depth="4" NCoef="0" IVar="-1" Cut="0.0000000000000000e+00" cType="1" res="-9.2434082180261612e-03" rms="4.1432803869247437e-01" purity="5.0349146127700806e-01" nType="-99"/>
            </Node>
          </Node>
          <Node pos="r" depth="2" NCoef="0" IVar="-1" Cut="0.0000000000000000e+00" cType="1" res="-1.4680095948278904e-02" rms="4.2120283842086792e-01" purity="5.8209562301635742e-01" nType="-99"/>
        </Node>
        <Node pos="r" depth="1" NCoef="0" IVar="-1" Cut="0.0000000000000000e+00" cType="1" res="7.8000836074352264e-03" rms="4.2390456795692444e-01" purity="5.4598116874694824e-01" nType="-99"/>
      </Node>
    </BinaryTree>
    <BinaryTree type="DecisionTree" boostWeight="1.0000000000000000e+00" itree="188">
      <Node pos="s" depth="0" NCoef="0" IVar="2" Cut="2.0863716602325439e+00" cType="1" res="-1.8819648539647460e-03" rms="4.1734987497329712e-01" purity="4.9907734990119934e-01" nType="0">
        <Node pos="l" depth="1" NCoef="0" IVar="4" Cut="5.9469019531250000e+04" cType="1" res="7.9008722677826881e-03" rms="4.0258845686912537e-01" purity="4.5833304524421692e-01" nType="0">
          <Node pos="l" depth="2" NCoef="0" IVar="4" Cut="4.6417964843750000e+04" cType="1" res="0.0000000000000000e+00" rms="0.0000000000000000e+00" purity="3.5905405879020691e-01" nType="0">
            <Node pos="l" depth="3" NCoef="0" IVar="-1" Cut="0.0000000000000000e+00" cType="1" res="6.8020354956388474e-04" rms="3.8104006648063660e-01" purity="2.9046720266342163e-01" nType="-99"/>
            <Node pos="r" depth="3" NCoef="0" IVar="-1" Cut="0.0000000000000000e+00" cType="1" res="1.5962582081556320e-02" rms="3.9311096072196960e-01" purity="4.7286117076873779e-01" nType="-99"/>
          </Node>
          <Node pos="r" depth="2" NCoef="0" IVar="5" Cut="2.0643585205078125e+02" cType="1" res="-5.9464699588716030e-03" rms="4.1999292373657227e-01" purity="5.7189166545867920e-01" nType="0">
            <Node pos="l" depth="3" NCoef="0" IVar="-1" Cut="0.0000000000000000e+00" cType="1" res="4.5030629262328148e-03" rms="4.0729689598083496e-01" purity="6.5074312686920166e-01" nType="-99"/>
            <Node pos="r" depth="3" NCoef="0" IVar="-1" Cut="0.0000000000000000e+00" cType="1" res="-1.2111063115298748e-02" rms="4.3637824058532715e-01" purity="4.5483696460723877e-01" nType="-99"/>
          </Node>
        </Node>
        <Node pos="r" depth="1" NCoef="0" IVar="8" Cut="2.9467427730560303e+00" cType="1" res="-1.3776808045804501e-02" rms="4.3432646989822388e-01" purity="5.4861789941787720e-01" nType="0">
          <Node pos="l" depth="2" NCoef="0" IVar="-1" Cut="0.0000000000000000e+00" cType="1" res="2.4999894667416811e-03" rms="4.4309142231941223e-01" purity="5.4478216171264648e-01" nType="-99"/>
          <Node pos="r" depth="2" NCoef="0" IVar="9" Cut="3.0000000000000000e+00" cType="1" res="-2.8074787929654121e-02" rms="4.2780405282974243e-01" purity="5.5091321468353271e-01" nType="0">
            <Node pos="l" depth="3" NCoef="0" IVar="-1" Cut="0.0000000000000000e+00" cType="1" res="-8.1652645021677017e-03" rms="4.3159571290016174e-01" purity="4.4817420840263367e-01" nType="-99"/>
            <Node pos="r" depth="3" NCoef="0" IVar="-1" Cut="0.0000000000000000e+00" cType="1" res="-4.0788119658827782e-03" rms="4.2513680458068848e-01" purity="6.3811612129211426e-01" nType="-99"/>
          </Node>
        </Node>
      </Node>
    </BinaryTree>
    <BinaryTree type="DecisionTree" boostWeight="1.0000000000000000e+00" itree="189">
      <Node pos="s" depth="0" NCoef="0" IVar="4" Cut="4.2345027343750000e+04" cType="1" res="4.4926631380803883e-04" rms="4.1616281867027283e-01" purity="5.0239622592926025e-01" nType="0">
        <Node pos="l" depth="1" NCoef="0" IVar="2" Cut="1.6791174411773682e+00" cType="1" res="0.0000000000000000e+00" rms="0.0000000000000000e+00" purity="3.2206872105598450e-01" nType="0">
          <Node pos="l" depth="2" NCoef="0" IVar="-1" Cut="0.0000000000000000e+00" cType="1" res="-1.7494281055405736e-03" rms="3.4196373820304871e-01" purity="2.2541011869907379e-01" nType="-99"/>
          <Node pos="r" depth="2" NCoef="0" IVar="-1" Cut="0.0000000000000000e+00" cType="1" res="-1.4723497442901134e-02" rms="4.4017437100410461e-01" purity="4.0911158919334412e-01" nType="-99"/>
        </Node>
        <Node pos="r" depth="1" NCoef="0" IVar="6" Cut="7.3689097166061401e-01" cType="1" res="9.4068758189678192e-03" rms="4.2163661122322083e-01" purity="5.6013113260269165e-01" nType="0">
          <Node pos="l" depth="2" NCoef="0" IVar="8" Cut="2.8503582477569580e+00" cType="1" res="-1.5335897915065289e-03" rms="4.2976701259613037e-01" purity="5.5302494764328003e-01" nType="0">
            <Node pos="l" depth="3" NCoef="0" IVar="-1" Cut="0.0000000000000000e+00" cType="1" res="7.1816602721810341e-03" rms="4.5007199048995972e-01" purity="5.3377711772918701e-01" nType="-99"/>
            <Node pos="r" depth="3" NCoef="0" IVar="6" Cut="5.6053382158279419e-01" cType="1" res="-1.2276826426386833e-02" rms="4.2175462841987610e-01" purity="5.5990338325500488e-01" nType="0">
              <Node pos="l" depth="4" NCoef="0" IVar="-1" Cut="0.0000000000000000e+00" cType="1" res="-1.1413599364459515e-02" rms="4.4336941838264465e-01" purity="4.1065138578414917e-01" nType="-99"/>
              <Node pos="r" depth="4" NCoef="0" IVar="-1" Cut="0.0000000000000000e+00" cType="1" res="7.8060355735942721e-04" rms="4.1011539101600647e-01" purity="6.3208198547363281e-01" nType="-99"/>
            </Node>
          </Node>
          <Node pos="r" depth="2" NCoef="0" IVar="-1" Cut="0.0000000000000000e+00" cType="1" res="1.5375328250229359e-02" rms="3.8382589817047119e-01" purity="5.8888614177703857e-01" nType="-99"/>
        </Node>
      </Node>
    </BinaryTree>
    <BinaryTree type="DecisionTree" boostWeight="1.0000000000000000e+00" itree="190">
      <Node pos="s" depth="0" NCoef="0" IVar="6" Cut="5.6942999362945557e-01" cType="1" res="3.9562168531119823e-03" rms="4.1923677921295166e-01" purity="5.0546383857727051e-01" nType="0">
        <Node pos="l" depth="1" NCoef="0" IVar="2" Cut="1.6276214122772217e+00" cType="1" res="0.0000000000000000e+00" rms="0.0000000000000000e+00" purity="4.5908749103546143e-01" nType="0">
          <Node pos="l" depth="2" NCoef="0" IVar="-1" Cut="0.0000000000000000e+00" cType="1" res="1.3055042363703251e-02" rms="4.3246686458587646e-01" purity="4.0287601947784424e-01" nType="-99"/>
          <Node pos="r" depth="2" NCoef="0" IVar="-1" Cut="0.0000000000000000e+00" cType="1" res="1.4967930037528276e-03" rms="4.5810410380363464e-01" purity="4.9782201647758484e-01" nType="-99"/>
        </Node>
        <Node pos="r" depth="1" NCoef="0" IVar="2" Cut="2.8421649932861328e+00" cType="1" res="-2.3124627768993378e-03" rms="4.0723377466201782e-01" purity="5.2356660366058350e-01" nType="0">
          <Node pos="l" depth="2" NCoef="0" IVar="8" Cut="3.0996763706207275e+00" cType="1" res="-7.8892046585679054e-03" rms="4.0249106287956238e-01" purity="5.0991660356521606e-01" nType="0">
            <Node pos="l" depth="3" NCoef="0" IVar="8" Cut="2.9002246856689453e+00" cType="1" res="-1.8509879708290100e-02" rms="4.0724948048591614e-01" purity="4.9177876114845276e-01" nType="0">
              <Node pos="l" depth="4" NCoef="0" IVar="-1" Cut="0.0000000000000000e+00" cType="1" res="-1.2723383493721485e-02" rms="4.3029147386550903e-01" purity="4.4192710518836975e-01" nType="-99"/>
              <Node pos="r" depth="4" NCoef="0" IVar="-1" Cut="0.0000000000000000e+00" cType="1" res="-4.2850128374993801e-03" rms="3.9838916063308716e-01" purity="5.0968068838119507e-01" nType="-99"/>
            </Node>
            <Node pos="r" depth="3" NCoef="0" IVar="-1" Cut="0.0000000000000000e+00" cType="1" res="1.1948144063353539e-02" rms="3.7823489308357239e-01" purity="5.8716815710067749e-01" nType="-99"/>
          </Node>
          <Node pos="r" depth="2" NCoef="0" IVar="-1" Cut="0.0000000000000000e+00" cType="1" res="8.0354884266853333e-03" rms="4.2717635631561279e-01" purity="5.8548969030380249e-01" nType="-99"/>
        </Node>
      </Node>
    </BinaryTree>
    <BinaryTree type="DecisionTree" boostWeight="1.0000000000000000e+00" itree="191">
      <Node pos="s" depth="0" NCoef="0" IVar="6" Cut="4.8480477929115295e-01" cType="1" res="0.0000000000000000e+00" rms="0.0000000000000000e+00" purity="4.9752730131149292e-01" nType="0">
        <Node pos="l" depth="1" NCoef="0" IVar="-1" Cut="0.0000000000000000e+00" cType="1" res="-9.1261016204953194e-03" rms="4.2576575279235840e-01" purity="3.0875584483146667e-01" nType="-99"/>
        <Node pos="r" depth="1" NCoef="0" IVar="2" Cut="1.0959277153015137e+00" cType="1" res="-2.4969372898340225e-03" rms="4.1422712802886963e-01" purity="5.2042728662490845e-01" nType="0">
          <Node pos="l" depth="2" NCoef="0" IVar="7" Cut="2.2286894226074219e+02" cType="1" res="1.6568332910537720e-02" rms="3.6222368478775024e-01" purity="3.3054026961326599e-01" nType="0">
            <Node pos="l" depth="3" NCoef="0" IVar="-1" Cut="0.0000000000000000e+00" cType="1" res="9.5227529527619481e-04" rms="3.1738331913948059e-01" purity="1.6520577669143677e-01" nType="-99"/>
            <Node pos="r" depth="3" NCoef="0" IVar="-1" Cut="0.0000000000000000e+00" cType="1" res="9.4802919775247574e-03" rms="4.0120682120323181e-01" purity="4.9449434876441956e-01" nType="-99"/>
          </Node>
          <Node pos="r" depth="2" NCoef="0" IVar="6" Cut="7.5095540285110474e-01" cType="1" res="-8.2931220531463623e-03" rms="4.2862069606781006e-01" purity="5.7815641164779663e-01" nType="0">
            <Node pos="l" depth="3" NCoef="0" IVar="6" Cut="6.8764156103134155e-01" cType="1" res="-3.5021316725760698e-03" rms="4.3186020851135254e-01" purity="6.0561752319335938e-01" nType="0">
              <Node pos="l" depth="4" NCoef="0" IVar="-1" Cut="0.0000000000000000e+00" cType="1" res="-4.4460571371018887e-03" rms="4.3931305408477783e-01" purity="5.8344185352325439e-01" nType="-99"/>
              <Node pos="r" depth="4" NCoef="0" IVar="-1" Cut="0.0000000000000000e+00" cType="1" res="9.8534394055604935e-03" rms="4.0661329030990601e-01" purity="6.7239558696746826e-01" nType="-99"/>
            </Node>
            <Node pos="r" depth="3" NCoef="0" IVar="-1" Cut="0.0000000000000000e+00" cType="1" res="-9.1964798048138618e-03" rms="4.1648352146148682e-01" purity="4.8075598478317261e-01" nType="-99"/>
          </Node>
        </Node>
      </Node>
    </BinaryTree>
    <BinaryTree type="DecisionTree" boostWeight="1.0000000000000000e+00" itree="192">
      <Node pos="s" depth="0" NCoef="0" IVar="4" Cut="6.4174312500000000e+04" cType="1" res="2.6241939049214125e-03" rms="4.1611203551292419e-01" purity="5.0223481655120850e-01" nType="0">
        <Node pos="l" depth="1" NCoef="0" IVar="6" Cut="5.6979614496231079e-01" cType="1" res="9.8167248070240021e-03" rms="4.1430330276489258e-01" purity="4.4095280766487122e-01" nType="0">
          <Node pos="l" depth="2" NCoef="0" IVar="-1" Cut="0.0000000000000000e+00" cType="1" res="1.1970977298915386e-02" rms="4.3095538020133972e-01" purity="3.8620823621749878e-01" nType="-99"/>
          <Node pos="r" depth="2" NCoef="0" IVar="1" Cut="1.9437634944915771e+00" cType="1" res="0.0000000000000000e+00" rms="0.0000000000000000e+00" purity="4.5385825634002686e-01" nType="0">
            <Node pos="l" depth="3" NCoef="0" IVar="1" Cut="-1.2050422430038452e+00" cType="1" res="1.0988541878759861e-02" rms="4.0406465530395508e-01" purity="4.4762253761291504e-01" nType="0">
              <Node pos="l" depth="4" NCoef="0" IVar="-1" Cut="0.0000000000000000e+00" cType="1" res="-2.0588459447026253e-03" rms="4.1348880529403687e-01" purity="4.8445484042167664e-01" nType="-99"/>
              <Node pos="r" depth="4" NCoef="0" IVar="-1" Cut="0.0000000000000000e+00" cType="1" res="8.1711532548069954e-03" rms="3.9475449919700623e-01" purity="4.1430446505546570e-01" nType="-99"/>
            </Node>
            <Node pos="r" depth="3" NCoef="0" IVar="-1" Cut="0.0000000000000000e+00" cType="1" res="-5.4990621283650398e-03" rms="4.2536386847496033e-01" purity="4.7100508213043213e-01" nType="-99"/>
          </Node>
        </Node>
        <Node pos="r" depth="1" NCoef="0" IVar="6" Cut="5.5786269903182983e-01" cType="1" res="-7.8609688207507133e-03" rms="4.1851341724395752e-01" purity="5.9157091379165649e-01" nType="0">
          <Node pos="l" depth="2" NCoef="0" IVar="-1" Cut="0.0000000000000000e+00" cType="1" res="-6.5198233351111412e-03" rms="4.4096142053604126e-01" purity="4.6418017148971558e-01" nType="-99"/>
          <Node pos="r" depth="2" NCoef="0" IVar="2" Cut="2.0397026538848877e+00" cType="1" res="4.2049852199852467e-03" rms="4.0239134430885315e-01" purity="6.7655432224273682e-01" nType="0">
            <Node pos="l" depth="3" NCoef="0" IVar="-1" Cut="0.0000000000000000e+00" cType="1" res="8.3606541156768799e-03" rms="3.9617177844047546e-01" purity="6.6566103696823120e-01" nType="-99"/>
            <Node pos="r" depth="3" NCoef="0" IVar="-1" Cut="0.0000000000000000e+00" cType="1" res="-5.4132374934852123e-03" rms="4.0807396173477173e-01" purity="6.8844288587570190e-01" nType="-99"/>
          </Node>
        </Node>
      </Node>
    </BinaryTree>
    <BinaryTree type="DecisionTree" boostWeight="1.0000000000000000e+00" itree="193">
      <Node pos="s" depth="0" NCoef="0" IVar="3" Cut="1.1184771875000000e+05" cType="1" res="6.1260065995156765e-03" rms="4.1255065798759460e-01" purity="5.0346159934997559e-01" nType="0">
        <Node pos="l" depth="1" NCoef="0" IVar="1" Cut="2.2433328628540039e+00" cType="1" res="-9.0430438285693526e-04" rms="4.0812072157859802e-01" purity="4.7058698534965515e-01" nType="0">
          <Node pos="l" depth="2" NCoef="0" IVar="8" Cut="2.8439750671386719e+00" cType="1" res="7.6181199401617050e-03" rms="4.0532317757606506e-01" purity="4.6821394562721252e-01" nType="0">
            <Node pos="l" depth="3" NCoef="0" IVar="-1" Cut="0.0000000000000000e+00" cType="1" res="-5.7115447707474232e-03" rms="4.3317189812660217e-01" purity="3.8641515374183655e-01" nType="-99"/>
            <Node pos="r" depth="3" NCoef="0" IVar="4" Cut="6.1085722656250000e+04" cType="1" res="1.3477213680744171e-02" rms="3.9835435152053833e-01" purity="4.8719465732574463e-01" nType="0">
              <Node pos="l" depth="4" NCoef="0" IVar="-1" Cut="0.0000000000000000e+00" cType="1" res="1.7981453565880656e-03" rms="3.9972391724586487e-01" purity="4.2670601606369019e-01" nType="-99"/>
              <Node pos="r" depth="4" NCoef="0" IVar="-1" Cut="0.0000000000000000e+00" cType="1" res="9.7226966172456741e-03" rms="3.9442870020866394e-01" purity="6.2671643495559692e-01" nType="-99"/>
            </Node>
          </Node>
          <Node pos="r" depth="2" NCoef="0" IVar="-1" Cut="0.0000000000000000e+00" cType="1" res="-1.0225632227957249e-02" rms="4.1663756966590881e-01" purity="4.7917938232421875e-01" nType="-99"/>
        </Node>
        <Node pos="r" depth="1" NCoef="0" IVar="5" Cut="2.1941397094726562e+02" cType="1" res="2.5527052581310272e-02" rms="4.2393150925636292e-01" purity="5.9418326616287231e-01" nType="0">
          <Node pos="l" depth="2" NCoef="0" IVar="-1" Cut="0.0000000000000000e+00" cType="1" res="1.0480633936822414e-02" rms="4.2353066802024841e-01" purity="6.6225868463516235e-01" nType="-99"/>
          <Node pos="r" depth="2" NCoef="0" IVar="-1" Cut="0.0000000000000000e+00" cType="1" res="1.1272627161815763e-03" rms="4.2349463701248169e-01" purity="4.9792909622192383e-01" nType="-99"/>
        </Node>
      </Node>
    </BinaryTree>
    <BinaryTree type="DecisionTree" boostWeight="1.0000000000000000e+00" itree="194">
      <Node pos="s" depth="0" NCoef="0" IVar="8" Cut="2.8439812660217285e+00" cType="1" res="1.3773377286270261e-03" rms="4.1127225756645203e-01" purity="5.0637912750244141e-01" nType="0">
        <Node pos="l" depth="1" NCoef="0" IVar="-1" Cut="0.0000000000000000e+00" cType="1" res="7.3884828016161919e-03" rms="4.5015260577201843e-01" purity="4.9500340223312378e-01" nType="-99"/>
        <Node pos="r" depth="1" NCoef="0" IVar="9" Cut="2.0000000000000000e+00" cType="1" res="-4.9217334017157555e-03" rms="4.0038335323333740e-01" purity="5.0927799940109253e-01" nType="0">
          <Node pos="l" depth="2" NCoef="0" IVar="-1" Cut="0.0000000000000000e+00" cType="1" res="-9.7140287980437279e-03" rms="4.0438815951347351e-01" purity="3.6987909674644470e-01" nType="-99"/>
          <Node pos="r" depth="2" NCoef="0" IVar="3" Cut="9.1582984375000000e+04" cType="1" res="1.7918499652296305e-03" rms="3.9948129653930664e-01" purity="5.3340351581573486e-01" nType="0">
            <Node pos="l" depth="3" NCoef="0" IVar="0" Cut="2.4037293750000000e+05" cType="1" res="1.2701223604381084e-02" rms="3.9164656400680542e-01" purity="5.0075119733810425e-01" nType="0">
              <Node pos="l" depth="4" NCoef="0" IVar="-1" Cut="0.0000000000000000e+00" cType="1" res="8.9037995785474777e-03" rms="4.2574936151504517e-01" purity="6.5197485685348511e-01" nType="-99"/>
              <Node pos="r" depth="4" NCoef="0" IVar="-1" Cut="0.0000000000000000e+00" cType="1" res="-1.0264479555189610e-02" rms="3.1162497401237488e-01" purity="2.0227254927158356e-01" nType="-99"/>
            </Node>
            <Node pos="r" depth="3" NCoef="0" IVar="2" Cut="2.0182301998138428e+00" cType="1" res="-1.4143212698400021e-02" rms="4.1013559699058533e-01" purity="5.8109796047210693e-01" nType="0">
              <Node pos="l" depth="4" NCoef="0" IVar="-1" Cut="0.0000000000000000e+00" cType="1" res="-2.9110428295098245e-04" rms="3.9365202188491821e-01" purity="5.7081490755081177e-01" nType="-99"/>
              <Node pos="r" depth="4" NCoef="0" IVar="-1" Cut="0.0000000000000000e+00" cType="1" res="-6.1704982072114944e-03" rms="4.2691254615783691e-01" purity="5.9231454133987427e-01" nType="-99"/>
            </Node>
          </Node>
        </Node>
      </Node>
    </BinaryTree>
    <BinaryTree type="DecisionTree" boostWeight="1.0000000000000000e+00" itree="195">
      <Node pos="s" depth="0" NCoef="0" IVar="3" Cut="1.4047739062500000e+05" cType="1" res="-9.2626066179946065e-04" rms="4.1502380371093750e-01" purity="5.0106430053710938e-01" nType="0">
        <Node pos="l" depth="1" NCoef="0" IVar="8" Cut="2.7943742275238037e+00" cType="1" res="3.4420678857713938e-03" rms="4.1409525275230408e-01" purity="4.9589896202087402e-01" nType="0">
          <Node pos="l" depth="2" NCoef="0" IVar="-1" Cut="0.0000000000000000e+00" cType="1" res="-8.1383800134062767e-03" rms="4.5247802138328552e-01" purity="4.2341378331184387e-01" nType="-99"/>
          <Node pos="r" depth="2" NCoef="0" IVar="2" Cut="8.2671612501144409e-01" cType="1" res="8.6133470758795738e-03" rms="4.0744313597679138e-01" purity="5.0738239288330078e-01" nType="0">
            <Node pos="l" depth="3" NCoef="0" IVar="-1" Cut="0.0000000000000000e+00" cType="1" res="-1.7657745629549026e-02" rms="3.1296616792678833e-01" purity="1.6575865447521210e-01" nType="-99"/>
            <Node pos="r" depth="3" NCoef="0" IVar="2" Cut="1.6906505823135376e+00" cType="1" res="1.4581837691366673e-02" rms="4.2089703679084778e-01" purity="5.6456655263900757e-01" nType="0">
              <Node pos="l" depth="4" NCoef="0" IVar="-1" Cut="0.0000000000000000e+00" cType="1" res="1.1340448632836342e-02" rms="4.1429758071899414e-01" purity="5.1946258544921875e-01" nType="-99"/>
              <Node pos="r" depth="4" NCoef="0" IVar="-1" Cut="0.0000000000000000e+00" cType="1" res="1.7918936209753156e-03" rms="4.2398923635482788e-01" purity="5.8777111768722534e-01" nType="-99"/>
            </Node>
          </Node>
        </Node>
        <Node pos="r" depth="1" NCoef="0" IVar="-1" Cut="0.0000000000000000e+00" cType="1" res="-6.1202524229884148e-03" rms="4.1952043771743774e-01" purity="5.3141397237777710e-01" nType="-99"/>
      </Node>
    </BinaryTree>
    <BinaryTree type="DecisionTree" boostWeight="1.0000000000000000e+00" itree="196">
      <Node pos="s" depth="0" NCoef="0" IVar="5" Cut="1.4895149230957031e+02" cType="1" res="-2.8913752175867558e-03" rms="4.1297376155853271e-01" purity="4.9809503555297852e-01" nType="0">
        <Node pos="l" depth="1" NCoef="0" IVar="-1" Cut="0.0000000000000000e+00" cType="1" res="-1.0356046259403229e-02" rms="4.1997912526130676e-01" purity="4.4927841424942017e-01" nType="-99"/>
        <Node pos="r" depth="1" NCoef="0" IVar="9" Cut="4.0000000000000000e+00" cType="1" res="2.4376959481742233e-04" rms="4.1202443838119507e-01" purity="5.0383567810058594e-01" nType="0">
          <Node pos="l" depth="2" NCoef="0" IVar="6" Cut="7.9584956169128418e-01" cType="1" res="-4.7230049967765808e-03" rms="4.1384765505790710e-01" purity="4.7092354297637939e-01" nType="0">
            <Node pos="l" depth="3" NCoef="0" IVar="1" Cut="-1.6456569433212280e+00" cType="1" res="0.0000000000000000e+00" rms="0.0000000000000000e+00" purity="4.8617085814476013e-01" nType="0">
              <Node pos="l" depth="4" NCoef="0" IVar="-1" Cut="0.0000000000000000e+00" cType="1" res="-8.6955092847347260e-03" rms="4.1808798909187317e-01" purity="5.1401513814926147e-01" nType="-99"/>
              <Node pos="r" depth="4" NCoef="0" IVar="-1" Cut="0.0000000000000000e+00" cType="1" res="-6.0176773695275187e-04" rms="4.2128369212150574e-01" purity="4.7202131152153015e-01" nType="-99"/>
            </Node>
            <Node pos="r" depth="3" NCoef="0" IVar="-1" Cut="0.0000000000000000e+00" cType="1" res="8.1259217113256454e-03" rms="3.7487021088600159e-01" purity="3.8683143258094788e-01" nType="-99"/>
          </Node>
          <Node pos="r" depth="2" NCoef="0" IVar="-1" Cut="0.0000000000000000e+00" cType="1" res="6.7756576463580132e-03" rms="4.0457722544670105e-01" purity="6.2758463621139526e-01" nType="-99"/>
        </Node>
      </Node>
    </BinaryTree>
    <BinaryTree type="DecisionTree" boostWeight="1.0000000000000000e+00" itree="197">
      <Node pos="s" depth="0" NCoef="0" IVar="2" Cut="1.0446838140487671e+00" cType="1" res="5.6110434234142303e-03" rms="4.1117930412292480e-01" purity="5.0683391094207764e-01" nType="0">
        <Node pos="l" depth="1" NCoef="0" IVar="0" Cut="2.2433246875000000e+05" cType="1" res="2.4070328101515770e-02" rms="3.7168911099433899e-01" purity="3.2159274816513062e-01" nType="0">
          <Node pos="l" depth="2" NCoef="0" IVar="-1" Cut="0.0000000000000000e+00" cType="1" res="1.6937611624598503e-02" rms="4.4084891676902771e-01" purity="5.0523704290390015e-01" nType="-99"/>
          <Node pos="r" depth="2" NCoef="0" IVar="-1" Cut="0.0000000000000000e+00" cType="1" res="-1.1934735812246799e-02" rms="2.7581214904785156e-01" purity="1.2739621102809906e-01" nType="-99"/>
        </Node>
        <Node pos="r" depth="1" NCoef="0" IVar="4" Cut="3.6602812500000000e+04" cType="1" res="1.3594960910268128e-04" rms="4.2202731966972351e-01" purity="5.6177717447280884e-01" nType="0">
          <Node pos="l" depth="2" NCoef="0" IVar="-1" Cut="0.0000000000000000e+00" cType="1" res="8.6071360856294632e-03" rms="4.1800504922866821e-01" purity="3.9493674039840698e-01" nType="-99"/>
          <Node pos="r" depth="2" NCoef="0" IVar="4" Cut="4.7453328125000000e+04" cType="1" res="-3.9756204932928085e-03" rms="4.2252150177955627e-01" purity="5.8844262361526489e-01" nType="0">
            <Node pos="l" depth="3" NCoef="0" IVar="-1" Cut="0.0000000000000000e+00" cType="1" res="-1.2211118824779987e-02" rms="4.3717435002326965e-01" purity="4.5875340700149536e-01" nType="-99"/>
            <Node pos="r" depth="3" NCoef="0" IVar="2" Cut="2.4241566658020020e+00" cType="1" res="6.1350748874247074e-03" rms="4.1782170534133911e-01" purity="6.2423741817474365e-01" nType="0">
              <Node pos="l" depth="4" NCoef="0" IVar="-1" Cut="0.0000000000000000e+00" cType="1" res="-1.1462767142802477e-03" rms="4.1665348410606384e-01" purity="6.2688213586807251e-01" nType="-99"/>
              <Node pos="r" depth="4" NCoef="0" IVar="-1" Cut="0.0000000000000000e+00" cType="1" res="5.3499639034271240e-03" rms="4.1892674565315247e-01" purity="6.2087225914001465e-01" nType="-99"/>
            </Node>
          </Node>
        </Node>
      </Node>
    </BinaryTree>
    <BinaryTree type="DecisionTree" boostWeight="1.0000000000000000e+00" itree="198">
      <Node pos="s" depth="0" NCoef="0" IVar="8" Cut="2.7533185482025146e+00" cType="1" res="-1.7283263150602579e-03" rms="4.1619166731834412e-01" purity="4.9719747900962830e-01" nType="0">
        <Node pos="l" depth="1" NCoef="0" IVar="-1" Cut="0.0000000000000000e+00" cType="1" res="-1.2967768125236034e-02" rms="4.3692633509635925e-01" purity="4.1658106446266174e-01" nType="-99"/>
        <Node pos="r" depth="1" NCoef="0" IVar="6" Cut="6.5444153547286987e-01" cType="1" res="3.5045945551246405e-03" rms="4.1300064325332642e-01" purity="5.0821858644485474e-01" nType="0">
          <Node pos="l" depth="2" NCoef="0" IVar="7" Cut="3.1700341796875000e+02" cType="1" res="0.0000000000000000e+00" rms="0.0000000000000000e+00" purity="5.1637548208236694e-01" nType="0">
            <Node pos="l" depth="3" NCoef="0" IVar="8" Cut="2.9938006401062012e+00" cType="1" res="2.8257001191377640e-02" rms="4.2576470971107483e-01" purity="4.6449774503707886e-01" nType="0">
              <Node pos="l" depth="4" NCoef="0" IVar="-1" Cut="0.0000000000000000e+00" cType="1" res="1.4974673278629780e-02" rms="4.2645764350891113e-01" purity="4.6821334958076477e-01" nType="-99"/>
              <Node pos="r" depth="4" NCoef="0" IVar="-1" Cut="0.0000000000000000e+00" cType="1" res="3.5988045856356621e-03" rms="4.2434653639793396e-01" purity="4.6111342310905457e-01" nType="-99"/>
            </Node>
            <Node pos="r" depth="3" NCoef="0" IVar="-1" Cut="0.0000000000000000e+00" cType="1" res="-3.3025159500539303e-03" rms="4.2464888095855713e-01" purity="6.2715429067611694e-01" nType="-99"/>
          </Node>
          <Node pos="r" depth="2" NCoef="0" IVar="2" Cut="2.3627874851226807e+00" cType="1" res="-8.0363834276795387e-03" rms="4.0001061558723450e-01" purity="5.0040990114212036e-01" nType="0">
            <Node pos="l" depth="3" NCoef="0" IVar="3" Cut="8.0255804687500000e+04" cType="1" res="-1.9527332857251167e-02" rms="3.8528677821159363e-01" purity="4.4170981645584106e-01" nType="0">
              <Node pos="l" depth="4" NCoef="0" IVar="-1" Cut="0.0000000000000000e+00" cType="1" res="-1.4119132421910763e-02" rms="3.9036402106285095e-01" purity="3.2927998900413513e-01" nType="-99"/>
              <Node pos="r" depth="4" NCoef="0" IVar="-1" Cut="0.0000000000000000e+00" cType="1" res="1.3602883554995060e-03" rms="3.7525331974029541e-01" purity="6.3432407379150391e-01" nType="-99"/>
            </Node>
            <Node pos="r" depth="3" NCoef="0" IVar="-1" Cut="0.0000000000000000e+00" cType="1" res="4.1078086942434311e-03" rms="4.2556902766227722e-01" purity="6.1118376255035400e-01" nType="-99"/>
          </Node>
        </Node>
      </Node>
    </BinaryTree>
    <BinaryTree type="DecisionTree" boostWeight="1.0000000000000000e+00" itree="199">
      <Node pos="s" depth="0" NCoef="0" IVar="6" Cut="6.2458711862564087e-01" cType="1" res="-9.2538673197850585e-04" rms="4.0994516015052795e-01" purity="5.0381225347518921e-01" nType="0">
        <Node pos="l" depth="1" NCoef="0" IVar="3" Cut="8.4604640625000000e+04" cType="1" res="-1.4579013921320438e-02" rms="4.2976671457290649e-01" purity="4.7210124135017395e-01" nType="0">
          <Node pos="l" depth="2" NCoef="0" IVar="-1" Cut="0.0000000000000000e+00" cType="1" res="-1.2712929397821426e-02" rms="4.1365581750869751e-01" purity="3.7466499209403992e-01" nType="-99"/>
          <Node pos="r" depth="2" NCoef="0" IVar="1" Cut="1.3463114500045776e+00" cType="1" res="-2.8258231468498707e-03" rms="4.3640643358230591e-01" purity="5.1650446653366089e-01" nType="0">
            <Node pos="l" depth="3" NCoef="0" IVar="-1" Cut="0.0000000000000000e+00" cType="1" res="-4.2567276395857334e-03" rms="4.4237935543060303e-01" purity="4.8754599690437317e-01" nType="-99"/>
            <Node pos="r" depth="3" NCoef="0" IVar="-1" Cut="0.0000000000000000e+00" cType="1" res="5.3571360185742378e-03" rms="4.2546904087066650e-01" purity="5.6492048501968384e-01" nType="-99"/>
          </Node>
        </Node>
        <Node pos="r" depth="1" NCoef="0" IVar="0" Cut="2.7652531250000000e+05" cType="1" res="9.5319133251905441e-03" rms="3.9377018809318542e-01" purity="5.2809971570968628e-01" nType="0">
          <Node pos="l" depth="2" NCoef="0" IVar="0" Cut="1.8703018750000000e+05" cType="1" res="1.5764610841870308e-02" rms="4.1953358054161072e-01" purity="6.3099616765975952e-01" nType="0">
            <Node pos="l" depth="3" NCoef="0" IVar="7" Cut="2.3089408874511719e+02" cType="1" res="3.7529252469539642e-02" rms="4.2684283852577209e-01" purity="6.9788247346878052e-01" nType="0">
              <Node pos="l" depth="4" NCoef="0" IVar="-1" Cut="0.0000000000000000e+00" cType="1" res="1.1504099704325199e-02" rms="4.4897884130477905e-01" purity="6.3194161653518677e-01" nType="-99"/>
              <Node pos="r" depth="4" NCoef="0" IVar="-1" Cut="0.0000000000000000e+00" cType="1" res="6.2741911970078945e-03" rms="4.0121799707412720e-01" purity="7.6744866371154785e-01" nType="-99"/>
            </Node>
            <Node pos="r" depth="3" NCoef="0" IVar="-1" Cut="0.0000000000000000e+00" cType="1" res="-5.0837243907153606e-03" rms="4.0686419606208801e-01" purity="5.3553801774978638e-01" nType="-99"/>
          </Node>
          <Node pos="r" depth="2" NCoef="0" IVar="-1" Cut="0.0000000000000000e+00" cType="1" res="-7.3674214072525501e-03" rms="2.8230947256088257e-01" purity="1.6115251183509827e-01" nType="-99"/>
        </Node>
      </Node>
    </BinaryTree>
  </Weights>
</MethodSetup>
